<unk>	0
<s>	0
</s>	0
,	-3.15755
▁the	-3.2189
s	-3.46506
.	-3.47634
▁of	-3.83139
▁to	-3.89143
▁and	-3.98214
▁in	-4.21505
▁a	-4.21933
▁that	-4.64202
▁	-4.64989
▁is	-4.65097
-	-4.71514
’	-4.8488
▁for	-5.07044
ing	-5.11221
ed	-5.25341
▁be	-5.30474
▁The	-5.4123
▁–	-5.41662
▁are	-5.45376
▁it	-5.47701
▁on	-5.49281
▁as	-5.51652
▁with	-5.5259
▁not	-5.53935
d	-5.54584
▁by	-5.58071
▁has	-5.68531
▁have	-5.69479
ly	-5.80101
▁will	-5.8099
▁from	-5.89054
▁their	-5.934
▁more	-5.97627
▁its	-5.97821
▁an	-5.98275
▁“	-6.00909
▁was	-6.02677
t	-6.07039
▁But	-6.11031
▁or	-6.13715
▁this	-6.13972
▁at	-6.1591
▁would	-6.17523
n	-6.2119
▁US	-6.24627
▁they	-6.25224
▁In	-6.26425
e	-6.26982
▁countries	-6.27415
▁but	-6.28707
▁than	-6.29628
▁which	-6.32172
▁can	-6.40775
▁(	-6.40863
▁world	-6.41649
y	-6.50525
▁all	-6.50636
”	-6.5372
▁been	-6.54566
▁China	-6.54618
▁economic	-6.55883
▁one	-6.59833
al	-6.60284
▁government	-6.62505
:	-6.63952
'	-6.64858
er	-6.65286
▁new	-6.67194
▁only	-6.68074
▁we	-6.68516
▁other	-6.69413
▁Europe	-6.69607
▁should	-6.71733
▁so	-6.72797
▁about	-6.73084
▁his	-6.7309
▁A	-6.73473
r	-6.73846
▁no	-6.74039
g	-6.74362
▁political	-6.74632
in	-6.75914
▁also	-6.76374
▁global	-6.77806
▁who	-6.78691
▁were	-6.7905
c	-6.80588
;	-6.81068
▁people	-6.83166
a	-6.83976
▁growth	-6.85864
▁most	-6.86385
▁could	-6.86507
▁such	-6.86922
▁now	-6.86994
▁European	-6.87407
▁if	-6.87867
?	-6.88781
▁even	-6.89952
▁do	-6.90336
)	-6.90824
▁over	-6.91057
p	-6.91912
▁financial	-6.92009
▁re	-6.92473
▁years	-6.92652
▁he	-6.93216
▁country	-6.93759
▁This	-6.93906
▁when	-6.95678
▁many	-6.96464
o	-6.99132
▁out	-6.99329
▁It	-7.00758
es	-7.01347
▁may	-7.02671
▁there	-7.02838
▁must	-7.03049
▁these	-7.03156
▁into	-7.03455
▁some	-7.03573
▁I	-7.04649
▁economy	-7.0611
▁time	-7.06824
▁what	-7.06885
an	-7.07665
▁power	-7.10594
▁policy	-7.10925
▁much	-7.11123
▁America	-7.12367
▁up	-7.12382
▁had	-7.13152
▁long	-7.15376
▁के	-7.16004
or	-7.16247
▁because	-7.16391
▁them	-7.17481
ri	-7.18049
▁Russia	-7.19377
▁crisis	-7.20446
▁EU	-7.20874
ation	-7.21278
▁public	-7.22092
re	-7.25035
▁like	-7.25249
▁well	-7.25645
m	-7.26028
▁international	-7.2613
▁between	-7.26148
▁two	-7.26437
▁de	-7.3091
i	-7.3136
ic	-7.31848
b	-7.33912
▁those	-7.3501
▁any	-7.36135
le	-7.36152
▁un	-7.371
▁year	-7.37372
▁state	-7.37678
▁United	-7.37954
.”	-7.38865
f	-7.40194
▁need	-7.40447
u	-7.40742
▁against	-7.42146
▁As	-7.42259
▁debt	-7.42327
▁system	-7.43051
▁market	-7.43106
▁our	-7.43602
▁first	-7.44988
▁And	-7.4508
en	-7.45115
▁way	-7.45508
▁under	-7.45831
ion	-7.46521
▁For	-7.46619
l	-7.47246
▁both	-7.47256
it	-7.47764
▁while	-7.47772
il	-7.48316
▁S	-7.4835
ment	-7.49445
▁how	-7.51217
ers	-7.51493
▁war	-7.51656
▁after	-7.52356
▁high	-7.5259
▁own	-7.53685
▁interest	-7.5379
▁है	-7.53884
▁make	-7.53938
▁less	-7.54668
▁support	-7.55085
▁में	-7.55312
able	-7.56059
▁become	-7.56105
▁far	-7.5628
▁change	-7.56389
▁example	-7.57395
▁American	-7.57431
▁just	-7.5793
▁too	-7.58346
li	-7.58487
▁markets	-7.58861
▁last	-7.58969
▁military	-7.59683
▁leaders	-7.59802
▁trade	-7.60395
▁If	-7.6058
▁national	-7.61146
▁Indeed	-7.61444
ra	-7.61946
h	-7.63285
ity	-7.63522
ro	-7.64505
▁President	-7.64551
at	-7.64859
▁real	-7.65181
▁where	-7.65243
▁So	-7.65255
ी	-7.65808
ism	-7.66071
▁social	-7.66565
▁banks	-7.67394
▁foreign	-7.67621
▁important	-7.68124
।	-7.69214
ा	-7.69367
▁end	-7.69494
▁current	-7.69856
st	-7.69969
ur	-7.70385
ar	-7.70412
▁Japan	-7.70985
▁future	-7.71082
▁rates	-7.72077
▁today	-7.72364
▁same	-7.73206
▁capital	-7.73207
▁does	-7.73405
▁investment	-7.74124
▁might	-7.74186
▁p	-7.74426
▁recent	-7.74681
se	-7.74815
▁States	-7.7511
▁policies	-7.75301
▁risk	-7.75559
▁large	-7.75706
▁still	-7.7625
k	-7.76935
th	-7.77028
▁work	-7.77136
▁human	-7.7726
र	-7.77575
▁f	-7.78815
I	-7.79016
▁G	-7.79245
▁rate	-7.79366
▁through	-7.79475
▁governments	-7.79577
▁की	-7.79625
▁since	-7.79673
▁being	-7.79748
▁right	-7.80012
ting	-7.80032
▁और	-7.80492
▁part	-7.80593
ive	-7.80818
▁billion	-7.80869
term	-7.81094
▁fiscal	-7.81242
▁Germany	-7.81259
▁Chinese	-7.82168
ta	-7.82383
▁development	-7.82635
▁take	-7.83094
▁without	-7.83123
▁We	-7.83345
▁use	-7.83524
▁good	-7.84077
▁help	-7.84249
▁nuclear	-7.84448
▁per	-7.84528
▁likely	-7.8462
▁fact	-7.84624
▁That	-7.85244
▁prices	-7.85959
▁cannot	-7.86543
ist	-7.86737
▁India	-7.86756
▁dis	-7.87013
▁Iran	-7.87125
▁did	-7.87435
as	-7.87526
ck	-7.8753
▁problem	-7.87575
▁order	-7.87674
▁made	-7.87749
▁economies	-7.88038
▁major	-7.88097
la	-7.88132
▁energy	-7.88435
▁"	-7.88593
▁course	-7.88608
▁security	-7.88816
▁To	-7.89068
ों	-7.89535
▁Israel	-7.90132
े	-7.90381
▁di	-7.90605
न	-7.90681
▁result	-7.90782
▁Bank	-7.90997
▁demand	-7.91324
▁better	-7.91799
▁Iraq	-7.92196
est	-7.92781
el	-7.92896
▁d	-7.93256
ate	-7.93261
un	-7.93309
to	-7.93351
on	-7.9343
▁There	-7.94087
▁states	-7.94266
▁past	-7.94344
▁central	-7.9456
▁They	-7.94732
ne	-7.94795
C	-7.9497
▁से	-7.95083
A	-7.95085
▁back	-7.95536
▁oil	-7.95637
▁very	-7.95856
▁reform	-7.9588
▁C	-7.95992
S	-7.96014
▁Union	-7.96606
ce	-7.96899
▁including	-7.96907
▁को	-7.97351
▁before	-7.97518
▁GDP	-7.98233
▁often	-7.98243
▁F	-7.98816
lo	-7.99171
,”	-7.99525
▁T	-7.99739
▁three	-8.00607
▁E	-8.008
▁-	-8.00949
▁institutions	-8.00991
z	-8.01526
),	-8.01636
▁tax	-8.01687
▁role	-8.02189
▁private	-8.02667
▁Obama	-8.02926
).	-8.02933
im	-8.03565
▁low	-8.03791
▁another	-8.03877
ent	-8.04063
▁health	-8.04248
us	-8.0443
▁us	-8.04511
▁down	-8.04571
▁democracy	-8.04824
▁co	-8.05028
▁rather	-8.05218
ti	-8.05454
and	-8.05513
▁short	-8.05655
▁different	-8.058
▁c	-8.05877
▁East	-8.05934
▁increase	-8.06495
क	-8.06619
▁higher	-8.0688
vi	-8.07081
▁clear	-8.07085
▁With	-8.07301
tion	-8.07345
▁Moreover	-8.07563
▁among	-8.07648
▁already	-8.07689
▁region	-8.07832
▁West	-8.07922
▁hard	-8.07955
▁process	-8.08024
▁problems	-8.08082
▁money	-8.08165
▁free	-8.08561
▁B	-8.09053
P	-8.0953
▁point	-8.0955
▁little	-8.09694
et	-8.09739
the	-8.09753
▁France	-8.09917
w	-8.09948
ul	-8.10137
▁poor	-8.10406
▁put	-8.10413
▁around	-8.10535
kan	-8.10539
▁million	-8.11346
▁few	-8.11763
2	-8.11781
▁D	-8.12152
ma	-8.12165
▁Asia	-8.12354
▁least	-8.12418
ted	-8.12819
▁rise	-8.1292
ch	-8.13066
ized	-8.13071
▁World	-8.13228
▁Bush	-8.13285
▁case	-8.13673
ter	-8.13922
▁P	-8.14139
ated	-8.14424
▁spending	-8.14849
▁then	-8.15224
▁means	-8.15287
▁whether	-8.15312
▁At	-8.15351
▁inflation	-8.15365
▁developing	-8.15397
▁come	-8.15686
▁eurozone	-8.15733
▁domestic	-8.16294
▁see	-8.1666
ci	-8.17091
▁con	-8.17299
▁strong	-8.17566
▁pro	-8.17594
lu	-8.17729
त	-8.17978
▁Putin	-8.18578
▁When	-8.18964
▁however	-8.18989
▁next	-8.19012
▁law	-8.19234
▁you	-8.19465
ल	-8.19547
ि	-8.19658
▁needed	-8.19772
"	-8.20012
▁set	-8.20019
▁price	-8.20038
▁labor	-8.20375
▁monetary	-8.2062
mi	-8.20978
▁ago	-8.2105
▁life	-8.21106
▁remain	-8.21232
ir	-8.21511
▁during	-8.21817
▁st	-8.22133
▁rights	-8.22213
▁pre	-8.22236
▁W	-8.22342
▁members	-8.22382
▁almost	-8.22677
▁why	-8.2291
▁income	-8.22951
1	-8.23216
de	-8.23312
▁euro	-8.23404
▁women	-8.23866
▁needs	-8.24217
▁What	-8.24309
▁longer	-8.24504
▁Re	-8.24635
ness	-8.24666
▁remains	-8.24829
▁question	-8.24966
▁peace	-8.25437
▁regime	-8.25443
espite	-8.25559
▁Arab	-8.25619
ll	-8.25815
▁provide	-8.26004
ang	-8.2605
▁climate	-8.26228
▁within	-8.26761
T	-8.27258
▁believe	-8.27464
▁non	-8.27721
▁cost	-8.27819
▁itself	-8.27917
te	-8.27969
is	-8.28287
ies	-8.28413
▁costs	-8.28701
▁Africa	-8.28734
▁se	-8.28805
▁continue	-8.28835
▁never	-8.28915
id	-8.29131
▁force	-8.29195
▁का	-8.29751
▁War	-8.29792
▁companies	-8.30203
▁business	-8.30467
▁especially	-8.30573
▁Turkey	-8.30582
▁emerging	-8.30582
▁seems	-8.30663
▁me	-8.31061
ो	-8.3108
▁number	-8.31081
▁population	-8.31249
▁b	-8.31369
▁exchange	-8.31383
▁best	-8.31434
▁currency	-8.31569
▁approach	-8.31576
▁control	-8.31602
▁greater	-8.3168
ve	-8.32042
B	-8.32278
▁society	-8.32327
pe	-8.32397
▁difficult	-8.32491
▁given	-8.3262
▁Western	-8.32695
▁He	-8.32769
age	-8.32832
mo	-8.32922
▁Russian	-8.33233
▁get	-8.33294
▁lower	-8.33495
am	-8.33496
▁further	-8.33893
ating	-8.33936
▁common	-8.34005
▁want	-8.34042
▁e	-8.34203
5	-8.34555
▁IMF	-8.34625
▁say	-8.34631
▁One	-8.34648
स	-8.34661
▁democratic	-8.34832
▁small	-8.35005
ry	-8.35014
▁growing	-8.35084
▁president	-8.35154
▁South	-8.35196
▁decades	-8.35338
▁place	-8.35482
▁each	-8.35483
ं	-8.35495
▁anti	-8.35569
ru	-8.35655
ance	-8.35968
ut	-8.36459
▁know	-8.3649
▁Yet	-8.36863
di	-8.37092
▁education	-8.37169
▁pay	-8.37354
▁reduce	-8.3751
M	-8.37587
▁history	-8.37608
▁French	-8.37724
▁These	-8.37733
▁left	-8.37844
▁sector	-8.3792
▁key	-8.3794
sh	-8.37946
▁UN	-8.38032
▁citizens	-8.3804
▁every	-8.38187
ol	-8.38252
▁view	-8.38308
▁reforms	-8.38726
▁yet	-8.38781
▁face	-8.38786
▁former	-8.38989
▁create	-8.39041
▁second	-8.39052
▁budget	-8.3917
▁level	-8.39187
▁share	-8.39278
▁member	-8.39352
्	-8.39395
D	-8.3951
▁possible	-8.39607
▁her	-8.39694
▁resources	-8.39776
म	-8.39852
ता	-8.4007
▁enough	-8.40085
▁thus	-8.40098
led	-8.40243
▁हैं	-8.40259
▁After	-8.40322
▁used	-8.40327
▁off	-8.4033
▁yang	-8.40504
▁home	-8.40568
▁lack	-8.4059
▁themselves	-8.40682
▁administration	-8.40802
▁politics	-8.40805
per	-8.4117
▁लिए	-8.41284
▁reason	-8.41316
▁election	-8.4132
▁Greece	-8.41465
▁run	-8.4155
ary	-8.41584
▁others	-8.41637
▁go	-8.41673
R	-8.41925
▁men	-8.42004
▁Even	-8.42027
▁form	-8.42088
▁lead	-8.42095
▁dollar	-8.42125
▁value	-8.42159
▁near	-8.42379
▁great	-8.42439
▁interests	-8.42525
▁toward	-8.42594
O	-8.42776
▁benefits	-8.4283
▁By	-8.42893
ni	-8.4301
▁bank	-8.43487
▁rule	-8.43507
▁credit	-8.43586
▁Korea	-8.43839
▁North	-8.4388
▁efforts	-8.43954
▁terms	-8.43976
um	-8.44028
up	-8.44045
▁M	-8.44131
3	-8.44312
▁sense	-8.44351
v	-8.44408
ant	-8.44528
▁increasingly	-8.44616
▁Middle	-8.44725
▁While	-8.44788
man	-8.44792
▁post	-8.44924
▁turn	-8.45234
E	-8.45391
▁deal	-8.45872
▁conflict	-8.45879
ous	-8.45879
▁recently	-8.46411
▁century	-8.46495
ge	-8.46537
▁ex	-8.46576
▁him	-8.4663
▁stability	-8.46822
▁find	-8.46848
ia	-8.46854
0	-8.47001
▁fall	-8.47014
ure	-8.47212
▁forces	-8.47301
▁ब	-8.47399
ec	-8.47656
▁serious	-8.47857
▁19	-8.48025
▁issue	-8.48302
▁unemployment	-8.48614
▁once	-8.48657
▁finance	-8.48664
▁my	-8.48763
▁half	-8.4881
em	-8.48821
▁Of	-8.49244
▁potential	-8.49423
ver	-8.49587
▁children	-8.49596
▁balance	-8.4964
▁early	-8.49661
▁particularly	-8.49814
▁issues	-8.49922
▁ever	-8.49944
ization	-8.50763
▁local	-8.5085
▁regional	-8.51043
▁again	-8.51063
▁Some	-8.51295
F	-8.51353
▁German	-8.51533
▁New	-8.51601
out	-8.51647
▁agreement	-8.51927
me	-8.51994
ig	-8.52058
▁challenge	-8.52534
▁On	-8.52583
प	-8.527
ling	-8.52709
▁Minister	-8.52998
▁simply	-8.53066
▁decade	-8.53503
▁debate	-8.53544
▁strategy	-8.5368
fi	-8.5369
N	-8.53728
ence	-8.54276
ex	-8.543
▁1	-8.54351
▁services	-8.54715
co	-8.54777
ally	-8.55059
▁leadership	-8.55064
▁Ukraine	-8.55126
ak	-8.55493
ने	-8.55635
ad	-8.55729
op	-8.56155
▁found	-8.56359
▁always	-8.56383
▁though	-8.56386
▁workers	-8.56582
▁risks	-8.56754
▁old	-8.56818
▁t	-8.569
▁research	-8.57029
▁led	-8.57242
▁focus	-8.57308
▁open	-8.5741
▁return	-8.57676
4	-8.5772
po	-8.57808
▁success	-8.57863
▁effective	-8.57916
7	-8.58043
ful	-8.58066
pa	-8.58096
▁hope	-8.58404
▁fear	-8.58469
▁poverty	-8.58584
▁true	-8.58657
▁deficit	-8.5871
▁parties	-8.58713
▁investors	-8.59115
▁community	-8.59161
▁3	-8.59286
▁ten	-8.59366
ists	-8.5984
▁able	-8.59892
na	-8.59974
▁action	-8.60057
▁act	-8.60307
ु	-8.60351
6	-8.60451
ty	-8.6066
tra	-8.60703
▁think	-8.60873
▁self	-8.61267
▁rising	-8.61278
▁response	-8.61425
▁big	-8.61481
bi	-8.61497
▁O	-8.61623
ित	-8.61659
य	-8.61863
▁impact	-8.62024
▁hand	-8.62027
▁स	-8.62157
ho	-8.62336
▁कि	-8.62476
▁De	-8.62536
ize	-8.62602
ian	-8.6278
▁Council	-8.62914
र्	-8.63012
▁seem	-8.63019
▁rest	-8.63045
▁making	-8.63088
▁based	-8.63173
9	-8.63366
▁increased	-8.63522
less	-8.63836
▁young	-8.63909
▁move	-8.63937
▁decision	-8.63967
▁threat	-8.63987
▁Ma	-8.64042
▁start	-8.64086
▁said	-8.64139
▁program	-8.64358
▁dan	-8.64512
rs	-8.64565
ध	-8.64645
▁relative	-8.64876
▁influence	-8.65168
▁together	-8.65189
▁jobs	-8.65193
▁Soviet	-8.6521
▁model	-8.65387
▁prevent	-8.65465
▁full	-8.65503
▁party	-8.65608
▁whose	-8.65889
mp	-8.65904
▁period	-8.65959
▁similar	-8.65966
ga	-8.65977
rate	-8.65987
▁levels	-8.66398
▁rich	-8.66455
▁food	-8.66813
▁Palestinian	-8.6685
▁progress	-8.66851
▁bring	-8.66936
hi	-8.67093
▁main	-8.67166
be	-8.67278
▁violence	-8.67361
▁civil	-8.67558
▁access	-8.67617
▁information	-8.67675
ke	-8.67806
ine	-8.67814
ions	-8.67901
▁she	-8.6802
▁Americans	-8.68021
▁Central	-8.68385
▁require	-8.68418
▁ensure	-8.68647
▁British	-8.68782
▁recession	-8.68861
▁media	-8.68897
द	-8.68922
▁term	-8.68991
▁decline	-8.69111
▁politicians	-8.69363
ट	-8.69465
▁shift	-8.69705
▁Syria	-8.69862
▁modern	-8.69933
▁measures	-8.69998
▁cause	-8.70033
▁Party	-8.70087
▁called	-8.70127
▁position	-8.70293
va	-8.70304
▁relations	-8.70466
▁developed	-8.70478
▁rules	-8.70574
ह	-8.70629
▁groups	-8.70639
ot	-8.70945
▁International	-8.70953
▁fundamental	-8.71111
▁day	-8.71139
▁significant	-8.7117
▁pressure	-8.71199
▁पर	-8.71413
ah	-8.71556
▁times	-8.71598
▁five	-8.71709
▁legal	-8.71771
no	-8.71787
x	-8.7196
▁perhaps	-8.72261
▁An	-8.72421
▁across	-8.72756
▁done	-8.72808
▁play	-8.72966
▁necessary	-8.73005
▁weapons	-8.73259
▁sub	-8.73292
▁2	-8.73605
▁अ	-8.7362
▁officials	-8.73631
▁idea	-8.73676
▁Many	-8.73725
▁keep	-8.73745
▁conditions	-8.73787
▁Pakistan	-8.73856
▁la	-8.73899
▁opposition	-8.73922
▁maintain	-8.73972
▁mis	-8.74015
▁group	-8.74057
▁situation	-8.74425
▁avoid	-8.74456
▁elections	-8.74557
▁campaign	-8.74594
▁live	-8.74671
▁इस	-8.7482
▁experience	-8.75306
▁advanced	-8.7532
▁powerful	-8.75333
▁single	-8.75357
▁natural	-8.7544
ba	-8.75516
▁average	-8.75596
▁official	-8.75651
if	-8.75957
▁mo	-8.76039
ha	-8.76106
ish	-8.76162
▁employment	-8.76226
▁करने	-8.76312
▁failed	-8.76333
▁moral	-8.76735
▁until	-8.76759
▁production	-8.77172
▁2008	-8.77241
▁technology	-8.77419
nya	-8.77698
▁water	-8.77716
8	-8.77769
▁massive	-8.7779
▁freedom	-8.77942
▁several	-8.78023
▁assets	-8.78033
▁individual	-8.78054
▁K	-8.78074
▁months	-8.7811
▁Al	-8.78174
▁Such	-8.78236
▁Today	-8.78302
▁total	-8.78423
▁challenges	-8.78547
▁NATO	-8.78635
nd	-8.78879
▁seen	-8.78929
▁close	-8.79052
tic	-8.79233
▁कर	-8.79297
▁taken	-8.7951
▁1990	-8.79517
▁firms	-8.79564
▁failure	-8.7971
▁job	-8.79778
▁Commission	-8.79962
▁requires	-8.80065
▁created	-8.80278
▁Afghanistan	-8.80317
▁huge	-8.80505
▁care	-8.80821
red	-8.81002
▁consequences	-8.81114
▁Britain	-8.81123
▁wealth	-8.81155
▁aid	-8.81293
▁land	-8.8139
▁Fed	-8.81504
▁gas	-8.81723
▁ECB	-8.81755
--	-8.81836
▁No	-8.81846
▁recovery	-8.81914
▁Fund	-8.81964
go	-8.82198
▁produce	-8.82437
▁ke	-8.8245
▁leader	-8.82465
▁strategic	-8.8264
▁leading	-8.82653
▁became	-8.82756
▁consumption	-8.82794
▁banking	-8.82828
▁away	-8.8295
▁Le	-8.83166
▁give	-8.83315
line	-8.8333
mb	-8.83441
▁20	-8.8347
▁four	-8.83476
▁All	-8.83756
▁Prime	-8.83767
▁plan	-8.83966
▁effort	-8.83988
▁areas	-8.84166
▁Asian	-8.84257
▁increasing	-8.84393
bu	-8.8443
▁understand	-8.84506
▁benefit	-8.84659
market	-8.84678
▁Egypt	-8.84957
▁यह	-8.84968
▁hold	-8.85005
G	-8.8514
▁stock	-8.85444
si	-8.85474
▁systems	-8.85547
▁ma	-8.85609
▁majority	-8.85631
com	-8.85897
▁opportunity	-8.85915
▁Latin	-8.86009
▁look	-8.86036
▁effect	-8.86072
▁ways	-8.86113
▁respect	-8.8616
▁Japanese	-8.8637
▁really	-8.86403
▁solution	-8.86455
▁infrastructure	-8.86483
▁report	-8.86519
▁beyond	-8.86578
ious	-8.86734
▁alternative	-8.86768
▁address	-8.86786
▁po	-8.86918
▁Islamic	-8.87193
▁matter	-8.87203
▁side	-8.87208
▁traditional	-8.87337
/	-8.87341
▁bad	-8.87406
▁St	-8.87562
▁lost	-8.87744
▁values	-8.87927
▁export	-8.88036
ial	-8.88095
▁began	-8.8816
▁test	-8.88208
▁head	-8.88278
▁accept	-8.88285
▁boost	-8.884
con	-8.88432
ors	-8.88463
ज	-8.88645
▁alone	-8.88705
▁something	-8.88713
▁collapse	-8.88885
▁changes	-8.88888
▁funds	-8.88899
▁allow	-8.88922
▁Israeli	-8.88941
▁Muslim	-8.88971
▁nothing	-8.89508
श	-8.89667
▁आ	-8.89698
▁makes	-8.89784
▁later	-8.899
▁extreme	-8.8996
one	-8.90427
ja	-8.90434
▁annual	-8.90446
▁Italy	-8.90456
▁supply	-8.90505
▁late	-8.90553
▁attack	-8.90637
▁religious	-8.90848
▁wrong	-8.90848
▁cut	-8.90879
▁4	-8.91129
▁intervention	-8.91146
tri	-8.91198
▁lives	-8.91438
▁general	-8.91444
do	-8.91514
▁achieve	-8.916
ning	-8.91649
▁cooperation	-8.91744
ities	-8.91746
▁exports	-8.91772
ca	-8.91838
▁top	-8.91919
▁either	-8.91948
ap	-8.92183
▁deficits	-8.92271
▁emissions	-8.92347
he	-8.92381
▁man	-8.92556
▁revolution	-8.92702
▁step	-8.92727
▁evidence	-8.93155
▁structural	-8.93184
ung	-8.93191
▁H	-8.93242
▁effects	-8.93247
▁Security	-8.93358
▁taxes	-8.93703
ten	-8.93777
▁ability	-8.93913
izing	-8.94225
▁show	-8.94228
▁Brazil	-8.9431
▁largest	-8.94332
▁Instead	-8.9438
▁negotiations	-8.94453
nt	-8.94532
▁contrast	-8.94586
▁probably	-8.94689
ever	-8.94842
▁working	-8.94884
▁sp	-8.94987
da	-8.95014
▁bo	-8.95102
व	-8.95152
ना	-8.95213
▁popular	-8.95364
▁largely	-8.95374
▁answer	-8.95413
cing	-8.95469
▁account	-8.95493
▁capacity	-8.95516
▁claim	-8.95569
▁consider	-8.95586
L	-8.95823
▁having	-8.95829
▁gr	-8.96037
▁environment	-8.96077
▁behavior	-8.96142
▁behind	-8.96142
▁fight	-8.96191
▁protect	-8.96329
ब	-8.96366
▁First	-8.96456
▁sa	-8.96483
▁things	-8.96519
▁living	-8.96561
▁vote	-8.96762
▁programs	-8.96969
▁agenda	-8.96982
▁kind	-8.97044
▁प	-8.9708
▁union	-8.97108
▁path	-8.97117
▁defense	-8.97119
▁mean	-8.97205
▁argue	-8.97334
▁म	-8.97462
▁Now	-8.9753
▁meeting	-8.97585
▁came	-8.97634
▁indeed	-8.97846
▁build	-8.97972
▁relationship	-8.98148
▁confidence	-8.98222
ite	-8.98534
▁particular	-8.98595
च	-8.98729
for	-8.98935
▁raise	-8.99047
ring	-8.99065
▁African	-8.99199
िक	-8.992
son	-8.99482
ill	-8.99658
▁integration	-8.99761
▁w	-8.99808
▁productivity	-8.9998
▁direct	-9.00086
▁environmental	-9.00155
▁certain	-9.00181
▁Nations	-9.00199
,000	-9.00205
▁slow	-9.00319
00	-9.00321
▁seek	-9.00324
▁innovation	-9.00414
▁attention	-9.00414
▁expected	-9.00548
▁center	-9.00747
ear	-9.00888
▁प्र	-9.00907
▁limited	-9.01157
▁doing	-9.01183
▁basic	-9.01226
▁outside	-9.01268
▁bonds	-9.01297
▁policymakers	-9.0131
pro	-9.01451
▁took	-9.01689
ber	-9.01925
▁$1	-9.01993
▁culture	-9.02126
ph	-9.02225
▁Ba	-9.02351
▁minister	-9.02405
▁goods	-9.02519
▁corruption	-9.02867
▁More	-9.03012
qu	-9.0308
▁worse	-9.03201
▁presidential	-9.03207
ka	-9.03283
▁stop	-9.03447
▁N	-9.03486
▁authorities	-9.03521
▁taking	-9.03814
ac	-9.03833
▁soon	-9.04086
▁call	-9.042
▁Great	-9.04257
▁Congress	-9.04307
▁Although	-9.04312
wa	-9.04332
▁Saudi	-9.04421
▁weak	-9.04526
▁reality	-9.04616
▁Spain	-9.04648
▁क	-9.04675
▁science	-9.04762
▁dangerous	-9.05007
▁V	-9.05115
▁coming	-9.05229
▁highly	-9.05235
▁m	-9.05328
▁competition	-9.05334
▁ground	-9.05334
▁Most	-9.05499
▁recognize	-9.05634
▁status	-9.05678
▁data	-9.05798
▁governance	-9.05842
▁Greek	-9.05908
▁globalization	-9.06222
▁following	-9.06248
▁personal	-9.06356
▁Pa	-9.06386
-20	-9.06431
▁deep	-9.06461
▁spread	-9.06491
▁Give	-9.06535
▁al	-9.06754
▁held	-9.06837
▁rapid	-9.06882
▁promote	-9.07069
&	-9.07073
▁fail	-9.07116
▁actually	-9.07276
▁external	-9.07308
▁imp	-9.07379
▁terrorism	-9.07404
▁name	-9.07445
▁standards	-9.07472
mer	-9.07571
▁successful	-9.07733
▁boom	-9.0777
▁comes	-9.0806
▁inter	-9.08229
▁attempt	-9.08317
▁burden	-9.08477
▁favor	-9.08531
▁industry	-9.08595
▁Un	-9.08709
▁liberal	-9.08763
all	-9.08883
▁chance	-9.08955
▁k	-9.09104
é	-9.09189
▁thought	-9.09348
▁record	-9.09428
▁Hamas	-9.09548
▁month	-9.09667
▁Ch	-9.09694
▁counter	-9.09836
▁independent	-9.09857
▁cases	-9.10124
▁nor	-9.10127
▁doubt	-9.10388
du	-9.10461
▁building	-9.10714
▁line	-9.10732
वा	-9.10765
ton	-9.10827
▁nation	-9.10834
▁grow	-9.10884
ग	-9.10925
gi	-9.1102
▁economists	-9.11055
side	-9.11261
▁reach	-9.11267
based	-9.11277
und	-9.11312
▁begin	-9.11349
▁don	-9.11391
▁follow	-9.11392
▁pass	-9.11451
▁leave	-9.11479
tu	-9.11574
▁third	-9.11756
ff	-9.11862
▁brought	-9.11967
▁Ha	-9.11987
ki	-9.12062
▁responsibility	-9.1215
▁sustainable	-9.12366
que	-9.12394
▁industrial	-9.12451
▁Me	-9.12527
▁commitment	-9.12572
▁concerns	-9.1261
▁using	-9.12648
▁known	-9.12662
▁expect	-9.12795
▁break	-9.12823
▁develop	-9.1301
ju	-9.13026
▁Mo	-9.13033
▁advantage	-9.13076
▁goal	-9.13082
▁attacks	-9.13093
▁target	-9.13216
▁mass	-9.13441
▁reasons	-9.13502
year	-9.13527
▁asset	-9.13547
▁sovereign	-9.13605
ical	-9.13628
▁larger	-9.13665
ging	-9.13677
tive	-9.1369
▁NEW	-9.13946
▁reflect	-9.13971
cent	-9.14052
▁radical	-9.14073
▁pe	-9.14112
▁improve	-9.14128
▁reduction	-9.14172
▁R	-9.14175
▁State	-9.14178
▁family	-9.14196
han	-9.14242
▁include	-9.14336
istic	-9.14531
▁office	-9.14587
▁buy	-9.14601
▁decisions	-9.14703
▁moment	-9.14759
ab	-9.14787
mon	-9.14795
▁words	-9.14822
▁movement	-9.14828
▁1980	-9.14832
▁owing	-9.14834
▁outcome	-9.14997
▁unlikely	-9.15072
▁elsewhere	-9.1508
bsp	-9.15219
▁certainly	-9.15302
▁clearly	-9.15335
▁simple	-9.15457
▁easy	-9.15711
▁quickly	-9.15796
▁trillion	-9.15838
▁ra	-9.15963
▁2009	-9.15965
▁Sinc	-9.15968
▁stimulus	-9.16093
▁allowed	-9.1614
j	-9.16159
bo	-9.16186
▁internal	-9.16313
▁meet	-9.16328
▁transition	-9.16348
▁J	-9.16391
▁above	-9.16474
ud	-9.16507
▁sure	-9.16586
▁voters	-9.16631
ze	-9.16732
▁death	-9.17144
▁critical	-9.17395
▁National	-9.17507
land	-9.17516
ward	-9.17555
▁amount	-9.17615
▁reserves	-9.17638
▁La	-9.17651
▁caused	-9.17872
H	-9.18268
▁5	-9.18308
▁suggest	-9.18308
▁let	-9.18375
▁age	-9.18633
▁carbon	-9.18725
we	-9.18745
▁beginning	-9.18826
▁everyone	-9.18841
▁forced	-9.18886
▁complex	-9.19024
▁performance	-9.19083
▁becoming	-9.19145
▁creation	-9.19205
ral	-9.19206
▁special	-9.19278
▁disease	-9.19391
tro	-9.19502
▁cuts	-9.19533
▁feel	-9.19689
▁six	-9.19732
war	-9.19738
vo	-9.19832
▁Mexico	-9.19864
au	-9.19908
called	-9.20025
▁Bara	-9.2007
ably	-9.20105
▁September	-9.2013
▁won	-9.20165
ster	-9.20213
▁normal	-9.20235
▁institutional	-9.20257
▁crises	-9.20263
end	-9.20372
▁creating	-9.20396
▁era	-9.20512
men	-9.20556
▁entire	-9.20628
ै	-9.20652
▁Ra	-9.20786
ven	-9.20863
▁Europeans	-9.20928
ू	-9.20928
▁middle	-9.21065
▁6	-9.21104
qui	-9.21285
amp	-9.21521
▁Economic	-9.21602
▁mind	-9.21717
▁भी	-9.21738
▁appears	-9.21943
ip	-9.22241
▁offer	-9.22255
▁reducing	-9.22279
▁days	-9.2233
▁Or	-9.22516
lan	-9.22962
▁helped	-9.23135
▁Palestinians	-9.23221
▁Internet	-9.23236
▁results	-9.23243
▁project	-9.23336
▁opportunities	-9.23371
▁एक	-9.23373
▁struggle	-9.23509
▁framework	-9.23509
▁tend	-9.23564
▁सं	-9.23622
▁damage	-9.2367
cre	-9.23704
▁II	-9.23742
▁nations	-9.23756
▁Bo	-9.2379
▁ho	-9.23809
ai	-9.23845
▁class	-9.23849
old	-9.23967
▁हो	-9.24021
▁default	-9.2406
act	-9.24083
ik	-9.24153
▁societies	-9.24198
▁basis	-9.24203
▁Z	-9.24224
्य	-9.24226
▁provided	-9.24265
▁powers	-9.24331
cur	-9.24335
▁Pro	-9.24567
▁How	-9.24583
▁thing	-9.24617
ev	-9.24653
▁met	-9.247
▁required	-9.24726
▁established	-9.24753
▁according	-9.24788
▁ज	-9.24799
vis	-9.24959
ard	-9.25074
der	-9.2517
▁Second	-9.25172
▁concern	-9.25275
▁ter	-9.25476
▁serve	-9.25485
▁size	-9.25495
▁vision	-9.25643
▁generation	-9.25709
▁corporate	-9.25732
▁positive	-9.25732
▁followed	-9.25914
ran	-9.25938
▁nature	-9.26014
▁meng	-9.26044
▁According	-9.26054
▁en	-9.26136
▁choice	-9.26149
▁talk	-9.26192
ner	-9.26246
▁housing	-9.26297
gen	-9.2659
▁Ro	-9.26597
ctor	-9.26598
▁present	-9.26693
▁sanctions	-9.26846
tur	-9.26859
▁treatment	-9.26893
over	-9.26957
▁Islam	-9.27036
▁Indian	-9.27319
▁source	-9.27389
res	-9.27517
▁Unfortunately	-9.27577
▁scientific	-9.27579
▁visit	-9.27606
av	-9.27802
▁independence	-9.27806
U	-9.27821
▁expansion	-9.27863
▁warming	-9.27888
▁vast	-9.28008
▁cultural	-9.28046
▁Se	-9.28067
▁output	-9.28069
ship	-9.28086
▁save	-9.281
▁2007	-9.28151
▁individuals	-9.28388
▁roughly	-9.28439
▁police	-9.28439
▁जा	-9.28471
▁scale	-9.28532
▁regard	-9.28594
▁le	-9.2864
▁L	-9.2864
ping	-9.28644
▁book	-9.28746
▁Monetary	-9.28873
nce	-9.28957
▁Thus	-9.29031
off	-9.2904
▁U	-9.2906
▁turned	-9.29065
▁deliver	-9.29077
▁investments	-9.29091
▁ह	-9.29194
▁regulation	-9.29256
▁currently	-9.29486
▁whole	-9.29512
▁contain	-9.29536
▁along	-9.29541
▁Kingdom	-9.29602
▁proposed	-9.29703
▁danger	-9.29745
ide	-9.29745
▁18	-9.29978
▁respond	-9.30105
▁here	-9.30156
▁subject	-9.30187
▁task	-9.30187
way	-9.30256
▁knowledge	-9.30334
▁continued	-9.30374
ual	-9.30443
▁th	-9.30463
ओं	-9.30586
▁loss	-9.30588
▁h	-9.3059
▁Federal	-9.30629
▁technologies	-9.30777
lin	-9.30787
ability	-9.30949
▁millions	-9.30977
▁eventually	-9.30989
▁gap	-9.31161
▁instead	-9.31221
▁principle	-9.31228
▁15	-9.31285
▁sign	-9.31326
▁Sa	-9.3142
ov	-9.31422
▁explain	-9.31442
▁excessive	-9.31546
▁Not	-9.31559
▁Development	-9.31668
▁2000	-9.31688
▁Argentina	-9.31817
▁नहीं	-9.31818
▁spend	-9.31828
▁factor	-9.31888
▁worldwide	-9.31891
ier	-9.31958
state	-9.3197
▁inequality	-9.32117
▁fuel	-9.32176
▁products	-9.32216
▁cities	-9.32315
▁net	-9.3232
▁organizations	-9.32331
▁events	-9.32431
▁protection	-9.32456
▁stand	-9.32488
▁rapidly	-9.32506
▁gain	-9.32613
▁your	-9.32653
▁financing	-9.32717
▁essential	-9.32867
▁agree	-9.32877
▁austerity	-9.33019
▁available	-9.33019
▁trust	-9.33024
cu	-9.33032
ए	-9.33122
mar	-9.33234
▁appear	-9.33311
▁अधिक	-9.33321
▁Iranian	-9.334
▁elected	-9.33465
▁authority	-9.33496
▁summit	-9.3363
▁UK	-9.33634
▁$2	-9.33648
▁throughout	-9.33719
▁gl	-9.33887
▁incentives	-9.33932
ator	-9.34063
▁savings	-9.34069
▁manage	-9.34114
▁encourage	-9.34153
▁assistance	-9.34243
▁fully	-9.34259
▁Co	-9.34421
ified	-9.34575
▁negative	-9.34696
▁win	-9.34725
▁terrorist	-9.34751
▁air	-9.34855
▁Iraqi	-9.3488
▁insurance	-9.34962
▁obvious	-9.35009
▁victory	-9.35158
▁game	-9.3517
ie	-9.35191
▁coalition	-9.35313
▁Secretary	-9.35467
▁reduced	-9.35572
▁na	-9.35606
▁defend	-9.35623
▁May	-9.35659
▁ber	-9.35706
▁area	-9.35746
▁impossible	-9.35778
▁thinking	-9.35809
▁prosperity	-9.35939
les	-9.3605
मा	-9.36062
▁below	-9.36065
▁press	-9.36083
▁easily	-9.36089
▁2001	-9.36089
til	-9.36215
▁fe	-9.36231
▁Gaza	-9.36245
▁membership	-9.3627
▁join	-9.36274
▁prime	-9.36351
hy	-9.36509
▁school	-9.36527
▁Global	-9.36537
▁base	-9.36579
▁ahead	-9.36604
▁Li	-9.36655
ron	-9.36858
▁factors	-9.36873
▁ba	-9.36876
▁te	-9.36909
▁Con	-9.36956
▁additional	-9.36983
▁v	-9.37044
▁Why	-9.37056
▁allies	-9.37162
▁intellectual	-9.37186
▁Ho	-9.37256
▁drug	-9.37392
ger	-9.37607
▁George	-9.3766
▁dollars	-9.37824
asi	-9.37882
ative	-9.38018
ble	-9.38215
▁existing	-9.38356
▁consumer	-9.3841
▁lose	-9.38586
▁direction	-9.38654
▁aimed	-9.38656
▁structure	-9.38703
▁management	-9.38758
▁affect	-9.38893
▁forward	-9.38913
▁increases	-9.39051
lit	-9.39077
▁Poland	-9.39117
▁Only	-9.39172
gar	-9.39188
▁study	-9.39417
ft	-9.39469
log	-9.39523
ible	-9.39575
▁crucial	-9.39579
▁legitimacy	-9.39579
▁parts	-9.39614
K	-9.39775
ice	-9.39847
▁diplomatic	-9.39902
▁trying	-9.39974
▁mem	-9.3999
▁loans	-9.40006
▁talks	-9.40023
▁stable	-9.40073
▁किया	-9.40083
▁difference	-9.40206
▁enormous	-9.40226
▁confront	-9.4032
▁company	-9.40389
▁due	-9.40507
▁Na	-9.40675
▁sometimes	-9.40718
▁add	-9.4072
▁service	-9.40866
▁Lebanon	-9.40878
▁towards	-9.40923
▁questions	-9.40967
time	-9.41025
0,000	-9.41039
6%	-9.41089
▁Ex	-9.41108
▁agreed	-9.41136
▁Treaty	-9.41206
che	-9.41264
▁Ri	-9.41348
▁ethnic	-9.41463
▁Finally	-9.41535
▁tell	-9.41584
▁losses	-9.41643
▁secure	-9.41811
▁stage	-9.41945
▁households	-9.41948
▁suggests	-9.42002
8%	-9.42033
▁depend	-9.42053
▁prove	-9.42062
▁seemed	-9.42189
▁Kremlin	-9.42195
▁collective	-9.42217
▁worth	-9.42245
▁heart	-9.42293
▁constitution	-9.42321
▁directly	-9.42326
▁link	-9.42341
▁वि	-9.42506
right	-9.42556
▁road	-9.42689
▁disaster	-9.42694
▁ideas	-9.42899
▁pen	-9.4293
▁Georgia	-9.43027
kin	-9.43082
▁going	-9.43192
▁aim	-9.43249
▁ha	-9.43289
▁2011	-9.43362
▁committed	-9.43378
▁Di	-9.43433
▁material	-9.4353
▁trouble	-9.4353
▁30	-9.43541
ख	-9.43581
▁insist	-9.43727
har	-9.43818
▁YORK	-9.43866
▁consensus	-9.43866
▁vital	-9.43867
▁standard	-9.43969
▁alliance	-9.44035
▁Ka	-9.44057
▁wants	-9.44087
▁safe	-9.44214
ला	-9.44354
▁car	-9.44407
▁lending	-9.44433
▁His	-9.44453
▁predict	-9.44476
▁am	-9.44501
▁multi	-9.44537
▁neither	-9.44543
▁therefore	-9.44543
▁army	-9.44544
▁hit	-9.44557
reby	-9.44563
▁competitiveness	-9.44568
▁reached	-9.44593
ler	-9.44615
▁sides	-9.44619
port	-9.44633
▁stronger	-9.44663
▁understanding	-9.44665
▁happen	-9.44684
▁parliament	-9.4469
▁equal	-9.44701
▁opinion	-9.44712
▁house	-9.44739
▁immediate	-9.4475
▁providing	-9.44882
▁matters	-9.44972
से	-9.45034
▁invest	-9.45036
▁story	-9.45072
▁actions	-9.4522
7%	-9.45327
▁Eastern	-9.45395
▁liquidity	-9.45408
mit	-9.45434
▁historical	-9.45507
▁regions	-9.45526
▁anything	-9.45594
tan	-9.45597
▁widely	-9.45628
▁Other	-9.45754
▁speak	-9.45909
भ	-9.46065
ub	-9.46129
▁argument	-9.46247
▁responsible	-9.46253
▁रूप	-9.46253
रा	-9.46272
▁continues	-9.46288
▁effectively	-9.46295
▁sound	-9.46303
ng	-9.46346
ell	-9.46403
▁ratio	-9.46445
▁quality	-9.4646
▁willing	-9.46479
▁projects	-9.46508
sector	-9.46566
▁l	-9.46609
▁politically	-9.46677
▁overall	-9.46746
▁Perhaps	-9.46772
▁double	-9.46801
▁core	-9.46894
▁competitive	-9.46898
▁permanent	-9.46946
▁2010	-9.47116
▁saving	-9.47191
."	-9.47205
▁federal	-9.47294
▁Is	-9.47313
▁differences	-9.47322
▁नि	-9.47354
▁surplus	-9.47372
▁establish	-9.47416
▁truth	-9.47469
▁thousands	-9.47576
▁try	-9.47631
▁importance	-9.47663
▁Mi	-9.4772
run	-9.47739
▁borders	-9.47775
▁equity	-9.47819
ण	-9.4782
▁message	-9.47828
▁People	-9.47994
▁wages	-9.48007
▁strengthen	-9.4815
▁2012	-9.4817
▁Reserve	-9.4817
▁belief	-9.4817
▁border	-9.48203
▁quarter	-9.48273
▁ultimately	-9.48297
▁businesses	-9.48309
▁Revolution	-9.48346
ow	-9.48359
▁changed	-9.4852
▁speech	-9.48522
W	-9.4853
ox	-9.48545
▁Over	-9.48571
iv	-9.48611
▁Hu	-9.48696
▁Both	-9.48754
▁achieved	-9.48856
▁neighbors	-9.48872
set	-9.49002
▁extent	-9.49053
▁cross	-9.49231
untuk	-9.49249
▁exist	-9.49342
▁Islamist	-9.49348
▁week	-9.49442
fer	-9.49471
▁facing	-9.49595
▁laws	-9.49627
▁General	-9.49639
fa	-9.49659
of	-9.49775
▁spent	-9.49821
▁person	-9.4986
▁fast	-9.49872
▁Cold	-9.49969
back	-9.49969
▁welfare	-9.50106
▁2005	-9.50124
▁theory	-9.5021
ान	-9.50264
▁Arabia	-9.50302
▁else	-9.50686
▁Nor	-9.50743
▁himself	-9.51036
▁fund	-9.51073
account	-9.51157
▁Meanwhile	-9.51206
▁substantial	-9.51266
▁claims	-9.51299
▁fair	-9.51374
king	-9.51391
▁paid	-9.51442
▁ini	-9.51467
V	-9.51674
▁bear	-9.51733
▁asked	-9.51765
▁जो	-9.51784
▁12	-9.51849
▁pension	-9.51941
▁wage	-9.51999
▁11	-9.52084
ight	-9.52167
▁adopted	-9.52264
▁John	-9.523
▁built	-9.523
hu	-9.52328
▁argued	-9.52423
▁started	-9.52477
क्ष	-9.52485
▁industries	-9.52492
▁efficient	-9.52655
▁round	-9.52668
▁cancer	-9.52678
▁produced	-9.52715
▁justice	-9.52728
▁capitalism	-9.52767
▁Y	-9.52806
▁Do	-9.52832
▁technological	-9.52851
▁occur	-9.53006
▁multilateral	-9.53222
▁goals	-9.53256
ियों	-9.53287
▁enter	-9.53306
▁severe	-9.53477
tre	-9.5349
▁attract	-9.53551
▁defeat	-9.5357
▁Their	-9.53571
▁activities	-9.53591
▁various	-9.53591
▁adjustment	-9.53617
▁Similarly	-9.53637
▁Be	-9.53661
ther	-9.53676
▁reflects	-9.53712
▁ban	-9.53902
▁child	-9.53967
ते	-9.53972
The	-9.53995
use	-9.54092
नी	-9.54163
▁8	-9.5418
▁light	-9.54408
merely	-9.54409
▁Clinton	-9.54524
▁push	-9.54524
▁Ne	-9.54582
▁limit	-9.54602
▁degree	-9.54712
▁field	-9.54712
▁From	-9.54712
▁limits	-9.54821
़	-9.54825
▁gains	-9.54838
▁December	-9.549
▁worry	-9.549
▁concept	-9.54924
▁pattern	-9.55088
▁2004	-9.55088
▁previous	-9.55163
century	-9.55265
ek	-9.55295
▁news	-9.55369
▁cover	-9.55388
▁organization	-9.55584
▁न	-9.55709
▁scenario	-9.55845
▁shows	-9.55963
ach	-9.56005
▁tried	-9.56013
▁flows	-9.56033
▁Likewise	-9.56035
▁soft	-9.56068
▁whom	-9.56138
▁block	-9.56182
▁Because	-9.56225
▁consumers	-9.5633
wing	-9.5633
gan	-9.56374
▁Sarkozy	-9.56416
▁commercial	-9.56416
▁troops	-9.56416
▁desire	-9.56419
▁regulatory	-9.56439
ug	-9.56443
▁usually	-9.56552
▁compared	-9.5657
▁expectations	-9.56611
▁10%	-9.56621
▁1970	-9.56804
▁gold	-9.56996
▁property	-9.57002
▁partners	-9.57013
rn	-9.57057
ification	-9.57139
▁currencies	-9.57183
▁targets	-9.57318
थ	-9.57369
▁earlier	-9.57376
▁happened	-9.5739
▁Korean	-9.57421
▁significantly	-9.57513
का	-9.57528
▁Euro	-9.57543
▁Muslims	-9.57565
▁battle	-9.57569
▁succeed	-9.57626
▁lot	-9.57644
▁continent	-9.57645
▁students	-9.57662
▁Republic	-9.57681
uk	-9.57703
▁correct	-9.5771
but	-9.57717
▁steps	-9.57728
▁Po	-9.57729
▁surprise	-9.57762
▁abroad	-9.57763
day	-9.57867
▁cr	-9.57914
▁purpose	-9.57956
▁went	-9.58067
▁finally	-9.58227
▁trial	-9.58245
▁macroeconomic	-9.58346
▁holding	-9.58432
▁Syrian	-9.58441
▁fighting	-9.58492
▁context	-9.5854
▁practice	-9.58552
▁sectors	-9.58608
▁conservative	-9.58678
▁trend	-9.58691
▁read	-9.58695
▁ने	-9.58711
▁primary	-9.58735
▁widespread	-9.58735
▁peaceful	-9.5876
▁9	-9.58766
▁settlement	-9.58771
▁falling	-9.58818
▁En	-9.58898
▁Communist	-9.58931
▁receive	-9.58934
ile	-9.58945
▁कम	-9.59081
uch	-9.591
▁2006	-9.59127
▁clean	-9.59128
▁enable	-9.59301
▁Those	-9.59324
▁contrary	-9.59328
▁demands	-9.59422
▁Su	-9.59567
▁function	-9.59707
▁recover	-9.59766
5%	-9.59769
▁suffer	-9.59778
▁mu	-9.59805
▁calls	-9.59805
ned	-9.59817
▁upon	-9.59946
▁principles	-9.60105
▁compromise	-9.60113
▁vulnerable	-9.60113
▁safety	-9.60135
▁तक	-9.60139
▁shared	-9.60224
form	-9.60292
▁presidency	-9.60312
▁shown	-9.60501
▁undermine	-9.60517
ड	-9.6054
row	-9.6055
▁plans	-9.60626
ती	-9.60839
▁dead	-9.60918
▁team	-9.6094
▁10	-9.61005
▁seeking	-9.61045
▁7	-9.61098
▁व	-9.61126
tar	-9.61144
▁firm	-9.61203
▁universal	-9.6131
▁York	-9.6131
▁shape	-9.61314
▁body	-9.61322
▁impose	-9.61322
▁drive	-9.61374
▁subsidies	-9.61375
▁strength	-9.61453
▁faster	-9.61462
2%	-9.61592
▁Libya	-9.61712
uc	-9.61821
▁Dur	-9.61876
▁absence	-9.61913
her	-9.62096
▁November	-9.62115
▁compete	-9.62115
▁worst	-9.62115
▁prospect	-9.62242
▁50	-9.62393
pre	-9.62433
▁democracies	-9.62521
▁dynamic	-9.62521
▁funding	-9.62584
▁o	-9.62595
▁enjoy	-9.62724
▁mid	-9.62737
▁addition	-9.62782
▁ca	-9.6286
▁afford	-9.62875
▁partly	-9.62963
ड़	-9.63126
▁bilateral	-9.63133
▁sought	-9.63146
income	-9.63197
▁विकास	-9.63335
▁pursue	-9.63357
▁prospects	-9.63413
▁sharp	-9.6365
cy	-9.63669
ped	-9.63693
ny	-9.637
▁Financial	-9.63746
▁communities	-9.63746
▁instability	-9.63747
▁represent	-9.63761
▁contribute	-9.63769
▁hundreds	-9.63805
▁sources	-9.63916
▁court	-9.63931
ौ	-9.63952
▁biggest	-9.63952
▁guarantee	-9.63953
▁उ	-9.64151
▁Com	-9.64152
▁2013	-9.64158
▁Indonesia	-9.64158
▁language	-9.64158
▁Court	-9.64158
▁stake	-9.64175
▁designed	-9.6456
▁sovereignty	-9.64603
by	-9.647
▁electoral	-9.64779
mal	-9.64804
▁fell	-9.64856
▁supposed	-9.64921
mm	-9.64977
▁specific	-9.65053
3%	-9.65072
▁flow	-9.65129
▁provides	-9.6516
▁circumstances	-9.65196
▁Trade	-9.65212
▁promise	-9.65242
▁unit	-9.65412
relatively	-9.65422
▁constitutional	-9.6547
▁CO	-9.65524
▁manufacturing	-9.65613
▁solve	-9.65619
▁generate	-9.65652
▁involved	-9.65695
▁design	-9.6572
▁treaty	-9.65731
par	-9.65757
▁Taiwan	-9.65823
▁solutions	-9.65994
▁Kosovo	-9.66033
▁moderate	-9.66033
▁religion	-9.66033
▁secular	-9.66033
▁threats	-9.66034
▁fire	-9.66048
▁refugees	-9.66097
▁appropriate	-9.66244
▁running	-9.66295
▁list	-9.66346
▁import	-9.66478
▁sustain	-9.66506
our	-9.66561
put	-9.66577
▁ordinary	-9.66666
▁agencies	-9.66666
्र	-9.66727
▁wars	-9.66761
▁imbalances	-9.6679
▁ask	-9.66808
▁broad	-9.66821
ade	-9.66835
▁creditors	-9.66865
▁London	-9.66878
▁space	-9.66878
▁unable	-9.66974
▁threaten	-9.66985
▁computer	-9.6709
▁possibility	-9.6709
▁farmers	-9.67136
▁smaller	-9.67149
▁appeal	-9.67303
▁abuse	-9.6733
▁candidate	-9.67387
▁skills	-9.67456
lying	-9.67509
▁activity	-9.67527
▁mistake	-9.67616
▁criminal	-9.6773
▁Ireland	-9.6773
▁carry	-9.67763
▁Christian	-9.67803
▁mostly	-9.67841
▁received	-9.67941
▁improved	-9.67967
▁Washington	-9.68009
▁Wa	-9.68036
▁household	-9.68055
▁range	-9.68074
Y	-9.68117
▁front	-9.68139
▁option	-9.68155
awa	-9.68277
law	-9.68284
▁im	-9.68584
▁focused	-9.68669
▁complete	-9.68719
cept	-9.68722
▁families	-9.68805
▁rhetoric	-9.68805
▁Sunni	-9.68805
ath	-9.68829
▁city	-9.68843
▁final	-9.68937
▁bubble	-9.68939
aya	-9.69128
arm	-9.69132
▁anyone	-9.69164
▁hu	-9.6917
▁Mon	-9.69171
▁faces	-9.69178
▁imports	-9.69182
▁character	-9.69209
▁raising	-9.69239
▁image	-9.69264
▁voice	-9.69468
▁points	-9.69618
▁identity	-9.69674
▁construction	-9.69701
▁proposal	-9.69837
▁everything	-9.69905
▁Last	-9.69986
▁told	-9.69999
▁implement	-9.70007
▁goes	-9.70025
▁sell	-9.70093
▁leverage	-9.70114
▁measure	-9.70116
▁Ta	-9.70152
▁rely	-9.70206
िया	-9.70317
▁protests	-9.70388
▁harm	-9.70397
▁ही	-9.70404
nom	-9.70573
ँ	-9.70596
▁drugs	-9.70706
▁mere	-9.70716
▁carrie	-9.70721
af	-9.70829
▁victims	-9.70862
▁causes	-9.70898
▁emerge	-9.70962
▁Lo	-9.7097
▁giving	-9.70991
▁although	-9.70999
▁resolution	-9.71026
chi	-9.71151
▁depends	-9.7117
▁survive	-9.71212
▁bond	-9.71235
▁decide	-9.71267
▁tradition	-9.71306
▁credibility	-9.71434
▁bailout	-9.71445
so	-9.71469
▁models	-9.71527
▁host	-9.71591
▁bankers	-9.71646
care	-9.71649
▁choose	-9.71656
▁2003	-9.71657
▁wide	-9.71668
▁tight	-9.71682
▁ill	-9.71837
▁mainly	-9.71849
▁learn	-9.71869
▁qua	-9.71871
▁trading	-9.71879
▁package	-9.71883
▁ideal	-9.72051
▁uncertainty	-9.72113
▁transfer	-9.72124
ional	-9.72132
▁lesson	-9.72204
▁borrowing	-9.72249
▁send	-9.72261
third	-9.72266
▁excess	-9.72285
▁Consider	-9.72326
ob	-9.72326
▁worked	-9.72412
▁latest	-9.72455
▁deeply	-9.72462
▁genetic	-9.72474
▁revenues	-9.72478
▁combined	-9.72549
▁prevail	-9.7255
▁medical	-9.72551
▁crimes	-9.72645
▁remained	-9.72673
▁candidates	-9.72686
▁ruling	-9.72776
4%	-9.72788
▁par	-9.72818
▁March	-9.72822
cal	-9.72851
making	-9.72901
▁watch	-9.73
▁accounts	-9.73022
▁operations	-9.73121
▁Ca	-9.73122
▁generally	-9.73233
▁arms	-9.73258
▁shock	-9.73278
▁Republican	-9.73377
▁root	-9.73383
▁borrow	-9.73471
▁supported	-9.7355
ey	-9.73558
▁raised	-9.7359
▁च	-9.73605
▁wind	-9.73623
tech	-9.73642
▁zero	-9.7368
▁signal	-9.73681
standing	-9.73713
▁initiative	-9.73746
▁app	-9.73753
American	-9.73859
▁implies	-9.73907
▁Will	-9.742
ren	-9.74204
▁killed	-9.7433
सी	-9.74401
▁ग	-9.74432
▁hands	-9.74462
▁greatest	-9.74498
▁practical	-9.74591
▁$3	-9.74598
▁ख	-9.74743
▁efficiency	-9.74767
▁promises	-9.74801
▁announced	-9.74888
▁formal	-9.74896
mber	-9.749
▁die	-9.74927
सा	-9.75008
▁genuine	-9.7505
▁Mar	-9.75175
▁earn	-9.75284
▁suffering	-9.75292
▁bomb	-9.75389
▁diseases	-9.75415
▁seriously	-9.75439
ssociated	-9.75441
▁expensive	-9.75512
▁Organization	-9.75512
▁considered	-9.75518
▁Under	-9.75538
▁takes	-9.75539
▁draw	-9.75543
▁Serbia	-9.75544
▁closer	-9.75589
▁resulting	-9.75621
▁affairs	-9.75625
▁type	-9.7564
den	-9.75844
▁scientists	-9.7591
▁rural	-9.75976
▁gave	-9.76007
▁elite	-9.76127
▁priority	-9.76229
▁professional	-9.76261
▁nationalist	-9.76362
▁restore	-9.76436
▁legislation	-9.76441
ient	-9.76529
▁diplomacy	-9.76674
▁executive	-9.76674
▁Nigeria	-9.76675
▁extra	-9.76723
dy	-9.76748
▁learned	-9.76755
▁broader	-9.76817
▁poorest	-9.76865
▁However	-9.76931
▁protest	-9.77038
ically	-9.77127
▁sort	-9.77159
lock	-9.77267
▁decided	-9.77321
▁Though	-9.77397
▁transformation	-9.77439
▁cash	-9.77644
▁blame	-9.77698
▁imposed	-9.77836
▁advocate	-9.77851
▁sea	-9.77902
▁improvement	-9.77956
▁sustained	-9.77963
▁managed	-9.7798
▁sufficient	-9.78022
▁zone	-9.78027
▁extend	-9.78041
▁participation	-9.78088
▁स्वास्थ्य	-9.78088
▁strike	-9.78088
▁regimes	-9.78127
▁sharply	-9.782
▁weeks	-9.78205
▁capita	-9.78265
▁urban	-9.78305
▁Treasury	-9.78325
▁``	-9.78325
▁highest	-9.78434
▁su	-9.78452
▁helping	-9.78469
▁lies	-9.7847
ko	-9.78491
▁getting	-9.78506
▁aggressive	-9.78564
▁rival	-9.78564
▁देशों	-9.78586
▁played	-9.78636
▁Per	-9.7864
▁recognized	-9.78654
▁violent	-9.78691
win	-9.78769
▁conference	-9.78802
▁continuing	-9.78802
▁mutual	-9.78802
▁armed	-9.78808
▁stress	-9.78814
▁agreements	-9.78857
▁dari	-9.78867
ib	-9.7893
ker	-9.79015
▁Democratic	-9.79041
▁dream	-9.79042
▁electricity	-9.79061
▁Hong	-9.79066
▁liberalization	-9.79101
▁ready	-9.79226
▁quite	-9.79282
▁mandate	-9.7929
▁becomes	-9.79463
ji	-9.79474
1%	-9.79504
▁comprehensive	-9.79522
▁stay	-9.79523
50	-9.79615
▁assume	-9.79619
ries	-9.79643
▁unless	-9.79727
▁wave	-9.7977
कार	-9.79892
▁concerned	-9.79939
fu	-9.79943
▁incomes	-9.79964
▁southern	-9.80004
▁entirely	-9.80068
▁cycle	-9.80223
▁25	-9.80238
▁Saddam	-9.80246
▁House	-9.80258
▁Two	-9.8028
▁logic	-9.80292
▁coal	-9.80303
ति	-9.80465
▁technical	-9.80489
▁Ar	-9.80548
▁replace	-9.80674
▁narrow	-9.80732
▁prefer	-9.80735
lam	-9.80755
cor	-9.80783
▁discuss	-9.80902
▁Turkish	-9.80976
which	-9.80997
leg	-9.81031
▁Car	-9.81035
▁precisely	-9.81048
''	-9.81106
▁Our	-9.81129
▁murder	-9.81221
▁easing	-9.81222
ई	-9.81339
ीय	-9.8139
▁advance	-9.81398
▁senior	-9.81466
▁exceed	-9.81466
▁ongoing	-9.81473
rd	-9.81516
▁revenue	-9.81545
▁views	-9.81702
▁otherwise	-9.81712
▁faith	-9.81712
▁Kong	-9.81734
▁pain	-9.81803
▁Ko	-9.81807
▁estimated	-9.81899
▁Another	-9.81958
▁January	-9.81958
▁intelligence	-9.81958
▁everywhere	-9.81973
▁launched	-9.82218
▁eight	-9.82239
wo	-9.82298
▁transport	-9.82458
▁divide	-9.8256
▁mission	-9.82629
▁payments	-9.82639
गा	-9.82652
▁Russians	-9.82707
▁whereas	-9.82816
▁economist	-9.82821
ew	-9.82859
io	-9.82915
200	-9.82961
▁conflicts	-9.82973
▁tough	-9.82988
▁statement	-9.83099
▁eliminate	-9.83199
▁missile	-9.83199
▁conventional	-9.83293
▁Australia	-9.83449
▁exception	-9.8346
▁parliamentary	-9.83481
▁demonstrate	-9.83561
▁crime	-9.83594
▁emerged	-9.83639
▁20%	-9.8372
▁reaction	-9.83891
▁temporary	-9.8395
▁division	-9.83951
▁proportion	-9.83951
▁truly	-9.83951
▁bound	-9.84032
▁productive	-9.84035
▁July	-9.84065
▁determine	-9.84066
▁Here	-9.8407
▁unprecedented	-9.84202
▁leaving	-9.84202
▁rational	-9.84206
▁resistance	-9.84225
.5%	-9.8433
pan	-9.84402
▁Vladimir	-9.84455
▁forecast	-9.84455
▁combination	-9.84467
▁mark	-9.84563
▁श	-9.8457
ory	-9.84575
▁changing	-9.84708
▁destruction	-9.84708
▁distribution	-9.84715
▁partnership	-9.84716
▁त	-9.84718
▁June	-9.84722
▁seven	-9.84777
lat	-9.84788
▁Wall	-9.84801
▁believed	-9.84804
▁faced	-9.84858
▁dengan	-9.84962
▁foundation	-9.84974
▁launch	-9.85203
▁imagine	-9.85216
▁चाहिए	-9.85216
▁useful	-9.85392
▁retain	-9.85432
9%	-9.85638
▁prepared	-9.85665
▁du	-9.85665
▁Parliament	-9.85727
▁unique	-9.85727
▁deposit	-9.85744
tail	-9.85806
▁experts	-9.85844
ok	-9.85851
▁movements	-9.85908
▁authoritarian	-9.85974
▁inevitable	-9.85984
▁legitimate	-9.85984
▁physical	-9.85984
▁provision	-9.85984
arian	-9.86043
▁planet	-9.86067
▁schools	-9.86214
▁easier	-9.86241
▁overcome	-9.86241
▁pace	-9.86243
▁tensions	-9.86376
val	-9.86403
▁analysis	-9.86498
त्र	-9.86559
▁finding	-9.86608
▁My	-9.86847
▁saw	-9.86858
car	-9.86882
▁considerable	-9.86886
▁training	-9.86914
▁promised	-9.8698
▁presence	-9.87019
▁Egyptian	-9.87066
▁civilian	-9.87074
▁cutting	-9.87127
▁bi	-9.87382
▁terror	-9.87409
▁determined	-9.87417
▁welcome	-9.87536
▁moving	-9.87536
▁Paris	-9.87543
▁Ke	-9.87564
▁reported	-9.87666
▁patients	-9.87745
▁acknowledge	-9.87797
▁agricultural	-9.87797
rad	-9.87862
फ	-9.87885
policy	-9.87888
▁virtually	-9.87901
▁declared	-9.87943
▁resist	-9.87968
▁Depression	-9.88059
▁experiment	-9.88059
▁occupation	-9.88059
▁minority	-9.88075
▁terrorists	-9.88142
▁establishment	-9.88143
▁places	-9.88194
ending	-9.88198
os	-9.88234
▁Third	-9.88321
app	-9.8833
▁Jo	-9.88338
▁employ	-9.88393
▁Can	-9.88409
scale	-9.88457
ua	-9.88505
▁looks	-9.8855
▁exercise	-9.88584
▁restructuring	-9.88584
▁modest	-9.88585
▁slowdown	-9.88595
▁wonder	-9.88607
▁profits	-9.88615
▁board	-9.88628
जी	-9.88783
▁immigration	-9.88848
▁studies	-9.88848
▁profound	-9.88859
▁allowing	-9.88898
▁controls	-9.89006
▁ended	-9.89034
▁feature	-9.89113
▁percentage	-9.89113
wi	-9.8915
owned	-9.89336
▁Hezbollah	-9.89378
▁University	-9.89378
▁2015	-9.89385
▁ल	-9.89434
▁treat	-9.89441
power	-9.89481
▁positions	-9.89531
▁prison	-9.89585
▁lines	-9.89663
,"	-9.89736
▁regulators	-9.89768
flat	-9.89816
▁resolve	-9.89816
ें	-9.89903
▁chief	-9.89911
▁medium	-9.89911
▁Rather	-9.89925
▁demonstrated	-9.90058
▁attitude	-9.90178
▁fossil	-9.90178
▁Blair	-9.90178
-19	-9.90179
▁securities	-9.90186
▁Gu	-9.90232
▁ga	-9.90254
mat	-9.90475
▁delay	-9.90504
▁active	-9.90565
▁whatever	-9.90668
▁rank	-9.90802
▁meant	-9.90875
▁para	-9.90896
ज़	-9.90922
▁expand	-9.90939
▁room	-9.90942
▁exploit	-9.90985
▁operate	-9.90985
▁occurred	-9.91008
▁yield	-9.91039
▁wanted	-9.91061
▁mechanism	-9.91113
▁gone	-9.91147
▁offered	-9.91234
▁Taliban	-9.91255
▁twentieth	-9.91255
▁immigrants	-9.91264
▁Like	-9.91284
▁implemented	-9.9136
▁cheap	-9.91396
▁2%	-9.91457
▁component	-9.91526
▁Pe	-9.91527
▁indicate	-9.91527
▁Ja	-9.91628
▁objective	-9.91706
▁ministers	-9.91779
▁HIV	-9.91798
▁twenty	-9.91798
▁paper	-9.91799
▁destroy	-9.91819
▁tools	-9.91829
▁perceived	-9.91908
▁accepted	-9.91908
▁mention	-9.91949
▁equally	-9.9201
▁fallen	-9.92043
▁bill	-9.92045
▁dramatic	-9.92054
▁Vi	-9.9207
▁perspective	-9.9207
low	-9.92081
▁institution	-9.92084
▁करना	-9.9211
ily	-9.92138
▁divided	-9.92225
▁condition	-9.92236
art	-9.92278
rum	-9.9231
▁territory	-9.92343
▁opponents	-9.92452
▁quo	-9.92552
▁CAMBRIDGE	-9.92617
▁universities	-9.92617
▁Nobel	-9.92617
▁populist	-9.92617
▁brain	-9.92619
▁lo	-9.92754
ong	-9.92773
▁numbers	-9.92851
▁art	-9.92872
▁लेकिन	-9.92892
▁relief	-9.92892
▁Paul	-9.9297
▁stem	-9.9297
▁includes	-9.9311
▁ideological	-9.93168
▁capture	-9.93172
▁killing	-9.93206
▁driven	-9.93298
▁joint	-9.933
▁achievement	-9.93322
▁adapt	-9.93371
▁She	-9.93403
▁ties	-9.93425
▁disorder	-9.93444
▁2002	-9.93444
▁deaths	-9.93478
bra	-9.93568
cut	-9.93576
▁options	-9.93593
▁wish	-9.93665
&#160;	-9.93704
▁brutal	-9.93721
▁dialogue	-9.93721
▁kept	-9.93728
ue	-9.93762
▁सम	-9.93832
▁immediately	-9.93937
uring	-9.93951
▁solidarity	-9.93999
▁unilateral	-9.93999
▁Italian	-9.93999
▁ensuring	-9.94003
▁mental	-9.94089
place	-9.94164
▁potentially	-9.94169
▁corrupt	-9.94219
▁पा	-9.94245
▁drop	-9.94289
▁Bu	-9.94544
▁Palestine	-9.94556
▁strategies	-9.94556
▁involve	-9.94672
▁opening	-9.94689
▁nationalism	-9.94764
▁viewed	-9.9481
्या	-9.94817
▁commodity	-9.94837
▁migration	-9.94851
▁engage	-9.94954
▁forms	-9.94982
▁October	-9.95117
▁declining	-9.95117
▁search	-9.95118
▁improving	-9.95119
▁Human	-9.95152
▁objectives	-9.95247
▁mortgage	-9.95387
▁decisive	-9.95399
▁promoting	-9.95399
▁choices	-9.95411
▁abandon	-9.9544
▁typically	-9.95542
J	-9.95574
▁kill	-9.95612
▁understood	-9.95682
▁Just	-9.95696
▁remember	-9.95718
▁attractive	-9.95743
▁Ru	-9.95776
▁Da	-9.95854
▁pose	-9.95855
▁tri	-9.95855
▁nu	-9.95893
▁populations	-9.95893
▁Vietnam	-9.95965
▁causing	-9.95965
▁Kim	-9.96008
▁proved	-9.96067
▁neighbor	-9.96087
▁donor	-9.96163
▁intention	-9.96181
lar	-9.96206
▁disappear	-9.96249
▁referendum	-9.96249
▁scheme	-9.96249
▁1930	-9.9626
▁dramatically	-9.9627
▁estimates	-9.96282
carbon	-9.96432
ants	-9.96444
▁initiatives	-9.9645
ular	-9.96473
▁practices	-9.96516
cies	-9.96571
▁super	-9.96842
▁deeper	-9.96853
▁implications	-9.97016
light	-9.97073
▁adequate	-9.97106
▁discipline	-9.97106
▁medicine	-9.97106
ute	-9.97116
▁downturn	-9.97125
▁willingness	-9.9716
या	-9.97169
▁permit	-9.97174
▁resource	-9.97195
▁credible	-9.97394
▁pi	-9.97453
▁count	-9.97571
▁channel	-9.97682
▁document	-9.97682
▁identify	-9.97682
▁geopolitical	-9.97683
▁50%	-9.97695
▁मिल	-9.97695
▁Its	-9.97709
कर	-9.97736
▁adopt	-9.97935
▁transform	-9.97959
▁lessons	-9.9796
▁Foreign	-9.97971
▁rescue	-9.97972
▁Social	-9.97992
▁cap	-9.98015
▁commitments	-9.98042
▁40	-9.98136
▁Israelis	-9.98184
▁secret	-9.9824
▁restrict	-9.98242
▁barriers	-9.98261
aries	-9.98301
में	-9.98395
▁operation	-9.98396
▁got	-9.98407
▁warning	-9.98434
▁August	-9.98551
▁LONDON	-9.98551
▁Abe	-9.98566
मान	-9.98572
bur	-9.98597
▁structures	-9.98681
▁experienced	-9.98719
▁born	-9.98751
ari	-9.98793
▁17	-9.98808
▁Cha	-9.98817
ली	-9.98842
▁Democrats	-9.98843
▁aspect	-9.98843
▁transparency	-9.98846
▁marginal	-9.9886
▁ignore	-9.99039
▁1%	-9.99127
▁communication	-9.99135
▁diminish	-9.99135
aw	-9.99155
▁product	-9.99236
▁16	-9.99256
▁enhance	-9.99333
▁embrace	-9.99333
▁fate	-9.99346
▁equivalent	-9.99428
▁green	-9.99461
▁none	-9.99533
▁blood	-9.99573
▁sl	-9.99583
▁outcomes	-9.99615
▁marked	-9.99746
▁Sha	-9.99758
▁sum	-9.99832
▁bringing	-9.99922
▁event	-10.0005
▁depression	-10.0008
▁fears	-10.001
▁Sch	-10.0015
.5	-10.0021
nch	-10.003
▁Nevertheless	-10.0031
▁represents	-10.0035
▁apply	-10.0044
▁figure	-10.0046
▁remind	-10.0057
▁1999	-10.0061
▁related	-10.0061
▁dictatorship	-10.0062
▁40%	-10.0062
▁reflected	-10.0066
▁contract	-10.0067
▁wider	-10.0077
ाल	-10.0077
▁farm	-10.008
▁requirements	-10.0091
▁1960	-10.0092
▁subsidi	-10.0098
▁vis	-10.0113
▁driving	-10.0121
▁heavily	-10.0121
▁sentiment	-10.0121
▁tidak	-10.0121
▁criticism	-10.0123
▁mechanisms	-10.0136
ास	-10.014
▁Merkel	-10.0151
▁perfect	-10.0151
▁subsequent	-10.0151
▁travel	-10.0151
▁surge	-10.016
▁deflation	-10.0178
▁settle	-10.0178
ked	-10.018
▁separate	-10.0186
▁auto	-10.0186
▁perform	-10.0188
▁Venezuela	-10.0211
▁assumption	-10.0211
▁conclusion	-10.0211
▁ideology	-10.0211
▁communist	-10.0212
▁regulations	-10.0222
▁fixed	-10.0224
polar	-10.0239
hood	-10.024
▁newspaper	-10.0241
▁obstacle	-10.0241
trade	-10.0243
▁stands	-10.0244
▁highlight	-10.0247
▁defined	-10.0259
▁lay	-10.0266
▁2014	-10.0271
▁explanation	-10.0271
▁possibly	-10.0271
▁invasion	-10.0271
▁distort	-10.0271
▁original	-10.0274
▁offers	-10.0281
ulation	-10.0282
स्त	-10.0282
▁Shia	-10.0284
pon	-10.0286
▁rein	-10.0287
▁seat	-10.0288
vez	-10.029
style	-10.0299
▁supplies	-10.0302
▁heavy	-10.0302
▁summer	-10.0303
▁negara	-10.032
▁necessarily	-10.0332
▁discussion	-10.0333
▁opposed	-10.0333
▁Cuba	-10.0333
▁supporters	-10.0341
▁stance	-10.0347
▁collect	-10.0359
▁unity	-10.0362
▁Beijing	-10.0363
▁centuries	-10.0363
▁recognition	-10.0363
▁Sea	-10.0372
▁या	-10.0375
za	-10.0392
▁constitute	-10.0393
▁remarkable	-10.0393
▁black	-10.0393
▁प्रति	-10.0395
▁pada	-10.0398
हा	-10.0402
▁knows	-10.0419
▁वे	-10.0422
▁aggregate	-10.0424
▁nowadays	-10.0424
▁restrictions	-10.0426
rk	-10.0429
▁partner	-10.0429
▁gu	-10.0433
▁race	-10.0434
down	-10.0434
▁overwhelming	-10.0439
▁profit	-10.0447
▁issued	-10.0455
▁Moscow	-10.0455
▁begun	-10.0455
bank	-10.0458
्स	-10.0462
atory	-10.048
▁Jewish	-10.0486
▁Ben	-10.0486
with	-10.0488
▁bold	-10.0492
▁cast	-10.0513
▁setting	-10.0513
▁Ge	-10.0515
free	-10.0516
▁reserve	-10.0517
▁incentive	-10.0517
▁April	-10.0517
▁sexual	-10.0518
▁starting	-10.0518
▁rulers	-10.0519
▁imply	-10.0523
▁review	-10.0523
▁grand	-10.0527
▁invent	-10.0538
▁friends	-10.0538
▁word	-10.0549
▁amounts	-10.0549
pul	-10.0551
▁economically	-10.0551
▁described	-10.0553
▁rating	-10.056
▁Jordan	-10.0579
▁अपने	-10.0579
▁combat	-10.0602
▁woman	-10.0611
▁playing	-10.0619
▁enterprises	-10.0639
▁bio	-10.064
▁Committee	-10.0642
▁academic	-10.0642
▁unsustainable	-10.0642
▁unlike	-10.0649
▁players	-10.0655
▁Mu	-10.0656
▁historic	-10.0658
▁exit	-10.0671
ham	-10.0672
▁micro	-10.0674
▁tahun	-10.0674
▁dispute	-10.068
▁hours	-10.069
nic	-10.0691
▁turning	-10.0692
▁contributed	-10.0702
▁someone	-10.0702
▁agriculture	-10.0705
▁legacy	-10.0705
▁robust	-10.0705
▁soldiers	-10.0705
▁Jews	-10.0705
▁grew	-10.0707
▁reject	-10.071
▁feed	-10.0716
sum	-10.072
▁networks	-10.0727
▁fewer	-10.0733
▁Growth	-10.0737
▁observers	-10.0737
▁bottom	-10.075
▁Any	-10.075
▁द	-10.0757
▁corporations	-10.0758
बा	-10.0759
let	-10.076
▁trans	-10.0762
▁assess	-10.0765
related	-10.0767
work	-10.0769
first	-10.0769
▁charge	-10.077
▁father	-10.077
▁proposals	-10.0777
की	-10.078
long	-10.0782
▁economics	-10.0785
debt	-10.0801
▁confirm	-10.0801
▁survival	-10.0801
▁Stability	-10.0804
▁strengthening	-10.0815
▁exposed	-10.0817
▁returns	-10.082
▁shocks	-10.0826
lay	-10.0829
▁vo	-10.0829
▁renminbi	-10.0833
▁perception	-10.0833
▁escape	-10.0833
▁Chile	-10.0835
hold	-10.0836
new	-10.0842
▁network	-10.0844
▁weight	-10.0846
▁realize	-10.0847
▁costly	-10.0856
▁5%	-10.0861
▁Act	-10.0863
▁Copenhagen	-10.0865
▁communism	-10.0865
▁condemn	-10.0865
▁seeming	-10.0868
▁inside	-10.0869
▁Pre	-10.0871
▁chain	-10.0876
▁meaning	-10.0879
▁gained	-10.088
20	-10.0892
▁accelerate	-10.0897
▁preserve	-10.0897
▁relevant	-10.0897
▁losing	-10.09
▁Recent	-10.0904
▁Then	-10.0907
▁threatened	-10.0912
not	-10.0929
▁Sweden	-10.093
▁weaken	-10.0931
▁fill	-10.0943
ikan	-10.0954
▁commit	-10.0954
▁author	-10.0956
▁site	-10.0959
char	-10.0959
▁accomplish	-10.0962
▁sales	-10.0966
▁couple	-10.0967
ase	-10.0968
▁supporting	-10.098
net	-10.0986
sha	-10.0988
Pacific	-10.0995
▁opposite	-10.0995
▁Gulf	-10.0995
▁fa	-10.0996
▁उन	-10.0998
▁generations	-10.1
▁हम	-10.1011
▁3%	-10.1015
▁suffered	-10.1016
aging	-10.1018
coming	-10.1026
▁scope	-10.1027
▁hear	-10.1028
direct	-10.103
▁neo	-10.1032
▁closely	-10.1042
vol	-10.1047
▁Once	-10.1048
▁Mubarak	-10.106
▁enlargement	-10.106
European	-10.1066
▁arrangements	-10.1066
▁keeping	-10.1067
▁humanity	-10.1077
▁कु	-10.1086
▁published	-10.1087
▁object	-10.1089
ident	-10.1093
▁lift	-10.1093
▁govern	-10.1103
▁closed	-10.1107
▁discover	-10.1107
▁command	-10.1111
▁happens	-10.1111
ku	-10.1114
pol	-10.1126
▁1989	-10.1126
▁wrote	-10.1126
▁northern	-10.1126
▁30%	-10.1129
▁showed	-10.1129
▁urgent	-10.113
▁looking	-10.1132
wide	-10.1144
▁poll	-10.1156
▁constrain	-10.1159
▁Sudan	-10.1159
▁series	-10.1163
▁moved	-10.1164
▁expanding	-10.1167
▁elites	-10.1172
▁completely	-10.1173
▁establishing	-10.1174
▁saying	-10.1181
▁signs	-10.1185
read	-10.1191
▁malaria	-10.1193
intensive	-10.1193
▁foster	-10.1193
▁arise	-10.1198
▁paying	-10.1205
ाव	-10.1207
▁proper	-10.1222
▁illegal	-10.1226
▁guide	-10.1228
▁apparent	-10.1229
▁pushing	-10.1233
▁added	-10.1237
ama	-10.1244
▁इ	-10.1249
▁14	-10.1249
▁reward	-10.1251
▁birth	-10.1259
▁match	-10.126
▁processes	-10.1267
▁trigger	-10.1274
▁दे	-10.1275
uff	-10.1278
▁surpluses	-10.1278
▁DC	-10.1286
▁stabilize	-10.1293
▁witness	-10.1293
▁prop	-10.1298
▁trends	-10.13
ched	-10.1302
ana	-10.1307
▁Ki	-10.131
▁grown	-10.1316
▁reasonable	-10.1322
▁affected	-10.1322
्व	-10.1326
▁humanitarian	-10.1327
▁priorities	-10.1327
▁लोगों	-10.1328
cle	-10.1336
▁fuels	-10.1338
▁waste	-10.1346
▁encouraging	-10.136
▁stimulate	-10.136
▁Qu	-10.1362
▁included	-10.1364
▁Pakistani	-10.1364
▁producers	-10.1368
▁pushed	-10.1387
▁weakness	-10.1392
▁Climate	-10.1394
▁obtain	-10.1394
▁constraints	-10.1395
▁homes	-10.1396
▁Dis	-10.1397
lli	-10.1408
▁addressed	-10.1411
▁says	-10.1424
▁youth	-10.1424
▁organ	-10.1426
▁Every	-10.1427
▁appreciation	-10.1428
▁expense	-10.1428
▁latter	-10.1428
dge	-10.1432
▁pressures	-10.1432
▁capable	-10.1434
▁strongly	-10.144
▁Qaeda	-10.144
कि	-10.1447
▁bar	-10.1454
▁Dutch	-10.1462
hal	-10.1463
▁mother	-10.1465
self	-10.1466
▁Plan	-10.147
ency	-10.1472
▁bubbles	-10.1475
▁Chancellor	-10.1497
▁February	-10.1497
▁absolute	-10.1497
▁accompanie	-10.1497
▁check	-10.1497
▁felt	-10.1497
▁surprising	-10.1501
▁failing	-10.1501
▁fulfill	-10.1502
▁Mao	-10.1515
▁healthy	-10.1516
▁risky	-10.1523
ban	-10.1524
▁survey	-10.1531
▁Street	-10.1531
▁dalam	-10.1565
▁content	-10.1566
▁You	-10.1568
▁तो	-10.1569
tric	-10.1572
crisis	-10.1574
▁importantly	-10.1579
▁painful	-10.1588
lie	-10.1598
ibility	-10.16
▁inevitably	-10.16
▁pledge	-10.16
▁2010,	-10.1602
▁hopes	-10.161
▁camp	-10.1612
nation	-10.1612
▁confrontation	-10.1616
▁feeling	-10.1619
▁participate	-10.1635
▁resort	-10.1635
▁proceed	-10.1635
▁transaction	-10.1635
▁symbol	-10.1636
▁taxpayers	-10.1639
ां	-10.1639
▁planning	-10.164
security	-10.1644
▁educational	-10.1656
▁dependent	-10.1665
80	-10.1669
▁speed	-10.167
▁critics	-10.1672
▁judge	-10.1672
▁engine	-10.1681
▁surely	-10.1682
▁expression	-10.1683
▁actors	-10.1689
▁replaced	-10.169
▁lender	-10.1692
▁इन	-10.1695
▁Canada	-10.1705
air	-10.1715
▁सा	-10.1721
▁repeatedly	-10.1724
▁plants	-10.1726
▁served	-10.1732
▁enforce	-10.1734
▁achieving	-10.174
▁annually	-10.1742
▁signed	-10.1757
▁dealing	-10.1759
▁suit	-10.176
▁El	-10.1762
▁intended	-10.1762
national	-10.1767
▁leads	-10.1771
▁version	-10.1771
▁machine	-10.1775
ming	-10.1778
▁persist	-10.1778
late	-10.1782
▁track	-10.1787
len	-10.179
▁apart	-10.18
▁cells	-10.1803
▁express	-10.1816
▁60	-10.1819
▁Hav	-10.1829
▁migrants	-10.1829
▁friend	-10.1837
▁write	-10.1841
दा	-10.1843
▁sent	-10.1844
▁Colombia	-10.1846
▁England	-10.1846
▁deserve	-10.1846
▁facilitate	-10.1846
▁university	-10.1846
▁conduct	-10.1848
▁girls	-10.186
▁solar	-10.1861
▁hospital	-10.1881
▁inadequate	-10.1881
▁viable	-10.1882
▁offset	-10.1887
▁13	-10.1888
▁attempts	-10.1894
▁coup	-10.1894
pped	-10.1917
▁empire	-10.1917
▁primarily	-10.1917
▁iron	-10.1917
▁assert	-10.1919
▁remaining	-10.1922
▁supposedly	-10.1933
pping	-10.1937
▁elements	-10.1939
▁gradually	-10.1939
▁accounting	-10.1946
▁Afghan	-10.1953
▁occasion	-10.1953
▁television	-10.1953
▁employees	-10.1953
▁talent	-10.1953
▁revive	-10.1953
▁strict	-10.1953
▁died	-10.1955
▁peak	-10.1959
▁systemic	-10.1961
mission	-10.1964
▁wait	-10.1965
▁eyes	-10.197
▁cha	-10.1971
ook	-10.1977
▁charges	-10.198
like	-10.1981
▁Netherlands	-10.1989
▁Portugal	-10.1989
▁Countries	-10.1989
▁phase	-10.1989
री	-10.199
▁Man	-10.1993
ंग	-10.1996
▁Defense	-10.1999
▁withdrawal	-10.2001
▁successor	-10.2004
▁votes	-10.2008
▁fix	-10.2009
▁Ni	-10.2012
grade	-10.2014
▁consideration	-10.2014
▁convinced	-10.2017
mate	-10.2021
sis	-10.2023
▁allows	-10.2023
▁Erdo	-10.2025
▁linked	-10.203
nder	-10.2043
▁fish	-10.2043
taking	-10.2054
▁Shi	-10.2058
▁rid	-10.206
▁Peace	-10.2061
▁100	-10.2074
▁Te	-10.2084
▁Republicans	-10.2089
▁claimed	-10.2097
▁flood	-10.2097
▁daily	-10.2098
▁badly	-10.2104
▁island	-10.2114
▁publicly	-10.2114
▁reveal	-10.2118
▁Fortunately	-10.2134
▁Tunisia	-10.2134
▁village	-10.2134
▁Romania	-10.2135
▁nominal	-10.2138
▁weaker	-10.2139
even	-10.2146
▁equality	-10.2147
▁red	-10.2147
▁plant	-10.215
▁figures	-10.2152
▁works	-10.2158
▁buying	-10.2163
rg	-10.2169
▁periphery	-10.2171
▁बहुत	-10.2171
▁सकता	-10.2171
▁exactly	-10.2171
▁gather	-10.2172
▁knew	-10.2172
▁emergence	-10.2172
oriented	-10.2173
▁addressing	-10.2182
▁circle	-10.2184
cap	-10.2184
can	-10.2197
▁spirit	-10.2206
▁crowd	-10.2207
▁dismiss	-10.2207
▁High	-10.2207
▁integrated	-10.2208
ada	-10.2212
▁el	-10.2212
▁refer	-10.2227
▁arrest	-10.2229
▁reports	-10.2233
▁Rights	-10.2234
▁teach	-10.224
▁था	-10.2245
▁Berlin	-10.2245
▁60%	-10.2246
▁south	-10.2246
where	-10.2246
iz	-10.2258
▁contracts	-10.2262
्म	-10.2275
▁fit	-10.2275
▁ambitious	-10.2281
▁flexibility	-10.2281
▁True	-10.2281
▁essentially	-10.2281
▁Time	-10.2282
▁गया	-10.2282
▁Unlike	-10.2282
▁standing	-10.2289
ology	-10.2291
▁regarded	-10.2304
▁formula	-10.2304
ले	-10.2305
▁treated	-10.2317
इसके	-10.2318
lf	-10.2318
▁stagnation	-10.2318
mark	-10.2337
ray	-10.2345
स्थ	-10.2356
▁empower	-10.2356
▁refused	-10.2356
▁arguments	-10.2357
▁assessment	-10.2362
▁engagement	-10.2363
▁lie	-10.237
▁train	-10.2372
▁realistic	-10.2372
▁spur	-10.2372
level	-10.2377
▁rejected	-10.238
▁sit	-10.2386
▁door	-10.2389
▁love	-10.2393
▁Singapore	-10.2393
▁fragile	-10.2393
▁volatility	-10.2393
▁renewable	-10.2393
▁suggested	-10.2393
▁wake	-10.2393
▁journalists	-10.2398
▁Lu	-10.24
▁Who	-10.2407
▁debts	-10.2411
ium	-10.2424
Q	-10.2429
▁possess	-10.2431
▁spoke	-10.2431
▁smart	-10.2431
▁notion	-10.2437
▁Much	-10.2439
▁passed	-10.2441
▁holds	-10.2442
▁joined	-10.2443
▁Assad	-10.2447
jo	-10.2449
▁conducted	-10.2449
▁reaching	-10.2451
▁Yes	-10.2453
▁organized	-10.2453
▁oppose	-10.2468
▁emergency	-10.2469
▁suppress	-10.2469
▁nineteenth	-10.2469
▁greenhouse	-10.2469
▁intervene	-10.247
0%	-10.247
▁Inter	-10.2471
▁pull	-10.2472
तर	-10.2472
value	-10.2499
▁preventing	-10.25
▁appreciate	-10.2506
▁chronic	-10.2506
▁promising	-10.2506
▁दुनिया	-10.2506
▁enemy	-10.2506
ara	-10.251
▁होने	-10.2512
▁heads	-10.2516
bb	-10.2521
class	-10.2525
some	-10.2533
cyclical	-10.2544
▁Abbas	-10.2544
▁OECD	-10.2544
▁chemical	-10.2544
▁rebel	-10.2546
rich	-10.2546
▁Ya	-10.2547
▁Still	-10.2549
▁expenditures	-10.2564
▁patent	-10.2583
▁engaged	-10.2597
▁quantitative	-10.2599
▁developments	-10.2611
▁participants	-10.2621
▁rose	-10.2622
ological	-10.2625
▁concerning	-10.2632
▁actual	-10.2634
▁imperial	-10.264
▁Nazi	-10.2645
▁ड	-10.2651
▁table	-10.2652
ina	-10.2655
▁Bi	-10.2655
▁balanced	-10.2656
;&	-10.2657
▁obligations	-10.2665
-8	-10.2667
ivity	-10.267
range	-10.267
▁regardless	-10.2672
▁appeared	-10.2677
atu	-10.2681
रे	-10.2683
▁origin	-10.269
▁demographic	-10.2698
▁imperative	-10.2698
▁unwilling	-10.2698
▁Health	-10.2698
▁managers	-10.2703
दी	-10.2705
▁initial	-10.2707
▁calling	-10.271
ties	-10.2717
▁dominated	-10.2721
▁refuse	-10.2737
▁1997	-10.2737
▁neglect	-10.2737
▁scandal	-10.2737
▁bit	-10.2741
▁crop	-10.2742
▁introduced	-10.2742
▁doesn	-10.2758
▁San	-10.2762
▁justify	-10.2765
▁dominant	-10.2776
▁draft	-10.2776
▁suspect	-10.2776
▁turmoil	-10.2776
▁consolidation	-10.2777
▁alarm	-10.2779
▁Angel	-10.2779
▁unions	-10.2788
▁difficulties	-10.2794
कों	-10.2794
▁previously	-10.2799
▁Are	-10.28
▁uncertain	-10.2814
▁staff	-10.2815
▁bodies	-10.2815
▁mortgages	-10.2816
िल	-10.2818
▁बना	-10.2823
▁react	-10.2824
position	-10.2834
point	-10.284
▁Keynes	-10.2852
▁Thailand	-10.2854
▁managing	-10.2856
▁via	-10.2859
▁sold	-10.2864
gue	-10.2865
▁जाए	-10.2877
नों	-10.2879
▁temperature	-10.2893
▁consequence	-10.2898
▁shareholders	-10.2903
angan	-10.2906
▁posed	-10.2915
▁Constitution	-10.2916
▁purchases	-10.2926
nct	-10.293
▁कारण	-10.2935
orporat	-10.2949
▁polls	-10.2953
▁concluded	-10.2965
▁1991	-10.2973
▁Netanyahu	-10.2973
▁coordination	-10.2976
▁purchase	-10.2979
राष्ट्रीय	-10.298
ternal	-10.2984
▁son	-10.2989
▁assumed	-10.2997
▁Supreme	-10.3012
▁acquire	-10.3012
▁David	-10.3012
▁applied	-10.3012
▁film	-10.3012
▁giant	-10.3013
▁inclusive	-10.3014
▁उस	-10.3018
▁simultaneously	-10.3018
We	-10.3019
▁cell	-10.3028
▁Har	-10.3033
▁successfully	-10.3037
▁withdraw	-10.3039
cho	-10.3042
▁aware	-10.3051
▁transparent	-10.3052
▁twice	-10.3052
▁commission	-10.3052
▁stories	-10.3052
▁attend	-10.3055
▁winner	-10.3055
▁Governments	-10.3056
▁courts	-10.3057
▁panic	-10.3059
▁Pact	-10.3061
▁contribution	-10.3063
▁pick	-10.3064
▁pan	-10.3066
▁eastern	-10.307
▁expressed	-10.3072
q	-10.3082
▁accession	-10.3082
▁gives	-10.3083
▁Spanish	-10.3093
सबसे	-10.3093
▁proven	-10.311
▁Im	-10.311
▁fo	-10.3115
▁shortage	-10.3115
▁complicated	-10.3118
▁notably	-10.3132
▁Austria	-10.3133
▁parents	-10.3133
▁inflows	-10.3136
▁voting	-10.3138
▁Roma	-10.3139
500	-10.3148
▁instruments	-10.316
▁approaches	-10.3164
▁slowly	-10.3164
▁adjust	-10.3166
▁Political	-10.3173
▁renewed	-10.3173
▁civilians	-10.3174
▁देश	-10.3185
▁ruled	-10.3185
▁returned	-10.3187
▁streets	-10.3203
▁exists	-10.3205
▁released	-10.3207
0027	-10.3214
▁Cameron	-10.3214
▁demonstration	-10.3214
▁lebih	-10.3214
▁Market	-10.3214
▁तरह	-10.3214
▁aftermath	-10.3214
▁failures	-10.3214
▁sheets	-10.3217
▁manner	-10.3218
▁alike	-10.3218
▁effectiveness	-10.3229
▁Let	-10.3244
vy	-10.3246
ika	-10.3249
▁Ukrainian	-10.3255
▁Yemen	-10.3255
▁persuade	-10.3255
▁picture	-10.3255
▁loom	-10.3255
ought	-10.3256
though	-10.3259
▁restor	-10.326
▁targeted	-10.3262
▁revolutionary	-10.3264
▁connection	-10.3275
▁mistakes	-10.3278
▁Ph	-10.3287
▁minimum	-10.3296
▁prohibit	-10.3296
▁Malaysia	-10.3296
▁evident	-10.3296
▁pursuing	-10.3296
▁chaos	-10.3297
▁WTO	-10.3297
▁sustainability	-10.3298
▁define	-10.3298
thing	-10.332
country	-10.3325
▁placed	-10.3329
▁deploy	-10.3331
▁dictator	-10.3336
▁Czech	-10.3337
▁torture	-10.3337
▁grave	-10.3338
▁implementation	-10.3351
▁deny	-10.3351
empt	-10.3354
▁star	-10.3358
▁exclude	-10.3378
▁shrink	-10.3378
▁resign	-10.3378
▁honor	-10.3378
▁dark	-10.3379
▁isolation	-10.3379
hether	-10.338
▁burn	-10.3382
▁1950	-10.3382
▁kinds	-10.3397
▁happening	-10.3401
▁opt	-10.3415
ude	-10.3417
regulate	-10.3419
▁flexible	-10.342
▁crash	-10.342
▁controlled	-10.3461
▁tariff	-10.3461
&#45;	-10.3461
▁Hussein	-10.3461
▁Kyoto	-10.3461
▁advice	-10.3461
▁comparison	-10.3461
▁species	-10.3461
▁territorial	-10.3461
▁female	-10.3461
▁bankruptcy	-10.3462
▁energi	-10.3462
▁साथ	-10.3462
▁होती	-10.3463
▁persistent	-10.3465
▁ultimate	-10.3473
▁endorse	-10.3477
stitution	-10.3477
▁backed	-10.3488
ough	-10.3489
▁learning	-10.3491
▁expanded	-10.3501
▁Democracy	-10.3503
▁Energy	-10.3503
▁enemies	-10.3503
▁pollution	-10.3503
▁convert	-10.3504
▁civilization	-10.3514
including	-10.3534
vin	-10.3538
▁collapsed	-10.3545
EN	-10.3545
▁1998	-10.3545
▁WASHINGTON	-10.3545
▁judgment	-10.3545
▁alleged	-10.3545
▁barely	-10.3545
▁reverse	-10.3549
▁21	-10.3558
▁alter	-10.3558
▁consistent	-10.356
फ़	-10.3569
▁guard	-10.3575
इ	-10.3576
▁harder	-10.3587
action	-10.3593
▁threatening	-10.3594
▁demanding	-10.3604
▁united	-10.3609
NA	-10.3616
▁north	-10.362
▁heard	-10.3626
▁evolution	-10.3628
▁bargain	-10.363
▁innovative	-10.363
▁traffic	-10.363
▁hot	-10.3631
▁foot	-10.3632
▁bigger	-10.3635
dom	-10.3638
▁fueled	-10.3649
▁activists	-10.3651
liberal	-10.3662
▁Pol	-10.3665
cket	-10.3666
bound	-10.3666
▁capabilities	-10.3672
▁producing	-10.3672
▁sophisticated	-10.3672
▁request	-10.3672
▁Stalin	-10.3683
▁fine	-10.3684
▁bail	-10.3687
own	-10.3691
▁usual	-10.3694
▁mobilize	-10.3698
elect	-10.3699
%	-10.37
▁Convention	-10.3715
▁Medvedev	-10.3715
▁predecessor	-10.3715
▁QE	-10.3715
▁Robert	-10.3715
▁80%	-10.3716
नि	-10.3718
▁wall	-10.3721
▁extended	-10.3724
▁granted	-10.3724
sky	-10.3729
▁generated	-10.3752
▁fashion	-10.3757
▁Th	-10.3757
▁Policy	-10.3758
▁absorb	-10.3758
▁accident	-10.3758
▁indicator	-10.3758
▁wisdom	-10.3758
▁hunger	-10.3758
▁ownership	-10.3758
▁gender	-10.3758
▁genes	-10.3759
▁consult	-10.376
▁ambitions	-10.3768
▁encouraged	-10.3781
▁weakened	-10.3785
▁minorities	-10.3802
▁distress	-10.3804
च्	-10.381
▁resulted	-10.3813
▁4%	-10.3813
▁frequently	-10.3818
▁online	-10.3824
▁grant	-10.3824
▁protecting	-10.3834
▁sur	-10.3836
▁Should	-10.3844
▁emphasis	-10.3844
▁variety	-10.3844
▁Church	-10.3844
pla	-10.3848
▁retirement	-10.3848
now	-10.3861
चार	-10.3861
▁date	-10.3865
▁station	-10.3866
▁bombing	-10.3871
quality	-10.3877
productive	-10.3882
▁जिन	-10.3889
▁catch	-10.3892
mpli	-10.3894
▁meaningful	-10.39
▁investing	-10.3911
▁suddenly	-10.3912
GDP	-10.3925
रण	-10.3929
▁Berlusconi	-10.3932
▁narrative	-10.3932
▁accountability	-10.3935
▁guarantees	-10.3936
zi	-10.3941
surge	-10.3946
▁opened	-10.3947
kh	-10.3949
TA	-10.3957
▁select	-10.3973
▁Government	-10.3974
▁triumph	-10.3975
▁unemployed	-10.3976
▁lawyer	-10.3977
▁जब	-10.398
भा	-10.3983
▁disrupt	-10.3989
▁newly	-10.3994
fully	-10.3999
credit	-10.4013
▁disputes	-10.4013
▁California	-10.402
▁diverse	-10.402
▁reputation	-10.402
▁प्रभाव	-10.402
▁stopped	-10.4022
▁modernization	-10.4031
▁famous	-10.4033
responsibilities	-10.4064
▁Ahmadinejad	-10.4064
▁facilities	-10.4064
▁platform	-10.4064
▁Burma	-10.4064
▁coast	-10.4064
▁discrimination	-10.4074
▁Col	-10.4087
▁rarely	-10.4091
▁estate	-10.4091
▁distinct	-10.4092
conceiv	-10.4097
▁weakening	-10.4102
▁strengthened	-10.4107
fuel	-10.4108
▁Catholic	-10.4108
▁Musharraf	-10.4108
▁arrive	-10.4108
▁ethical	-10.4108
▁strain	-10.4108
▁nine	-10.411
▁existence	-10.4113
lem	-10.4113
▁revealed	-10.4128
serving	-10.414
SA	-10.4144
▁worsen	-10.4144
head	-10.4145
▁showing	-10.4147
▁complain	-10.4152
gged	-10.4152
▁approval	-10.4153
▁negotiating	-10.4153
▁users	-10.4155
▁रहा	-10.4156
▁cars	-10.4174
part	-10.4176
▁वा	-10.418
▁initially	-10.4188
▁Investment	-10.4198
▁anniversary	-10.4198
▁doctrine	-10.4198
▁surveillance	-10.4198
▁Bosnia	-10.4198
rap	-10.4204
▁violation	-10.4215
ept	-10.4222
▁shadow	-10.4228
test	-10.4232
▁comfort	-10.4243
▁concrete	-10.4243
▁आर्थिक	-10.4243
▁safeguard	-10.4243
▁compensation	-10.4244
▁male	-10.4246
▁representatives	-10.4253
▁Bar	-10.4254
enti	-10.4254
▁quick	-10.4258
▁heat	-10.4259
▁offering	-10.4266
▁yields	-10.4268
▁Atlantic	-10.4268
▁except	-10.4271
▁substantially	-10.4273
▁drawn	-10.4282
▁pursued	-10.4283
▁poorer	-10.4284
▁निवेश	-10.4288
▁Three	-10.4288
▁रोग	-10.4289
▁norms	-10.4289
▁entail	-10.429
▁merit	-10.4291
▁somewhat	-10.4291
▁Fi	-10.4316
take	-10.4322
▁None	-10.4325
▁custom	-10.4328
▁blow	-10.4328
▁क्षेत्र	-10.433
▁worried	-10.4333
▁storm	-10.4334
▁adult	-10.4334
▁halt	-10.4338
▁ignored	-10.4348
▁port	-10.4355
just	-10.4359
▁contributions	-10.4369
▁punish	-10.4374
▁apparently	-10.4375
▁transfers	-10.4376
▁Assembly	-10.4379
▁distinguish	-10.4379
▁vaccine	-10.4379
▁Fatah	-10.4379
▁comment	-10.4379
▁solid	-10.438
▁Free	-10.4383
▁director	-10.4384
▁master	-10.4388
▁patient	-10.4388
▁animals	-10.439
▁fundamentally	-10.4412
▁Denmark	-10.4425
▁ourselves	-10.4425
▁error	-10.4425
▁identified	-10.4425
▁fresh	-10.4425
▁habit	-10.4425
▁generous	-10.4425
▁shut	-10.4426
▁negotiate	-10.4432
▁protectionism	-10.4439
▁gun	-10.4443
▁gene	-10.4456
▁transformed	-10.4462
▁colleagues	-10.4463
▁undermin	-10.4467
▁accused	-10.4471
▁Hungary	-10.4471
▁bin	-10.4473
▁wise	-10.4474
▁dominate	-10.4478
▁sport	-10.448
▁lend	-10.4483
▁street	-10.4483
▁acceptable	-10.4496
▁delivered	-10.4499
क्र	-10.4509
interest	-10.4514
▁irre	-10.4515
fall	-10.4516
Qaddafi	-10.4517
▁atmosphere	-10.4517
▁devastating	-10.4517
▁principal	-10.4517
▁Before	-10.4517
sheet	-10.4519
▁index	-10.4521
▁aside	-10.4524
▁openly	-10.4529
▁Bill	-10.4534
building	-10.4537
▁aging	-10.4547
well	-10.4549
▁sex	-10.4551
▁card	-10.4557
▁Public	-10.4564
▁champion	-10.4564
▁iklim	-10.4564
▁impressive	-10.4564
▁influential	-10.4564
▁reluctant	-10.4564
▁undoubtedly	-10.4564
▁courage	-10.4564
▁exclusive	-10.4565
▁Justice	-10.4565
▁2020	-10.4566
reliance	-10.4568
▁release	-10.4572
40	-10.4573
▁instrument	-10.4579
▁secur	-10.4582
my	-10.4593
▁describe	-10.4601
▁declined	-10.4604
trust	-10.4606
economic	-10.4608
▁accurate	-10.4611
▁adverse	-10.4611
▁catastrophe	-10.4611
▁equipment	-10.4611
▁province	-10.4611
▁committee	-10.4611
▁breakthrough	-10.4611
▁Haiti	-10.4611
▁dependence	-10.4618
pun	-10.4624
▁Ban	-10.4626
वि	-10.4642
▁loan	-10.4643
makers	-10.4647
▁depress	-10.4648
▁bid	-10.4652
▁mess	-10.4654
▁PARIS	-10.4658
▁implicit	-10.4658
▁insufficient	-10.4658
▁operating	-10.4658
▁द्वारा	-10.4658
▁jihad	-10.4658
▁dozen	-10.4658
▁prompt	-10.4658
▁repression	-10.4659
▁reinforce	-10.4666
▁prisoners	-10.4668
▁borrowers	-10.467
▁element	-10.4676
▁types	-10.4679
▁colonial	-10.4682
▁presented	-10.469
▁Authority	-10.4705
▁Nonetheless	-10.4705
▁diversity	-10.4705
▁privatization	-10.4705
▁Leader	-10.4705
ंड	-10.4706
▁display	-10.4707
election	-10.4709
▁25%	-10.4709
kar	-10.4712
▁मु	-10.4713
lah	-10.4714
▁downward	-10.4717
eng	-10.4719
▁advances	-10.4738
▁succeeded	-10.4738
▁extremists	-10.4743
rry	-10.4745
▁ending	-10.475
▁admit	-10.4751
▁Nuclear	-10.4752
▁definition	-10.4752
▁superior	-10.4752
▁Spring	-10.4752
▁वाले	-10.4753
▁Trans	-10.4753
▁conclude	-10.4761
minded	-10.4764
▁openness	-10.477
democratic	-10.477
एँ	-10.4776
▁rebuild	-10.4777
▁responded	-10.4779
▁monitor	-10.4787
▁deliberate	-10.48
▁Change	-10.48
▁स्व	-10.4803
▁spring	-10.4806
शि	-10.4807
▁expenditure	-10.4823
▁belong	-10.4827
▁governor	-10.4832
▁consistently	-10.4834
▁English	-10.4848
▁dilemma	-10.4848
▁evolve	-10.4848
turn	-10.4849
▁70%	-10.4849
▁earnings	-10.4852
▁consist	-10.4854
▁sharing	-10.486
ire	-10.4864
▁eye	-10.4878
▁wealthy	-10.4879
▁driver	-10.488
▁accord	-10.4884
▁epidemic	-10.4896
▁struggling	-10.4896
▁paradox	-10.4896
▁illness	-10.4902
▁surprisingly	-10.4905
▁hedge	-10.491
▁रहे	-10.492
▁implementing	-10.4932
▁selling	-10.4932
lving	-10.4935
▁destroyed	-10.494
▁Brotherhood	-10.4944
▁Department	-10.4944
▁portfolio	-10.4944
▁interpretation	-10.495
▁circ	-10.4951
▁discussions	-10.4958
▁gradual	-10.4962
▁ले	-10.4967
▁looked	-10.4969
▁je	-10.4972
▁victim	-10.4972
▁construct	-10.4982
▁judges	-10.4989
road	-10.499
▁valuable	-10.4993
▁reliable	-10.4993
▁prosperous	-10.4993
▁Polish	-10.4994
▁extraordinary	-10.4999
▁avoided	-10.5003
▁acting	-10.5005
▁tackle	-10.5009
▁popularity	-10.5015
▁King	-10.5031
▁ship	-10.5037
▁Bolivia	-10.5041
▁Chirac	-10.5041
▁happy	-10.5041
▁tragedy	-10.5041
▁volume	-10.5041
▁Power	-10.5041
▁roll	-10.5042
▁undermined	-10.5046
▁methods	-10.5049
▁warned	-10.5058
▁educated	-10.5062
▁Far	-10.5065
▁progressive	-10.5067
▁besar	-10.5067
▁carefully	-10.507
uit	-10.508
▁researchers	-10.5082
▁lobby	-10.509
▁उत्पाद	-10.509
▁translate	-10.5092
▁town	-10.5097
▁slightly	-10.5105
mini	-10.5105
▁Chen	-10.5107
▁AIDS	-10.511
▁$5	-10.5126
▁sad	-10.5134
▁code	-10.5135
▁ran	-10.5135
▁enabled	-10.5138
▁prominent	-10.514
▁Chairman	-10.514
▁Institute	-10.514
▁Yeltsin	-10.514
▁bridge	-10.514
▁parallel	-10.514
▁सकते	-10.514
▁multiple	-10.514
▁false	-10.514
▁urge	-10.5141
border	-10.5143
▁Board	-10.5143
rib	-10.5145
▁involvement	-10.5149
▁maintained	-10.5151
▁Go	-10.516
ley	-10.517
▁hundred	-10.5175
▁politician	-10.5175
▁ally	-10.5176
▁unrest	-10.518
pot	-10.5185
▁Part	-10.5187
integrate	-10.5189
▁association	-10.5189
▁privilege	-10.5189
▁Reagan	-10.5189
▁electorate	-10.5189
▁अनु	-10.5189
Sahara	-10.5189
▁engineering	-10.519
▁Kenya	-10.5192
▁किए	-10.5195
▁convince	-10.52
▁rightly	-10.5201
▁barr	-10.521
being	-10.5225
▁owe	-10.5225
▁refugee	-10.5231
▁Where	-10.5235
▁Khamenei	-10.5239
▁Mexican	-10.5239
▁suicide	-10.5239
▁bolster	-10.5239
▁blind	-10.5239
▁honest	-10.5239
▁regain	-10.5239
▁intense	-10.5239
gent	-10.524
▁devaluation	-10.5241
▁$7	-10.5241
▁mereka	-10.5242
▁करते	-10.5243
▁TV	-10.5248
▁Law	-10.5252
▁triggered	-10.5267
▁dapat	-10.527
▁trip	-10.5274
governmental	-10.5279
▁abandoned	-10.5282
▁inability	-10.5286
▁rare	-10.5288
?”	-10.5289
▁Agreement	-10.5289
▁Through	-10.5289
▁sacrifice	-10.5289
▁2030	-10.529
▁$6	-10.5291
placing	-10.5291
▁predicted	-10.5293
▁justified	-10.5306
tax	-10.5319
▁dimension	-10.5321
▁pressing	-10.5333
▁similarly	-10.5335
▁background	-10.5339
▁militia	-10.5339
▁phenomenon	-10.5339
▁article	-10.5339
▁instance	-10.534
▁गई	-10.534
▁होगा	-10.5341
▁lag	-10.5342
media	-10.5342
version	-10.5347
$	-10.5368
▁vehicles	-10.5379
▁taxation	-10.538
▁governing	-10.538
▁Mediterranean	-10.539
▁aspiration	-10.539
▁marriage	-10.539
▁odd	-10.539
केवल	-10.5391
▁visible	-10.5391
▁रही	-10.5394
ifying	-10.5408
▁drag	-10.5416
▁represented	-10.5417
rous	-10.5419
▁consume	-10.543
▁proclaim	-10.544
▁Balkan	-10.544
ita	-10.5441
▁yen	-10.5443
▁estimate	-10.5447
▁career	-10.5447
▁Her	-10.5468
▁properly	-10.5487
▁recommend	-10.5491
▁mobility	-10.5491
▁Senate	-10.5491
▁evil	-10.5492
▁white	-10.5494
▁invested	-10.5495
▁fought	-10.5497
▁Each	-10.55
price	-10.55
uh	-10.5518
▁measured	-10.5531
▁counterparts	-10.5541
▁accumulate	-10.5543
▁extremism	-10.5543
▁striking	-10.5543
▁weather	-10.5543
view	-10.5545
▁sentence	-10.5546
▁prepare	-10.5555
▁listen	-10.5557
▁जिस	-10.5559
▁retail	-10.5563
▁assist	-10.5569
▁recall	-10.5579
▁weapon	-10.5583
▁functioning	-10.5585
▁mix	-10.5594
▁protected	-10.5594
वैश्विक	-10.5594
▁Bernanke	-10.5594
▁Cyprus	-10.5594
▁application	-10.5594
▁depreciation	-10.5594
▁immense	-10.5594
▁imposing	-10.5594
▁outlook	-10.5594
▁Morsi	-10.5594
▁mainstream	-10.5596
vel	-10.5597
China	-10.5602
▁map	-10.561
▁resolved	-10.5618
▁decrease	-10.5646
▁Green	-10.5646
▁digital	-10.5646
▁loose	-10.5646
▁hike	-10.5647
▁caught	-10.5648
▁planned	-10.5651
CD	-10.5653
▁remov	-10.5654
room	-10.5655
गी	-10.566
party	-10.568
▁सरकार	-10.5694
▁margin	-10.5695
▁entrepreneurs	-10.5698
▁gaining	-10.5698
▁Brussels	-10.5698
▁White	-10.5698
▁Agency	-10.5698
▁involving	-10.5698
▁harsh	-10.5698
▁$4	-10.5699
▁memory	-10.57
▁पहले	-10.57
▁benefited	-10.573
col	-10.5733
▁saved	-10.5735
▁didn	-10.5736
▁greatly	-10.5748
▁routine	-10.575
▁Furthermore	-10.575
▁declaration	-10.575
▁pursuit	-10.575
▁Summit	-10.575
▁prolonged	-10.575
▁accus	-10.5751
▁agency	-10.5751
▁compelling	-10.5752
▁proliferation	-10.576
▁thanks	-10.576
▁limiting	-10.5761
▁broken	-10.5763
▁ease	-10.5765
▁written	-10.5772
▁shifting	-10.5775
beit	-10.5789
cara	-10.5789
▁financed	-10.5802
▁pipeline	-10.5803
▁sensible	-10.5803
▁creative	-10.5803
▁phone	-10.5803
▁stick	-10.5804
▁tank	-10.5804
▁impede	-10.5819
▁concentrated	-10.5823
▁cure	-10.5832
▁coordinated	-10.5843
▁1994	-10.5856
▁militant	-10.5856
▁cyber	-10.5856
▁होता	-10.5865
▁repay	-10.5871
matic	-10.5875
▁constant	-10.5879
▁enabl	-10.5885
▁exacerbate	-10.589
▁prior	-10.5903
▁God	-10.5907
▁preced	-10.5907
▁fan	-10.5908
▁analysts	-10.5909
▁disastrous	-10.5909
▁episode	-10.5909
▁भारत	-10.5909
▁eager	-10.5909
श्	-10.592
▁underway	-10.593
▁inflationary	-10.5935
▁throw	-10.5944
15	-10.596
▁Hitler	-10.5963
▁Zimbabwe	-10.5963
▁mobile	-10.5963
▁premium	-10.5963
▁toxic	-10.5964
▁geo	-10.5964
▁flee	-10.5966
▁DNA	-10.5966
jan	-10.5968
appointed	-10.5974
75	-10.5979
EC	-10.5995
▁Va	-10.5998
10	-10.6006
▁obviously	-10.6014
bod	-10.6015
▁Millennium	-10.6016
▁pride	-10.6017
▁veto	-10.6017
▁style	-10.6025
▁bias	-10.6029
▁monitoring	-10.6031
▁Add	-10.604
▁sudden	-10.604
▁inefficient	-10.6041
▁realities	-10.6042
gate	-10.6044
▁incite	-10.6067
▁flu	-10.6067
▁monopoly	-10.607
▁nonetheless	-10.607
▁perubahan	-10.607
▁लाभ	-10.6071
▁text	-10.6071
▁doctors	-10.6072
टी	-10.6073
▁पड़	-10.6074
▁15%	-10.6077
▁momentum	-10.608
▁hoped	-10.6096
▁Forum	-10.612
30	-10.6123
under	-10.6125
▁genocide	-10.6125
▁purchasing	-10.6125
▁Among	-10.6125
▁90%	-10.6126
▁Keynesian	-10.6127
▁2050	-10.6128
▁दो	-10.6129
▁alien	-10.613
▁characterized	-10.6132
▁Unless	-10.6133
▁contraction	-10.6143
▁headed	-10.6148
▁fourth	-10.615
▁differ	-10.6166
▁trap	-10.6168
▁directed	-10.617
politic	-10.6172
▁Sub	-10.6173
▁damaging	-10.6179
▁liabilities	-10.6179
▁Protocol	-10.6179
▁confident	-10.6179
▁inherit	-10.618
▁hurt	-10.618
finance	-10.6194
▁mine	-10.6196
▁repeated	-10.6198
zone	-10.621
▁appoint	-10.6217
▁prevented	-10.6223
▁Force	-10.6228
▁tactics	-10.6229
▁symptom	-10.6234
▁stood	-10.6234
▁Alliance	-10.6234
▁scene	-10.6234
▁entry	-10.6235
▁postpone	-10.6237
ranging	-10.6237
▁informal	-10.6237
▁उप	-10.624
Northern	-10.6259
▁peng	-10.6264
▁अंतर्	-10.628
▁interpret	-10.6282
▁1992	-10.629
▁concession	-10.629
▁professor	-10.629
▁Greenspan	-10.629
▁route	-10.629
▁comparable	-10.6292
▁Doha	-10.6294
load	-10.6297
▁Army	-10.6301
▁Deng	-10.6303
▁tap	-10.6304
▁propose	-10.6306
▁lived	-10.6309
▁desperate	-10.6315
”)	-10.6317
▁careful	-10.6327
▁Beyond	-10.6345
▁Olympic	-10.6345
▁criteria	-10.6345
▁territories	-10.6345
▁clash	-10.6345
▁virus	-10.6345
▁winning	-10.6351
▁officers	-10.6355
▁partial	-10.6371
▁$100	-10.6379
▁administrative	-10.6401
▁earthquake	-10.6401
▁manipulation	-10.6401
▁procedures	-10.6401
▁manifest	-10.6401
▁recruit	-10.6401
▁अन्य	-10.6401
▁behave	-10.6401
▁precedent	-10.6404
cost	-10.6408
▁flight	-10.6409
▁elect	-10.641
▁slower	-10.6412
▁employers	-10.6414
employ	-10.6417
▁predictable	-10.6418
think	-10.6419
▁notice	-10.6429
▁requir	-10.6434
▁anger	-10.6442
▁entered	-10.6448
▁negotiated	-10.6449
▁seize	-10.6449
▁manufacture	-10.6455
▁Capital	-10.6457
▁arguing	-10.6457
▁concentration	-10.6457
▁oppress	-10.6457
▁refusal	-10.6457
▁significance	-10.6457
▁उपयोग	-10.6457
▁underscore	-10.6458
▁convergence	-10.6458
▁Web	-10.6458
lessness	-10.6465
▁realized	-10.6472
▁chosen	-10.6475
▁accountable	-10.6486
▁richer	-10.6495
aire	-10.6495
के	-10.6501
▁liberty	-10.6514
▁suspicion	-10.6514
▁tsunami	-10.6514
▁Economist	-10.6514
▁Earth	-10.6514
▁थी	-10.6514
▁incident	-10.6514
▁portray	-10.6514
▁जाता	-10.6523
▁coverage	-10.6523
▁student	-10.6543
▁removed	-10.6547
▁capitalist	-10.6552
▁Sever	-10.6554
▁voted	-10.6559
▁challenging	-10.6571
▁distribute	-10.6571
▁judiciary	-10.6571
▁depriv	-10.6571
▁unfair	-10.6571
▁fruit	-10.6571
▁surface	-10.6571
▁fellow	-10.6573
▁forget	-10.6573
▁somehow	-10.6577
DP	-10.6578
▁protesters	-10.6585
prime	-10.6589
dependent	-10.6613
▁brief	-10.6628
▁autonomy	-10.6628
▁propaganda	-10.6628
▁reconciliation	-10.6628
stream	-10.6628
▁wild	-10.6628
fifth	-10.6628
fold	-10.6634
▁Ali	-10.6636
▁ASEAN	-10.6645
▁ineffective	-10.6646
▁embraced	-10.6646
exchange	-10.6648
uju	-10.6651
spired	-10.6656
▁citizen	-10.666
▁Don	-10.6661
▁introduce	-10.6668
▁sight	-10.667
▁Pen	-10.6673
िन	-10.6676
▁older	-10.6676
▁Partnership	-10.6685
▁scholar	-10.6685
▁resembl	-10.6685
▁Jean	-10.6685
अपनी	-10.6685
▁investigation	-10.6687
▁strange	-10.6689
▁spill	-10.6692
▁missing	-10.6698
▁City	-10.6701
▁approved	-10.6705
▁रह	-10.6705
gang	-10.6706
▁adviser	-10.6708
▁store	-10.6708
▁विश्व	-10.6709
fire	-10.671
▁deepen	-10.6712
▁debtor	-10.6712
▁scar	-10.6712
▁rape	-10.6723
▁mounting	-10.6723
▁27	-10.6733
skeptic	-10.6742
▁Switzerland	-10.6743
▁Nicola	-10.6743
▁displaced	-10.6743
patriot	-10.6743
▁adhere	-10.6745
▁bitter	-10.6747
▁constructive	-10.6748
atan	-10.6749
▁फ	-10.6749
▁Reform	-10.6751
▁novel	-10.6756
▁asking	-10.6761
▁policymaking	-10.6764
▁explained	-10.6773
ुल	-10.678
bar	-10.6786
▁Serb	-10.6793
kill	-10.6799
▁Clearly	-10.6801
▁Philippines	-10.6801
▁assault	-10.6801
▁generating	-10.6801
▁psychological	-10.6801
▁brand	-10.6801
▁innocent	-10.6801
▁indebted	-10.6803
▁enforcement	-10.681
inflation	-10.6822
▁socialist	-10.6828
ancy	-10.6829
▁cheaper	-10.6829
ात	-10.6831
uous	-10.6846
▁deter	-10.6851
▁सके	-10.6851
▁Kurdish	-10.686
▁Research	-10.686
▁bahwa	-10.686
▁desirable	-10.686
▁speculative	-10.686
▁statistics	-10.686
▁वर्ष	-10.686
▁inject	-10.686
▁curtail	-10.686
▁device	-10.686
▁Prize	-10.686
▁piece	-10.686
▁neighborhood	-10.6861
▁hostile	-10.6861
▁repeat	-10.6867
▁render	-10.6876
▁Back	-10.688
balance	-10.6881
▁favorable	-10.6885
▁van	-10.6888
▁bureaucracy	-10.6918
▁contemporary	-10.6918
▁conviction	-10.6918
▁familiar	-10.6918
▁recognizing	-10.6918
▁volatile	-10.6918
▁silence	-10.6918
▁dunia	-10.6918
▁provoke	-10.6919
▁east	-10.6919
▁चीन	-10.6919
▁curb	-10.6919
▁superpower	-10.6919
▁दिया	-10.692
&#160;&#160;	-10.692
▁sooner	-10.6927
▁investor	-10.6935
▁rooted	-10.6937
▁broadly	-10.6944
▁difficulty	-10.696
▁facto	-10.6968
▁electric	-10.6973
▁1995	-10.6978
▁Romney	-10.6978
▁dignity	-10.6978
▁dynamism	-10.6978
▁numerous	-10.6978
▁pillar	-10.6978
▁tribal	-10.6978
▁hydro	-10.6978
▁Work	-10.6978
▁ख़	-10.6979
▁contest	-10.6982
ग्र	-10.6989
▁meny	-10.6994
▁sensitive	-10.7003
▁typical	-10.7007
▁Che	-10.7007
▁protectionist	-10.7008
▁70	-10.7015
▁animal	-10.7024
▁representative	-10.7026
▁urgently	-10.7032
▁Ten	-10.7032
▁Myanmar	-10.7037
▁dominance	-10.7037
▁exposure	-10.7037
▁magnitude	-10.7037
▁pragmatic	-10.7037
▁substitute	-10.7037
▁screen	-10.7037
▁combine	-10.7039
रोध	-10.7041
▁Marx	-10.7041
CA	-10.7046
▁decent	-10.707
meter	-10.7073
▁critic	-10.7078
▁waiting	-10.7078
▁stark	-10.7079
▁guaranteed	-10.709
▁trac	-10.7096
▁लक्ष्य	-10.7097
▁anticipate	-10.7097
▁कार्य	-10.7097
▁erode	-10.7097
▁isolated	-10.7097
▁march	-10.7098
▁बात	-10.7099
▁adopting	-10.7102
▁rent	-10.7112
negara	-10.7122
quarter	-10.7122
▁पूर	-10.7131
▁method	-10.7147
▁Southeast	-10.7153
▁Arafat	-10.7157
▁Google	-10.7157
▁Lisbon	-10.7157
▁artificial	-10.7157
▁extensive	-10.7157
▁neutral	-10.7157
▁unleash	-10.7157
▁Yugoslavia	-10.7157
▁Center	-10.7157
▁Irish	-10.7157
▁ancient	-10.7157
▁Front	-10.7158
▁multinational	-10.7159
▁foreigners	-10.7159
reaching	-10.7163
▁sun	-10.7177
▁emphasize	-10.7179
▁regularly	-10.7185
vant	-10.7213
▁calculation	-10.7218
▁complement	-10.7218
▁emotional	-10.7218
▁fraud	-10.7218
▁supervision	-10.7218
▁earth	-10.7218
▁Ber	-10.722
▁interfere	-10.7223
▁panel	-10.7224
▁consolidate	-10.7228
▁acceptance	-10.7233
▁bloc	-10.7238
controlled	-10.7246
▁myth	-10.7258
▁connected	-10.7268
▁Tibet	-10.727
▁meltdown	-10.7279
▁vulnerability	-10.7279
▁likelihood	-10.7279
▁Finance	-10.7279
▁distant	-10.7279
▁fool	-10.7282
▁split	-10.7284
too	-10.729
▁grid	-10.7294
▁pool	-10.7294
▁explicitly	-10.7306
▁smooth	-10.734
▁Mahmoud	-10.734
▁menjadi	-10.734
▁resentment	-10.734
▁Group	-10.734
▁flawed	-10.734
▁remote	-10.7341
▁bagi	-10.7346
▁tactic	-10.7347
▁overlook	-10.7349
observ	-10.7353
▁alive	-10.7367
▁discovered	-10.7376
▁अब	-10.7378
▁fairly	-10.7381
▁projected	-10.7388
▁liquid	-10.7397
▁compensate	-10.7399
▁expertise	-10.7402
▁integrity	-10.7402
▁rigid	-10.7402
▁destructive	-10.7402
▁struck	-10.7402
▁workforce	-10.7402
▁walk	-10.7402
▁jail	-10.7402
▁utter	-10.7403
▁score	-10.7403
▁kita	-10.7404
▁tendency	-10.7404
versus	-10.7404
▁preference	-10.7407
▁rebalancing	-10.741
ज्	-10.7413
▁Non	-10.7416
▁quota	-10.7418
▁induce	-10.7419
▁richest	-10.7431
▁Peru	-10.7441
उनके	-10.745
▁hence	-10.7451
▁Socialist	-10.746
▁Milosevic	-10.7464
▁corner	-10.7464
▁distance	-10.7464
▁western	-10.7464
▁tiny	-10.7464
▁transatlantic	-10.7464
▁alongside	-10.7469
▁rejection	-10.7477
▁semi	-10.748
▁Real	-10.7492
management	-10.7493
▁radio	-10.7496
▁sphere	-10.7497
▁App	-10.7499
▁chose	-10.7507
▁disruption	-10.7507
▁contagion	-10.7527
▁optimism	-10.7527
▁unpopular	-10.7527
▁सुधार	-10.7527
▁CEO	-10.7527
▁examine	-10.7527
▁jump	-10.7527
▁mood	-10.7527
▁binding	-10.7527
▁announcement	-10.7529
▁Laden	-10.753
▁$8	-10.753
▁scarce	-10.7531
▁republic	-10.7531
human	-10.7538
solution	-10.7547
▁print	-10.7552
▁erupted	-10.7555
Western	-10.7557
▁outright	-10.7561
▁reversed	-10.7585
▁retire	-10.7586
▁Harvard	-10.7589
▁asylum	-10.7589
▁discourage	-10.7589
▁infection	-10.7589
▁Labor	-10.7589
▁luck	-10.759
▁rub	-10.759
▁reconstruction	-10.7591
▁customers	-10.7598
▁trick	-10.7599
▁swing	-10.76
▁anywhere	-10.76
▁grip	-10.7601
▁adoption	-10.7604
▁insight	-10.7605
यों	-10.761
source	-10.7612
growth	-10.762
प्र	-10.7627
▁upward	-10.7629
flow	-10.763
▁handle	-10.7641
▁cope	-10.7647
▁contributing	-10.7653
▁hazard	-10.7653
▁महत्वपूर्ण	-10.7653
▁Thatcher	-10.7653
▁Goals	-10.7653
▁calm	-10.7655
▁वह	-10.7656
▁enterprise	-10.7659
▁writer	-10.7661
▁distinction	-10.7676
born	-10.7679
▁arrested	-10.7679
▁cat	-10.7681
ois	-10.7689
PA	-10.7695
▁occupied	-10.7703
▁damaged	-10.7705
▁Mr	-10.7711
▁Darfur	-10.7716
▁Yanukovych	-10.7716
▁obsess	-10.7716
▁सकती	-10.7716
▁Science	-10.7716
▁Worse	-10.7717
▁steel	-10.7717
▁burst	-10.7717
▁derive	-10.7717
▁chair	-10.7719
▁reference	-10.772
▁treaties	-10.7723
▁कोई	-10.7725
▁motivated	-10.7726
▁spot	-10.7731
▁sufficiently	-10.7734
▁23	-10.7735
▁Fran	-10.7751
▁avert	-10.7752
▁severely	-10.7757
▁lowest	-10.7772
▁compound	-10.7781
▁1979	-10.7781
▁competing	-10.7781
▁explosion	-10.7781
▁technocrat	-10.7781
▁cease	-10.7781
▁advent	-10.7781
▁Day	-10.7781
▁football	-10.7781
that	-10.7781
▁plus	-10.7783
▁publish	-10.7793
US	-10.7794
▁inspire	-10.7795
▁fat	-10.78
▁enhanced	-10.7802
▁secondary	-10.7805
▁24	-10.7805
German	-10.7814
health	-10.7814
▁Ku	-10.7823
uble	-10.7829
▁underpinn	-10.7845
▁convincing	-10.7845
▁spectacular	-10.7845
▁cooperate	-10.7845
▁drought	-10.7845
▁frustration	-10.7845
▁संबंध	-10.7845
▁supervisor	-10.7845
▁grasp	-10.7845
▁रख	-10.7845
▁Armenia	-10.7845
drew	-10.7845
▁Neither	-10.7846
▁connect	-10.7847
▁अंत	-10.7858
▁unfortunate	-10.7864
▁epi	-10.7865
present	-10.787
made	-10.7874
establish	-10.7879
driven	-10.7879
▁determination	-10.7881
▁understandable	-10.7881
किसी	-10.791
▁sectarian	-10.791
▁Crisis	-10.791
▁League	-10.791
▁plenty	-10.791
▁उपलब्ध	-10.791
▁हुई	-10.791
▁oleh	-10.791
▁outrage	-10.791
▁dropped	-10.7912
▁Hollande	-10.7917
▁weaknesses	-10.7929
▁triple	-10.7964
▁reinforced	-10.7964
▁historically	-10.7964
▁लगा	-10.7966
water	-10.7966
▁Administration	-10.7975
▁commodities	-10.7975
▁judicial	-10.7975
▁legislative	-10.7975
▁massacre	-10.7975
▁valid	-10.7975
▁gross	-10.7975
▁guilt	-10.7976
▁interview	-10.7977
▁duty	-10.798
▁selection	-10.7988
▁charged	-10.799
रो	-10.7993
▁blamed	-10.8018
▁surrounding	-10.8025
▁safer	-10.8026
▁Big	-10.8026
▁starters	-10.8026
▁Friedman	-10.8041
▁allocation	-10.8041
▁audience	-10.8041
▁controversial	-10.8041
▁experiencing	-10.8041
▁historian	-10.8041
▁History	-10.8041
▁wound	-10.8041
▁bureaucratic	-10.8041
▁Brown	-10.8041
▁denied	-10.8041
▁awareness	-10.8045
▁Jong	-10.8046
▁actively	-10.805
▁successes	-10.8065
▁exceptional	-10.8069
▁regular	-10.8077
friend	-10.8078
high	-10.8079
▁classes	-10.8088
▁player	-10.8095
most	-10.8096
▁classic	-10.8102
▁comprise	-10.8106
WWII	-10.8107
▁Consensus	-10.8107
▁celebrate	-10.8107
▁receiving	-10.8107
▁temptation	-10.8107
▁virtue	-10.8107
▁trauma	-10.8107
▁quiet	-10.8107
▁संयुक्त	-10.8108
▁harus	-10.8108
▁cooperative	-10.8109
hort	-10.8115
▁tolerate	-10.8128
▁$50	-10.8131
▁rail	-10.8138
estate	-10.814
▁creditor	-10.8144
Russia	-10.8145
isi	-10.8154
funded	-10.8168
▁आय	-10.8174
▁macro	-10.8174
▁Belarus	-10.8174
▁hurricane	-10.8174
▁irrelevant	-10.8174
▁mortality	-10.8174
▁philosophy	-10.8174
▁tradable	-10.8174
▁ceiling	-10.8174
▁wife	-10.8174
▁बाद	-10.8174
▁unstable	-10.8174
▁biological	-10.8175
▁acute	-10.8175
▁barrel	-10.8179
▁जाने	-10.8183
▁attain	-10.8188
▁remove	-10.8193
▁desperately	-10.8211
▁skill	-10.8211
▁skilled	-10.8226
▁Ju	-10.8228
▁restored	-10.8238
▁monarch	-10.8241
▁प्राप्त	-10.8241
▁1996	-10.8241
▁Brothers	-10.8241
▁threshold	-10.8241
▁vicious	-10.8241
▁electronic	-10.8241
▁instruct	-10.8241
▁rush	-10.8241
▁bureaucrats	-10.8242
▁chairman	-10.8243
▁whi	-10.8247
▁vary	-10.8251
▁Brazilian	-10.8253
▁coherent	-10.8255
▁thousand	-10.8267
deemed	-10.8277
▁explicit	-10.8278
▁anxiety	-10.8309
▁automobile	-10.8309
▁eliminating	-10.8309
▁inclusion	-10.8309
▁software	-10.8309
▁detect	-10.8309
▁tolerance	-10.8309
▁$10	-10.8312
▁समय	-10.8313
▁extract	-10.8315
▁dire	-10.8316
▁punishment	-10.8317
▁proud	-10.8324
▁Constitutional	-10.8339
▁22	-10.8349
print	-10.8359
▁uranium	-10.8377
▁Conference	-10.8377
▁disarmament	-10.8377
▁steadily	-10.8377
▁writing	-10.8377
▁illusion	-10.8377
▁गए	-10.8379
▁delegat	-10.8388
▁Vice	-10.841
AIDS	-10.8418
Assad	-10.8418
▁breast	-10.8445
▁prosecutor	-10.8445
▁सभी	-10.8445
▁Lehman	-10.8445
▁fraction	-10.8445
▁club	-10.8445
नेवाले	-10.8446
▁deepening	-10.8449
▁unknown	-10.8451
▁minimize	-10.8451
▁coordinat	-10.8456
purely	-10.846
▁Han	-10.847
▁tension	-10.848
▁height	-10.8482
▁reactor	-10.8496
▁hour	-10.8504
▁Association	-10.8514
▁NGO	-10.8514
▁Otherwise	-10.8514
▁accumulation	-10.8514
▁derivative	-10.8514
▁resolving	-10.8514
▁आवश्यक	-10.8514
▁वास्तव	-10.8514
▁unusual	-10.8514
▁भारी	-10.8514
▁spiral	-10.8514
▁hyper	-10.8514
▁overseas	-10.8514
▁नीति	-10.8514
▁observed	-10.8515
▁mixed	-10.8515
▁introduction	-10.8516
▁informed	-10.8517
▁unacceptable	-10.8518
▁mega	-10.8542
▁clinical	-10.8551
▁exporters	-10.8556
Palestinian	-10.8557
▁साल	-10.8568
▁Qatar	-10.8584
▁Thaksin	-10.8584
▁collateral	-10.8584
▁feasible	-10.8584
▁horizon	-10.8584
▁resilience	-10.8584
▁पहुँच	-10.8584
▁1945	-10.8584
▁laureate	-10.8584
▁minimal	-10.8584
▁contact	-10.8584
▁problematic	-10.8584
बारे	-10.8585
▁solely	-10.8585
adjusted	-10.8589
▁considerably	-10.859
▁affordable	-10.8601
▁nowhere	-10.8606
mobiliz	-10.8612
▁declare	-10.8615
▁expert	-10.8622
found	-10.8625
▁eventual	-10.8626
▁Oil	-10.8637
▁Article	-10.8654
▁Cooperation	-10.8654
▁beneficial	-10.8654
▁diplomats	-10.8654
▁illustrate	-10.8654
cracy	-10.8654
▁geographic	-10.8654
▁excuse	-10.8654
▁Again	-10.8654
▁repair	-10.8654
▁install	-10.8654
▁anchor	-10.8655
▁shop	-10.8658
▁Few	-10.8663
▁devoted	-10.8673
▁violate	-10.8694
product	-10.8695
▁emphasized	-10.8699
▁दर	-10.8711
▁equilibrium	-10.8724
▁plausible	-10.8724
▁Swiss	-10.8724
▁ballot	-10.8724
▁breath	-10.8724
▁location	-10.8724
▁implied	-10.8724
▁bust	-10.8726
▁cold	-10.8743
▁upper	-10.8747
▁Abu	-10.8755
▁neuro	-10.8755
step	-10.8771
TO	-10.8787
▁rain	-10.8791
ओ	-10.8793
▁Libyan	-10.8795
tify	-10.8795
▁brink	-10.8795
▁Lebanese	-10.8795
▁PRINCETON	-10.8795
▁Square	-10.8795
▁jurisdiction	-10.8795
▁plummet	-10.8795
▁reconcile	-10.8795
▁प्रयास	-10.8795
▁Women	-10.8795
▁peasant	-10.8795
▁Baltic	-10.8795
▁उन्हें	-10.8795
▁spark	-10.8795
▁retreat	-10.8795
▁होगी	-10.8796
▁Sharon	-10.8797
▁rally	-10.8799
fusion	-10.8799
▁shortfall	-10.88
AL	-10.8804
▁devise	-10.8816
▁unified	-10.8824
government	-10.8829
▁Cup	-10.8836
kov	-10.8838
▁enacted	-10.8841
connect	-10.8842
Qaeda	-10.8842
▁undertake	-10.8855
▁Shanghai	-10.8866
▁Office	-10.8866
▁hatred	-10.8866
▁absent	-10.8866
▁bought	-10.8871
▁मह	-10.8876
▁downside	-10.8886
start	-10.8886
▁complexity	-10.8893
tress	-10.8893
▁Fac	-10.8895
▁constantly	-10.8907
▁keen	-10.8913
▁rock	-10.8936
▁Representative	-10.8938
▁brother	-10.8938
▁hidden	-10.8938
▁unexpected	-10.8938
▁Jerusalem	-10.8938
▁Labour	-10.8938
▁democratization	-10.8938
▁client	-10.8938
▁ultra	-10.8939
▁prize	-10.8939
▁Guard	-10.8941
▁frontier	-10.8941
▁Franco	-10.8944
▁fatal	-10.8995
saving	-10.8997
▁जैस	-10.9008
▁Economy	-10.9011
▁denounc	-10.9011
▁impoverished	-10.9011
▁optimistic	-10.9011
▁residents	-10.9011
▁tragic	-10.9011
▁shot	-10.9011
minute	-10.9011
▁float	-10.9013
script	-10.9014
namo	-10.9018
▁tied	-10.902
▁edge	-10.9023
face	-10.9025
▁eat	-10.9052
▁famously	-10.9061
worthy	-10.9062
mpat	-10.9068
▁Argentine	-10.9084
▁Ethiopia	-10.9084
▁deleveraging	-10.9084
▁supplement	-10.9084
▁लगभग	-10.9084
▁शुरू	-10.9084
▁Terror	-10.9084
▁revival	-10.9084
▁स्थिति	-10.9084
▁blue	-10.9084
▁Norway	-10.9087
▁teachers	-10.9095
rank	-10.9106
▁Five	-10.9106
▁interaction	-10.9109
▁peer	-10.9119
▁Does	-10.9123
defense	-10.9135
weight	-10.9139
▁ambition	-10.914
टा	-10.9142
▁prevention	-10.9142
▁quest	-10.915
▁loyal	-10.9155
▁bankrupt	-10.9157
▁Gazprom	-10.9157
▁Holocaust	-10.9157
▁impression	-10.9157
▁irrational	-10.9157
▁worries	-10.9157
▁Civil	-10.9157
▁correspond	-10.9157
▁finish	-10.9157
▁Bashar	-10.9157
▁swap	-10.9158
▁contend	-10.9158
▁stabilization	-10.9159
▁flag	-10.916
▁criticized	-10.9161
paid	-10.9162
▁preferred	-10.9162
▁SDR	-10.9162
▁disagreement	-10.9163
▁Whereas	-10.9163
▁collaboration	-10.9164
▁midst	-10.9176
व्य	-10.9194
▁TB	-10.9203
General	-10.921
Islam	-10.921
risk	-10.9214
▁overthrow	-10.9215
▁Crimea	-10.9231
▁Recession	-10.9231
▁coincide	-10.9231
▁entitled	-10.9231
▁fierce	-10.9231
▁तथा	-10.9231
▁लागत	-10.9231
▁Charles	-10.9231
▁Sometimes	-10.9232
▁label	-10.9232
▁comparative	-10.9232
▁जैसे	-10.9235
▁bright	-10.9243
bove	-10.9249
▁controlling	-10.9259
▁bloody	-10.9269
change	-10.9285
Soviet	-10.9285
▁arrangement	-10.9294
▁Baghdad	-10.9306
▁Conservative	-10.9306
▁Jacques	-10.9306
▁Scotland	-10.9306
▁outbreak	-10.9306
▁square	-10.9306
▁drink	-10.9306
▁promotion	-10.9306
▁AKP	-10.9306
▁trump	-10.9306
▁fault	-10.9306
▁assuming	-10.9307
▁night	-10.9307
trans	-10.9308
▁autocrat	-10.9329
▁ruin	-10.9337
▁inherent	-10.9342
▁Rome	-10.9348
cultural	-10.9361
▁obligation	-10.9371
▁सु	-10.9371
देखभाल	-10.9381
▁Chechen	-10.9381
▁Education	-10.9381
▁Follow	-10.9381
▁exhaust	-10.9381
▁FDI	-10.9381
▁preparing	-10.9381
▁foremost	-10.9381
▁endanger	-10.9381
▁Algeria	-10.9381
▁biology	-10.9382
▁soaring	-10.9383
▁Round	-10.9387
▁hegemony	-10.9391
▁letter	-10.9399
70	-10.9399
▁justification	-10.9401
▁undertaken	-10.9402
▁laid	-10.9404
▁representation	-10.9408
▁expose	-10.9418
sighted	-10.942
▁rot	-10.9424
▁virtual	-10.9427
induced	-10.9437
investment	-10.944
sharing	-10.9449
▁Empire	-10.9457
▁Gaulle	-10.9457
▁Gorbachev	-10.9457
▁Program	-10.9457
▁aggression	-10.9457
▁deregulation	-10.9457
▁embark	-10.9457
▁maneuver	-10.9457
▁mitigate	-10.9457
▁tobacco	-10.9457
▁venture	-10.9457
▁विशेष	-10.9457
▁ocean	-10.9457
▁slogan	-10.9457
enhancing	-10.9457
▁Next	-10.9457
▁racial	-10.9457
▁soared	-10.9459
▁अमेरिका	-10.9459
▁vice	-10.9462
▁Report	-10.9469
hadap	-10.9471
▁hire	-10.9472
ither	-10.9473
▁Fu	-10.9485
▁Yu	-10.9493
▁organize	-10.9499
global	-10.9514
▁compel	-10.9531
soft	-10.9533
▁cautious	-10.9533
▁cohesion	-10.9533
▁misleading	-10.9533
▁occupy	-10.9533
▁recipient	-10.9533
▁steady	-10.9533
▁surpass	-10.9533
▁switch	-10.9533
▁indication	-10.9533
▁commentators	-10.9533
▁demise	-10.9533
▁consent	-10.9535
▁Common	-10.9537
▁leak	-10.9544
▁जिसक	-10.955
▁restraint	-10.9551
▁adaptation	-10.9554
▁slip	-10.9557
▁fundamentalist	-10.9559
स्ट	-10.9567
engineer	-10.9567
count	-10.9586
Z	-10.9592
Israeli	-10.9594
orthodox	-10.961
▁Belgium	-10.961
▁McCain	-10.961
▁entrenched	-10.961
▁speculation	-10.961
▁tersebut	-10.961
▁diagnosis	-10.961
▁flourish	-10.961
▁terrible	-10.961
▁TPP	-10.961
▁backlash	-10.961
▁dictate	-10.961
▁Kurds	-10.961
▁Simp	-10.961
▁movie	-10.9611
reform	-10.9611
▁boundaries	-10.9612
▁appearance	-10.9622
▁confined	-10.9628
▁काम	-10.9643
▁convention	-10.9658
18	-10.9665
member	-10.9667
political	-10.9676
balancing	-10.9678
▁collaborat	-10.9681
▁disagree	-10.9682
▁redistribution	-10.9688
▁satisfy	-10.9688
▁editor	-10.9688
▁essence	-10.9688
▁dissident	-10.9688
▁Freedom	-10.9688
▁assassination	-10.9691
60	-10.9693
▁hide	-10.9693
▁Tibetan	-10.9699
▁broaden	-10.971
▁भर	-10.972
▁Poor	-10.972
दार	-10.9749
पोषण	-10.9766
▁Somalia	-10.9766
▁discourse	-10.9766
▁forgotten	-10.9766
▁satellite	-10.9766
▁dubious	-10.9766
▁initiated	-10.9766
▁length	-10.9766
▁branch	-10.9766
▁stuck	-10.9766
▁Arm	-10.9766
▁sick	-10.9766
▁transmission	-10.9767
▁loyalty	-10.9768
▁yes	-10.9775
▁emit	-10.9778
tomic	-10.9786
▁insure	-10.9814
देश	-10.9828
–	-10.9828
▁1993	-10.9845
▁Bangladesh	-10.9845
▁manipulate	-10.9845
▁misguided	-10.9845
▁populism	-10.9845
▁मदद	-10.9845
▁Future	-10.9845
▁Cairo	-10.9845
▁naval	-10.9847
▁discount	-10.9849
▁enduring	-10.9859
▁surround	-10.9863
▁box	-10.9868
▁pact	-10.9869
ाई	-10.987
sult	-10.9887
▁factions	-10.9888
▁frequent	-10.9894
▁minor	-10.9918
▁BRUSSELS	-10.9924
▁council	-10.9924
▁maximiz	-10.9924
▁pharmaceutical	-10.9924
▁System	-10.9924
▁respectively	-10.9924
▁Mikha	-10.9924
▁bribe	-10.9925
▁divert	-10.9925
▁theories	-10.993
▁fairness	-10.9936
▁Governor	-10.9939
▁intent	-10.9953
▁परि	-10.9956
▁weigh	-10.9969
▁symbolic	-11.0002
शामिल	-11.0004
▁offensive	-11.0004
▁stabilizing	-11.0004
▁surrender	-11.0004
▁suspend	-11.0004
▁हुए	-11.0004
▁applies	-11.0004
▁Fiscal	-11.0004
▁जिससे	-11.0005
▁nominat	-11.0011
▁music	-11.0018
▁interim	-11.0027
play	-11.0038
▁kon	-11.0051
wage	-11.0059
verage	-11.0059
NE	-11.0067
Arab	-11.007
▁enrich	-11.0081
▁Caucasus	-11.0085
▁Hillary	-11.0085
▁prosecution	-11.0085
▁substance	-11.0085
▁poison	-11.0085
▁polio	-11.0085
▁Good	-11.0085
▁Abdullah	-11.0085
▁fortune	-11.0085
▁वाली	-11.0085
▁relies	-11.0086
▁Everyone	-11.0088
▁Tax	-11.0091
▁resume	-11.0094
▁Pope	-11.0095
▁engineers	-11.0101
▁portion	-11.0112
▁enact	-11.0119
▁followers	-11.0124
र्ग	-11.0144
known	-11.0145
▁broke	-11.0151
capital	-11.0151
proliferation	-11.0152
▁arsenal	-11.0166
▁defensive	-11.0166
▁destabilizing	-11.0166
▁nutrition	-11.0166
▁Richard	-11.0166
▁School	-11.0166
▁hostility	-11.0166
▁detailed	-11.0166
▁shortcomings	-11.0166
▁warrant	-11.0167
▁extremist	-11.0181
▁democratically	-11.0195
▁intend	-11.0208
▁journal	-11.0214
telah	-11.023
energy	-11.0234
good	-11.0235
▁shi	-11.0246
▁1967	-11.0248
▁Rwanda	-11.0248
▁extension	-11.0248
▁imperfect	-11.0248
▁schedule	-11.0248
▁unnecessary	-11.0248
▁सहायता	-11.0248
▁सामाजिक	-11.0248
▁Liberal	-11.0248
conscious	-11.0248
▁revision	-11.0248
▁entities	-11.0248
▁relied	-11.025
▁Gates	-11.0251
▁separation	-11.0251
▁meantime	-11.0254
▁arch	-11.0266
who	-11.0268
▁raw	-11.0268
▁backward	-11.027
EU	-11.0283
prudential	-11.0306
▁broker	-11.0325
aught	-11.0326
▁cabinet	-11.033
▁malaise	-11.033
▁oblige	-11.033
▁physics	-11.033
▁tomorrow	-11.033
▁Annan	-11.0331
▁इसका	-11.0337
▁urbanization	-11.0338
▁agents	-11.0339
▁reasonably	-11.0344
▁uphold	-11.0351
▁string	-11.0353
▁complicat	-11.0361
▁budgetary	-11.0362
▁commander	-11.0369
▁Tra	-11.0402
growing	-11.0402
DR	-11.0409
▁Chief	-11.0414
▁Geneva	-11.0414
▁altogether	-11.0414
▁college	-11.0414
▁continuous	-11.0414
▁opposing	-11.0414
▁philosopher	-11.0414
▁tremendous	-11.0414
▁silent	-11.0414
▁vague	-11.0414
▁uprising	-11.0414
▁automatically	-11.0416
▁foreseeable	-11.0417
▁Lula	-11.0422
▁300	-11.0429
▁negotiation	-11.0438
▁Right	-11.0443
how	-11.0446
▁align	-11.0468
▁profession	-11.0478
▁bull	-11.0488
▁frame	-11.0498
pproximately	-11.0498
▁Food	-11.0498
▁Swedish	-11.0498
▁catastrophic	-11.0498
▁creativity	-11.0498
▁plague	-11.0498
▁premature	-11.0498
▁जरूर	-11.0498
▁reversal	-11.0498
▁plain	-11.0498
▁Bret	-11.0499
▁Game	-11.0501
त्त	-11.0502
▁जाना	-11.0505
▁Guant	-11.0506
▁28	-11.0508
▁sake	-11.0512
▁interact	-11.0563
added	-11.0575
▁choosing	-11.0583
▁departure	-11.0583
▁stretch	-11.0583
▁unpredictable	-11.0583
▁voluntary	-11.0583
▁Environment	-11.0583
▁memories	-11.0583
▁video	-11.0583
▁segment	-11.0583
▁vested	-11.0583
▁Albania	-11.0583
▁plot	-11.0583
▁transnational	-11.0584
▁dissent	-11.0585
▁compare	-11.0586
▁season	-11.0588
▁bahan	-11.0589
▁wishes	-11.0612
आ	-11.0658
green	-11.0659
ography	-11.0668
बुनियादी	-11.0668
▁Declaration	-11.0668
▁Microsoft	-11.0668
▁Obviously	-11.0668
▁Ronald	-11.0668
▁temporarily	-11.0668
▁psycho	-11.0668
▁peacekeeping	-11.0668
▁uniform	-11.0668
▁Six	-11.0668
▁recipe	-11.0668
▁intensify	-11.0668
▁notorious	-11.0668
▁reckless	-11.0671
house	-11.0675
▁specifically	-11.0676
life	-11.0678
▁Globalization	-11.0679
▁Low	-11.0691
▁hate	-11.0703
▁26	-11.074
performing	-11.0744
social	-11.0745
keep	-11.075
▁Community	-11.0754
▁Ultimately	-11.0754
▁aggravat	-11.0754
▁cynical	-11.0754
▁encounter	-11.0754
▁indigenous	-11.0754
▁negotiator	-11.0754
▁statistical	-11.0754
▁register	-11.0754
▁shoot	-11.0754
▁timing	-11.0755
▁Militar	-11.0755
▁hint	-11.0757
▁window	-11.0757
▁dying	-11.0759
▁evolutionary	-11.0759
▁countless	-11.076
▁occurring	-11.0761
▁Congo	-11.0763
▁hostage	-11.0764
▁deployment	-11.0766
▁proof	-11.0768
▁separatist	-11.0773
▁imbalance	-11.0791
▁राष्ट्र	-11.0825
▁Anti	-11.0828
currency	-11.0833
▁Tea	-11.0838
evaluation	-11.0838
ष्ट	-11.0841
▁Corporation	-11.0841
▁Nixon	-11.0841
▁Roosevelt	-11.0841
▁abolish	-11.0841
▁accelerating	-11.0841
▁determining	-11.0841
▁mirror	-11.0841
▁rampant	-11.0841
▁tissue	-11.0841
▁यूरोप	-11.0841
▁warfare	-11.0841
▁crush	-11.0841
▁daughter	-11.0841
▁adalah	-11.0841
▁overnight	-11.0841
▁fanatic	-11.0841
▁revolt	-11.0841
▁denial	-11.0842
▁elevat	-11.0842
▁brave	-11.0842
▁regulated	-11.0842
▁widening	-11.0847
▁unfold	-11.0851
▁losers	-11.0853
▁exile	-11.0872
▁cancel	-11.0894
control	-11.092
▁automatic	-11.0928
▁Ironically	-11.0929
▁disadvantage	-11.0929
▁supplier	-11.0929
▁benchmark	-11.0929
▁concert	-11.0929
▁broadcast	-11.0929
▁injustice	-11.0929
▁Ghana	-11.0929
▁grain	-11.0929
▁homeowners	-11.0929
▁skeptical	-11.093
▁greed	-11.093
▁architecture	-11.093
▁(“	-11.093
▁rice	-11.0931
▁dysfunctional	-11.0935
▁समस्या	-11.0943
▁lifetime	-11.0944
onstru	-11.0947
▁कमी	-11.095
पूर्व	-11.0968
child	-11.1011
▁Kazakhstan	-11.1017
▁Maastricht	-11.1017
▁calculate	-11.1017
▁facility	-11.1017
▁incumbent	-11.1017
▁pemerintah	-11.1017
▁peripheral	-11.1017
▁possibilities	-11.1017
▁vacuum	-11.1017
▁तैयार	-11.1017
▁बैंक	-11.1017
▁महिला	-11.1017
▁मूल	-11.1017
▁बीच	-11.1017
▁Finland	-11.1017
▁दवाओं	-11.1018
▁breakdown	-11.1021
▁Park	-11.1024
▁stemm	-11.1029
▁profitable	-11.1033
▁contradiction	-11.1035
plete	-11.105
भाव	-11.1061
▁affair	-11.1063
immigrant	-11.1104
▁Director	-11.1107
▁Initiative	-11.1107
▁enthusiasm	-11.1107
▁exclusion	-11.1107
▁sequence	-11.1107
▁tribunal	-11.1107
▁vigorous	-11.1107
▁church	-11.1107
▁engaging	-11.1107
▁miracle	-11.1107
▁elderly	-11.1107
▁sweep	-11.1107
▁nobody	-11.1107
▁pricing	-11.1107
▁slump	-11.1107
▁depth	-11.1107
board	-11.1108
▁betray	-11.1108
▁sink	-11.1108
▁अफ्रीका	-11.1108
▁capability	-11.111
▁banned	-11.1111
िंग	-11.1112
▁admitted	-11.1113
▁Long	-11.1114
▁tree	-11.1118
▁संग	-11.1126
▁parity	-11.1126
हाँ	-11.1133
▁baru	-11.1137
▁strip	-11.1142
▁Mario	-11.1157
▁Govern	-11.1174
technology	-11.1192
▁systematic	-11.1195
▁satu	-11.1195
▁Moldova	-11.1197
▁Would	-11.1197
▁affirm	-11.1197
▁availability	-11.1197
▁subsidy	-11.1197
▁गरीब	-11.1197
▁जीवन	-11.1197
▁defect	-11.1197
▁Charter	-11.1197
▁poised	-11.1197
▁James	-11.1197
▁अधिकार	-11.1197
▁वित्त	-11.1197
▁recommendations	-11.1197
▁citizenship	-11.1198
▁anemic	-11.1199
▁नई	-11.12
▁Nothing	-11.1201
▁stifl	-11.1201
▁appointment	-11.1206
▁assertive	-11.1207
▁missed	-11.1215
▁chart	-11.1232
▁oversee	-11.1235
अ	-11.1283
▁$40	-11.1286
▁deterrence	-11.1288
▁happiness	-11.1288
▁imagination	-11.1288
▁luxury	-11.1288
▁phrase	-11.1288
▁remarkably	-11.1288
▁अर्थव्यवस्था	-11.1288
▁शिक्षा	-11.1288
▁shaping	-11.1288
▁personnel	-11.1288
▁relax	-11.1288
▁Open	-11.1288
▁shame	-11.1289
▁therapy	-11.1289
▁crude	-11.1289
▁Thai	-11.129
▁taught	-11.129
▁rocket	-11.1292
▁loud	-11.1292
▁Look	-11.1293
▁100,000	-11.1295
▁mount	-11.132
▁Business	-11.1379
▁Premier	-11.1379
▁ecosystem	-11.1379
▁ekonomi	-11.1379
▁genome	-11.1379
▁horror	-11.1379
▁landscape	-11.1379
▁pervasive	-11.1379
▁seperti	-11.1379
▁unconventional	-11.1379
▁1973	-11.1379
▁Senator	-11.1379
▁transcend	-11.1379
▁district	-11.1379
▁storage	-11.1379
▁retaliat	-11.138
प्रदान	-11.138
▁smoke	-11.138
▁kick	-11.138
▁entity	-11.1381
▁harmful	-11.1387
▁1,000	-11.1396
ंच	-11.14
dependence	-11.1412
▁लग	-11.1429
OK	-11.1443
communist	-11.1467
▁Service	-11.1472
▁Gordon	-11.1472
▁Mugabe	-11.1472
▁slaughter	-11.1472
▁unclear	-11.1472
▁closing	-11.1472
▁globe	-11.1472
▁oversight	-11.1474
▁देने	-11.1477
void	-11.1482
▁industrialized	-11.1494
▁educat	-11.1507
▁ensu	-11.1548
▁benign	-11.1566
▁conversation	-11.1566
▁irresponsible	-11.1566
▁motivation	-11.1566
▁pandemic	-11.1566
▁straightforward	-11.1566
▁अपना	-11.1566
▁defining	-11.1566
▁deteriorate	-11.1566
▁embryo	-11.1566
▁salaries	-11.1566
▁protein	-11.1566
▁slave	-11.1566
▁divergence	-11.1566
▁color	-11.1567
▁Manag	-11.1567
▁cheer	-11.1568
▁childhood	-11.1568
▁होते	-11.157
solve	-11.1571
▁enrichment	-11.1572
▁park	-11.1578
▁amid	-11.1592
▁liberaliz	-11.1621
ball	-11.1623
▁आज	-11.1639
profit	-11.1659
▁absurd	-11.166
▁ambassador	-11.166
▁bondholders	-11.166
▁destabilize	-11.166
▁inequalities	-11.166
▁obscure	-11.166
▁succumb	-11.166
▁केंद्र	-11.166
▁theoretical	-11.166
▁formidable	-11.166
▁plunge	-11.166
▁tempted	-11.166
▁behalf	-11.166
▁empty	-11.166
▁Kerry	-11.1661
▁deflationary	-11.1667
▁modernize	-11.1671
udah	-11.1692
definitely	-11.1711
▁dare	-11.1749
▁Chechnya	-11.1755
▁Developing	-11.1755
▁Sustainable	-11.1755
▁accommodate	-11.1755
▁existential	-11.1755
▁studied	-11.1755
generation	-11.1755
equipped	-11.1755
▁charisma	-11.1755
▁USSR	-11.1755
▁reckon	-11.1755
▁expectancy	-11.1757
held	-11.1757
yriad	-11.1809
taining	-11.1811
▁perceive	-11.1812
▁Strategy	-11.1851
▁Viktor	-11.1851
▁kilometers	-11.1851
▁उदाहरण	-11.1851
▁तौर	-11.1851
▁मिलियन	-11.1851
▁हुआ	-11.1851
▁squeeze	-11.1851
▁steep	-11.1851
▁क्यों	-11.1851
▁Gandhi	-11.1851
▁drove	-11.1851
▁thrive	-11.1851
▁स्तर	-11.1851
service	-11.1852
▁हमार	-11.1853
▁postcommunist	-11.1853
▁हाल	-11.1854
▁manufacturers	-11.1855
▁mindset	-11.1857
▁सरकारों	-11.1858
▁होना	-11.186
▁Gore	-11.1866
▁tide	-11.1866
▁file	-11.19
ELE	-11.1948
jumlah	-11.1948
▁Bulgaria	-11.1948
▁Criminal	-11.1948
▁biodiversity	-11.1948
▁entitlement	-11.1948
▁indifference	-11.1948
▁infectious	-11.1948
▁outweigh	-11.1948
▁spectrum	-11.1948
▁भूमि	-11.1948
▁probability	-11.1948
▁Prince	-11.1948
▁paradigm	-11.1948
▁praise	-11.1948
▁incapable	-11.1949
▁mild	-11.1949
▁underpin	-11.195
▁LDP	-11.195
उ	-11.195
▁readily	-11.1951
▁नए	-11.1953
▁favorite	-11.1959
▁pound	-11.196
ttered	-11.196
disproportionate	-11.1962
▁River	-11.1967
▁blog	-11.1967
▁hang	-11.1977
▁exacerbat	-11.1983
▁1.5	-11.1995
▁Industrial	-11.2011
▁पहल	-11.2044
▁Ayatollah	-11.2046
▁Current	-11.2046
▁Emerging	-11.2046
▁Krugman	-11.2046
▁embedded	-11.2046
▁nurture	-11.2046
▁vibrant	-11.2046
▁अवसर	-11.2046
▁Draghi	-11.2046
▁amendment	-11.2046
▁mountain	-11.2046
▁Eropa	-11.2046
▁incomplete	-11.2046
▁cruel	-11.2046
▁deputy	-11.2046
▁offense	-11.2046
▁Royal	-11.2047
▁title	-11.2047
▁censorship	-11.2047
▁ये	-11.2047
▁Southern	-11.2047
▁Sino	-11.2047
▁reign	-11.2048
▁Making	-11.2056
ेंगे	-11.2068
▁Medic	-11.2088
▁restrain	-11.2122
▁jeopardize	-11.2142
satisfied	-11.2145
▁Cambodia	-11.2145
▁Latvia	-11.2145
▁Special	-11.2145
▁administer	-11.2145
▁arguably	-11.2145
▁discontent	-11.2145
▁explosive	-11.2145
▁intelligent	-11.2145
▁invariably	-11.2145
▁scrutiny	-11.2145
▁underground	-11.2145
▁प्रगति	-11.2145
▁DPJ	-11.2145
▁EMU	-11.2145
▁Fourth	-11.2145
▁privati	-11.2145
▁slash	-11.2145
▁juga	-11.2146
▁angry	-11.2147
▁harmoniz	-11.2148
▁करके	-11.2148
▁violat	-11.215
▁lifestyle	-11.2154
▁originat	-11.2159
▁inflict	-11.2214
dependency	-11.222
हीं	-11.224
denominated	-11.2245
▁HAV	-11.2245
▁Politics	-11.2245
▁despair	-11.2245
▁imminent	-11.2245
▁inhibit	-11.2245
▁provincial	-11.2245
▁ज़रूरत	-11.2245
▁clause	-11.2245
▁Smith	-11.2245
▁skepticism	-11.2245
▁shale	-11.2246
▁lethal	-11.2249
▁airport	-11.2251
▁exert	-11.2251
▁क्षेत्रों	-11.2254
front	-11.2274
▁journalist	-11.2276
resistant	-11.2287
hak	-11.2293
▁breach	-11.2298
▁etc	-11.234
▁MOSCOW	-11.2346
▁Ottoman	-11.2346
▁aircraft	-11.2346
▁daunting	-11.2346
▁disintegration	-11.2346
▁disparities	-11.2346
▁husband	-11.2346
▁paralysis	-11.2346
▁psychology	-11.2346
▁reassure	-11.2346
▁variation	-11.2346
▁civic	-11.2346
▁cloud	-11.2346
▁department	-11.2346
▁revelation	-11.2346
▁bulk	-11.2346
▁caution	-11.2346
▁identities	-11.2346
▁composition	-11.2346
▁please	-11.2346
▁Anglo	-11.2346
▁enlarg	-11.2346
▁drain	-11.2347
▁Debt	-11.2347
▁assign	-11.2347
▁congressional	-11.2347
▁pump	-11.2347
▁boast	-11.2348
▁उनकी	-11.2348
▁tourism	-11.235
▁Shiite	-11.235
world	-11.2352
▁secretary	-11.2354
▁grab	-11.2358
euro	-11.2398
efficient	-11.2409
▁concentrate	-11.2409
proving	-11.2442
▁potent	-11.2447
▁category	-11.2448
▁ethics	-11.2448
▁instinct	-11.2448
▁metaphor	-11.2448
▁ministry	-11.2448
▁nervous	-11.2448
▁totalitarian	-11.2448
▁कृषि	-11.2448
▁inspiration	-11.2448
▁विचार	-11.245
▁MDGs	-11.245
▁infant	-11.2452
sponsored	-11.2454
▁preserving	-11.2455
developed	-11.2455
▁Left	-11.2458
▁leap	-11.2458
MP	-11.2465
lmost	-11.2511
▁egg	-11.2521
▁precise	-11.2521
▁Home	-11.2525
▁slight	-11.2535
▁Tokyo	-11.2552
▁abrupt	-11.2552
▁entrepreneurial	-11.2552
▁excellent	-11.2552
▁humiliation	-11.2552
▁restructure	-11.2552
▁thorough	-11.2552
▁बेहतर	-11.2552
▁समाधान	-11.2552
▁interconnected	-11.2552
▁prescription	-11.2552
▁compos	-11.2552
▁royal	-11.2552
▁Inflation	-11.2552
▁gift	-11.2552
▁विकासशील	-11.2552
▁desert	-11.2552
▁shake	-11.2552
▁pretend	-11.2552
▁uncertainties	-11.2552
▁Old	-11.2553
▁river	-11.2553
▁bakar	-11.2553
▁oligarchs	-11.2554
pivot	-11.2554
▁topple	-11.2555
▁जाती	-11.2557
nuclear	-11.256
strong	-11.256
digit	-11.2563
▁prudent	-11.2582
▁diagnose	-11.2597
▁drama	-11.2655
पूर्ण	-11.2656
▁municipal	-11.2656
▁deterioration	-11.2656
▁erosion	-11.2656
▁guidance	-11.2656
▁participating	-11.2656
▁sanitation	-11.2656
▁soccer	-11.2656
▁trajectory	-11.2656
▁सार्वजनिक	-11.2656
▁drastic	-11.2656
▁Darwin	-11.2656
▁Modern	-11.2656
▁merger	-11.2656
▁premise	-11.2656
▁बदल	-11.2656
▁trait	-11.2657
▁internet	-11.266
▁counterpart	-11.2666
alignment	-11.2692
close	-11.2721
Frank	-11.2734
tegrating	-11.2761
▁Bahrain	-11.2761
▁Foundation	-11.2761
▁Project	-11.2761
▁afraid	-11.2761
▁assembly	-11.2761
▁culminat	-11.2761
▁explore	-11.2761
▁fertility	-11.2761
▁protracted	-11.2761
▁upheaval	-11.2761
▁ज़्यादा	-11.2761
▁Kennedy	-11.2761
▁Koizumi	-11.2761
▁Success	-11.2761
▁Estonia	-11.2761
▁Hindu	-11.2761
▁embarrass	-11.2761
▁emulate	-11.2761
▁insolvent	-11.2761
▁located	-11.2761
-2008	-11.2761
दर्श	-11.2761
▁Francis	-11.2761
▁थे	-11.2761
▁investigate	-11.2761
▁perpetrators	-11.2762
wood	-11.2762
▁दवा	-11.2764
▁bullet	-11.2765
▁confusion	-11.2765
▁baby	-11.2766
▁दु	-11.2767
▁echo	-11.2768
▁distrust	-11.277
welfare	-11.2771
cycle	-11.2774
lateral	-11.2792
classical	-11.2806
▁kom	-11.2813
इसमें	-11.2835
▁प्रमुख	-11.2867
▁Morocco	-11.2867
▁Scandinavia	-11.2867
▁arbitrary	-11.2867
▁everybody	-11.2867
▁legislature	-11.2867
▁reluctance	-11.2867
▁sebagai	-11.2867
▁swift	-11.2867
▁unrealistic	-11.2867
▁CIA	-11.2867
▁Davos	-11.2867
▁observation	-11.2867
▁Osama	-11.2868
▁100%	-11.287
▁impair	-11.2872
ontamina	-11.2872
▁magic	-11.2874
dollar	-11.2879
▁oust	-11.2962
▁crack	-11.2975
▁license	-11.2975
▁Ossetia	-11.2975
▁Valley	-11.2975
▁blunt	-11.2975
▁evaluate	-11.2975
▁refrain	-11.2975
▁universe	-11.2975
▁Black	-11.2975
▁advisor	-11.2975
▁Donald	-11.2975
▁bleak	-11.2975
berapa	-11.2976
▁democrats	-11.2978
▁Hague	-11.2978
▁Compar	-11.298
▁exempt	-11.298
▁native	-11.2984
▁associate	-11.3008
industrial	-11.3041
बच्चों	-11.3084
▁2008-2009	-11.3084
▁Kuwait	-11.3084
▁abundant	-11.3084
▁degradation	-11.3084
▁necessity	-11.3084
▁stalemate	-11.3084
▁variable	-11.3084
▁दूसर	-11.3084
▁clarity	-11.3084
▁descend	-11.3084
▁BRICS	-11.3084
▁overhaul	-11.3084
▁Henry	-11.3084
▁तरीक	-11.3084
▁crackdown	-11.3084
▁array	-11.3084
▁random	-11.3084
▁breed	-11.3084
▁ample	-11.3085
▁systematically	-11.3086
▁spiritual	-11.3086
▁repressive	-11.3086
▁sumber	-11.3091
Muslim	-11.3097
competitive	-11.3097
▁invade	-11.3099
democrat	-11.3147
▁hegemon	-11.3179
▁sponsor	-11.3188
▁cult	-11.3192
निर्माण	-11.3193
▁Khrushchev	-11.3193
▁Thomas	-11.3193
▁appetite	-11.3193
▁immune	-11.3193
▁literally	-11.3193
▁stagnant	-11.3193
▁unresolved	-11.3193
▁urgency	-11.3193
▁specter	-11.3193
▁gasoline	-11.3193
▁pioneer	-11.3193
▁मानव	-11.3193
▁shore	-11.3194
▁locked	-11.3196
▁instant	-11.3196
▁linger	-11.3203
amount	-11.3208
society	-11.3208
▁advise	-11.3266
ocratic	-11.327
safe	-11.3282
▁लोग	-11.3301
▁relentless	-11.3305
legitimize	-11.3305
▁Cultural	-11.3305
▁Joseph	-11.3305
▁Together	-11.3305
▁apparatus	-11.3305
▁enshrin	-11.3305
▁ingredient	-11.3305
▁resilient	-11.3305
▁मैं	-11.3305
▁राजनीतिक	-11.3305
▁2016	-11.3305
▁heightened	-11.3305
▁photo	-11.3305
▁यू	-11.3305
▁Castro	-11.3305
▁horse	-11.3305
▁ceasefire	-11.3305
▁organisms	-11.3305
▁shatter	-11.3305
▁guess	-11.3306
▁Sachs	-11.3306
▁admission	-11.3306
▁Young	-11.3308
▁75%	-11.3308
▁introduc	-11.3319
educated	-11.3321
▁vehicle	-11.3329
▁spare	-11.3347
effective	-11.3399
कृत	-11.3417
▁संभावना	-11.3417
▁समुदाय	-11.3417
बोला	-11.3417
▁Ecuador	-11.3417
▁Fukushima	-11.3417
▁Investors	-11.3417
▁analyze	-11.3417
▁casualties	-11.3417
▁journey	-11.3417
▁ministries	-11.3417
▁responsive	-11.3417
▁unequal	-11.3417
▁कार्रवाई	-11.3417
▁detention	-11.3417
▁Iceland	-11.3417
▁clout	-11.3417
▁durable	-11.3417
league	-11.3417
▁उपाय	-11.3417
entrepreneurship	-11.3417
▁steer	-11.3418
▁trapped	-11.3419
▁bird	-11.342
largest	-11.3434
peace	-11.3435
▁convene	-11.3436
▁approve	-11.3492
▁BER	-11.3531
▁Ministry	-11.3531
▁Solidarity	-11.3531
▁celebration	-11.3531
▁ignorance	-11.3531
▁inspection	-11.3531
▁magazine	-11.3531
▁malnutrition	-11.3531
▁smoking	-11.3531
▁tangible	-11.3531
▁Continent	-11.3531
▁Yushchenko	-11.3531
▁GNP	-11.3531
▁Price	-11.3531
▁hamper	-11.3531
▁miles	-11.3531
▁chess	-11.3531
▁Domini	-11.3532
umbling	-11.3532
▁franc	-11.3533
▁Region	-11.3538
Europe	-11.3541
weapon	-11.3549
World	-11.3549
especially	-11.3549
anuel	-11.3559
▁scientist	-11.3563
न्न	-11.3577
▁extraordinar	-11.3631
▁Historical	-11.3645
▁abstract	-11.3645
▁Communism	-11.3645
▁Croatia	-11.3645
▁Guatemala	-11.3645
▁Jintao	-11.3645
▁Twitter	-11.3645
▁alcohol	-11.3645
▁atrocities	-11.3645
▁conservation	-11.3645
▁controversy	-11.3645
▁ignoring	-11.3645
▁phenomena	-11.3645
▁presumably	-11.3645
▁rapprochement	-11.3645
▁textbook	-11.3645
▁परिवर्तन	-11.3645
▁Movement	-11.3646
▁activism	-11.3646
▁अभी	-11.3646
▁drone	-11.3646
▁communicate	-11.3646
looking	-11.365
▁implication	-11.3682
▁erupt	-11.371
▁जोखिम	-11.3762
▁Certainly	-11.3762
▁Trichet	-11.3762
▁arrival	-11.3762
▁articulate	-11.3762
▁believing	-11.3762
▁convenient	-11.3762
▁fabric	-11.3762
▁outsourcing	-11.3762
▁precipitat	-11.3762
▁prestige	-11.3762
▁unanimous	-11.3762
▁famine	-11.3762
▁radiation	-11.3762
▁execute	-11.3762
▁conspiracy	-11.3762
▁relieve	-11.3762
▁Danish	-11.3762
▁optimal	-11.3762
▁guidelines	-11.3762
▁motor	-11.3762
ilicon	-11.3763
▁Policymakers	-11.3763
▁fluctuations	-11.3763
▁spike	-11.3763
▁Kyi	-11.3785
spiring	-11.3786
Proliferation	-11.3879
▁Across	-11.3879
▁Politicians	-11.3879
▁analogy	-11.3879
▁boycott	-11.3879
▁cushion	-11.3879
▁destiny	-11.3879
▁disappointing	-11.3879
▁embargo	-11.3879
▁envisage	-11.3879
▁frustrated	-11.3879
▁gesture	-11.3879
▁liberation	-11.3879
▁meanwhile	-11.3879
▁worrisome	-11.3879
▁डेटा	-11.3879
▁eradicate	-11.3879
▁cliff	-11.3879
▁climb	-11.3879
▁convey	-11.388
▁Life	-11.388
▁cleric	-11.388
▁Small	-11.388
▁duties	-11.3881
▁Boris	-11.3882
▁mask	-11.3893
▁cheat	-11.3901
reduction	-11.3902
Japanese	-11.3902
erupa	-11.3995
▁commerce	-11.3998
▁demonstrating	-11.3998
▁monument	-11.3998
▁puzzle	-11.3998
▁जलवायु	-11.3998
▁विकसित	-11.3998
▁enroll	-11.3998
▁unthinkable	-11.3998
▁impunity	-11.3998
▁Better	-11.3999
▁Sinai	-11.3999
▁bosses	-11.3999
▁hiring	-11.3999
▁architect	-11.4117
सुनिश्चित	-11.4119
credibly	-11.4119
regulating	-11.4119
▁Cypriot	-11.4119
▁Facebook	-11.4119
▁Standard	-11.4119
▁contemplate	-11.4119
▁debacle	-11.4119
▁equities	-11.4119
▁eradication	-11.4119
▁इसलिए	-11.4119
▁Twenty	-11.4119
▁deciding	-11.4119
▁ratified	-11.4119
▁shield	-11.4119
▁intensity	-11.4119
▁precious	-11.4119
▁संस्था	-11.4119
▁tumor	-11.4119
▁premier	-11.4119
▁liability	-11.4119
▁biofuel	-11.412
▁await	-11.412
▁Exchange	-11.412
▁interdependence	-11.4121
▁subtle	-11.4122
▁Mitt	-11.4124
▁रोक	-11.4125
▁finger	-11.4136
occupied	-11.4145
India	-11.4147
▁clinic	-11.4176
▁Similar	-11.4211
▁foresee	-11.4237
▁बल्कि	-11.4241
▁Private	-11.4241
▁Abkhazia	-11.4241
▁Affairs	-11.4241
▁Alexander	-11.4241
▁Amerika	-11.4241
▁Executive	-11.4241
▁Rumsfeld	-11.4241
▁Slovakia	-11.4241
▁basket	-11.4241
▁bipartisan	-11.4241
▁cognitive	-11.4241
▁constituencies	-11.4241
▁disposal	-11.4241
▁maximum	-11.4241
▁pluralism	-11.4241
▁relevance	-11.4241
▁sluggish	-11.4241
▁क्षमता	-11.4241
▁ज्यादा	-11.4241
▁समर्थन	-11.4241
▁सहयोग	-11.4241
▁1981	-11.4241
▁Equally	-11.4241
▁Goldman	-11.4241
▁accompany	-11.4241
▁diagnostic	-11.4241
▁dismantle	-11.4241
▁अरब	-11.4241
▁सुविधा	-11.4241
▁distract	-11.4241
▁trivial	-11.4241
▁emisi	-11.4241
▁harass	-11.4241
▁ecological	-11.4241
▁Could	-11.4241
नियम	-11.4241
▁Panel	-11.4241
fascist	-11.4241
▁Eurozone	-11.4242
▁Oslo	-11.4243
consuming	-11.4246
▁taste	-11.4247
▁तुलना	-11.4253
Claud	-11.4264
support	-11.4269
▁migrant	-11.4299
minal	-11.43
seekers	-11.4302
▁overwhelm	-11.4304
करती	-11.4318
embracing	-11.4364
▁Chernobyl	-11.4364
▁IAEA	-11.4364
▁conscience	-11.4364
▁divorce	-11.4364
▁obstruct	-11.4364
▁suspicious	-11.4364
▁sympathy	-11.4364
▁tuberculosis	-11.4364
▁अफ़्रीका	-11.4364
▁1982	-11.4364
▁nightmare	-11.4364
▁sleep	-11.4364
▁remedy	-11.4364
▁Delhi	-11.4364
▁crunch	-11.4364
▁robot	-11.4364
▁Jiang	-11.4364
▁Liberia	-11.4364
▁admire	-11.4365
▁thwart	-11.4365
▁session	-11.4365
▁वित्तीय	-11.4365
▁complaints	-11.4366
▁सामन	-11.4367
fledg	-11.437
▁धन	-11.4371
▁pave	-11.4392
efficiency	-11.4393
▁redefin	-11.4403
▁activist	-11.4427
dustrialization	-11.4444
gainst	-11.4462
Semitism	-11.4489
▁Failure	-11.4489
▁complacency	-11.4489
▁decentralized	-11.4489
▁empirical	-11.4489
▁execution	-11.4489
▁physician	-11.4489
▁pundits	-11.4489
▁troubling	-11.4489
▁unlimited	-11.4489
Confucian	-11.4489
▁afflict	-11.4489
▁smug	-11.4489
▁squander	-11.4489
▁1968	-11.4489
▁reunification	-11.4489
▁rebellion	-11.4489
▁Calder	-11.4489
▁pretty	-11.4489
▁redress	-11.449
▁दशक	-11.449
▁misery	-11.449
▁mosque	-11.449
▁Sadly	-11.4491
▁limitations	-11.4491
mampu	-11.4491
yield	-11.452
functioning	-11.452
modern	-11.452
group	-11.4521
▁regulator	-11.4542
▁Between	-11.4616
▁Caribbean	-11.4616
▁Kashmir	-11.4616
▁Marshall	-11.4616
▁Nowadays	-11.4616
▁Tiongkok	-11.4616
▁advancing	-11.4616
▁advertising	-11.4616
▁enlightened	-11.4616
▁grievances	-11.4616
▁imprisoned	-11.4616
▁militarily	-11.4616
▁precondition	-11.4616
▁privacy	-11.4616
▁remittances	-11.4616
▁treasury	-11.4616
▁Already	-11.4616
▁Franklin	-11.4616
▁destination	-11.4616
▁disregard	-11.4616
▁offshore	-11.4616
▁preparation	-11.4616
▁refusing	-11.4616
▁खाद्य	-11.4616
▁geography	-11.4616
▁shelter	-11.4616
▁polarization	-11.4616
▁Think	-11.4616
iaoping	-11.4616
▁overhang	-11.4616
▁domain	-11.4616
▁endured	-11.4617
dominated	-11.4648
revolution	-11.4648
oligarch	-11.4741
▁institute	-11.4744
▁Khodorkovsky	-11.4744
▁Little	-11.4744
▁Reinhart	-11.4744
▁Society	-11.4744
▁Zealand	-11.4744
▁adversaries	-11.4744
▁autumn	-11.4744
▁credentials	-11.4744
▁facilitating	-11.4744
▁friction	-11.4744
▁kebijakan	-11.4744
▁pessimist	-11.4744
▁predicament	-11.4744
▁reviving	-11.4744
▁ruthless	-11.4744
▁verdict	-11.4744
▁योजना	-11.4744
▁$0.	-11.4744
▁PLO	-11.4744
▁Poverty	-11.4744
▁Uribe	-11.4744
▁Vienna	-11.4744
▁moderation	-11.4744
▁lobbie	-11.4744
▁Micha	-11.4744
▁उसके	-11.4745
▁टीक	-11.4764
development	-11.4778
lived	-11.478
▁girl	-11.4822
▁opponent	-11.4822
धारण	-11.4874
▁1987	-11.4874
▁FARC	-11.4874
▁Tribunal	-11.4874
▁beneficiaries	-11.4874
▁maritime	-11.4874
▁reassuring	-11.4874
▁residential	-11.4874
▁stubborn	-11.4874
▁stunning	-11.4874
▁स्पष्ट	-11.4874
▁1929	-11.4874
▁variant	-11.4874
▁proposing	-11.4874
▁CCP	-11.4874
▁Ocean	-11.4874
▁renewal	-11.4874
▁purge	-11.4874
▁comply	-11.4874
▁copy	-11.4875
▁mining	-11.4875
▁Count	-11.4876
▁Strip	-11.4877
uthoritarianism	-11.4879
correct	-11.4909
insurance	-11.4909
normal	-11.4909
Japan	-11.4909
strategic	-11.4909
▁tick	-11.4923
▁announce	-11.4961
▁migrat	-11.5
payments	-11.5004
▁COPENHAGEN	-11.5006
▁Kissinger	-11.5006
▁Madrid	-11.5006
▁Serikat	-11.5006
▁acquisition	-11.5006
▁compliance	-11.5006
▁constituent	-11.5006
▁inhabitants	-11.5006
▁literature	-11.5006
▁obesity	-11.5006
▁prejudice	-11.5006
▁quantity	-11.5006
▁subordinate	-11.5006
▁unintended	-11.5006
▁vulnerabilities	-11.5006
▁wield	-11.5006
▁फलस्वरूप	-11.5006
▁assemble	-11.5006
▁banyak	-11.5006
▁impulse	-11.5006
▁silver	-11.5006
▁hinder	-11.5006
▁headquarters	-11.5006
▁derail	-11.5006
▁contradictory	-11.5006
▁fosil	-11.5006
▁Martin	-11.5006
▁steal	-11.5006
▁आधार	-11.502
वर्त	-11.5021
conduct	-11.5043
herently	-11.5048
▁Creat	-11.5065
▁prosper	-11.5134
▁hybrid	-11.5139
▁बीमार	-11.5139
▁1985	-11.5139
▁9/11	-11.5139
▁Budget	-11.5139
▁Hatoyama	-11.5139
▁Jazeera	-11.5139
▁Olmert	-11.5139
▁Regulator	-11.5139
▁collapsing	-11.5139
▁equitable	-11.5139
▁evolving	-11.5139
▁examination	-11.5139
▁futile	-11.5139
▁insurgents	-11.5139
▁scarcity	-11.5139
▁speculators	-11.5139
▁staggering	-11.5139
▁उद्योग	-11.5139
▁ध्यान	-11.5139
▁वृद्धि	-11.5139
▁सुरक्षा	-11.5139
▁unravel	-11.5139
▁William	-11.5139
▁dampen	-11.5139
▁consciousness	-11.5139
▁फैल	-11.5139
▁Persian	-11.5139
▁outlets	-11.514
atom	-11.514
You	-11.5143
▁buck	-11.5161
public	-11.5165
conservative	-11.5178
private	-11.5178
What	-11.5178
fiscal	-11.5178
▁withstand	-11.5192
▁commemorat	-11.5274
▁exhibit	-11.5274
▁कार्यक्रम	-11.5274
▁cronies	-11.5274
▁disclosure	-11.5274
▁elimination	-11.5274
▁evasion	-11.5274
▁impediment	-11.5274
▁integral	-11.5274
▁liberties	-11.5274
▁provocation	-11.5274
▁प्रणाली	-11.5274
▁conditionality	-11.5274
▁Fifth	-11.5274
▁temper	-11.5274
▁forthcoming	-11.5274
▁blessing	-11.5274
▁स्थानीय	-11.5274
▁reinvent	-11.5275
Tayyi	-11.5275
▁diverge	-11.5281
terrorism	-11.5315
school	-11.5315
▁0.2	-11.5327
▁devote	-11.5372
Abenomics	-11.5411
lecommunications	-11.5411
लागू	-11.5411
▁Imagine	-11.5411
▁Tiananmen	-11.5411
▁deforestation	-11.5411
▁diversification	-11.5411
▁exemplifie	-11.5411
▁frequency	-11.5411
▁karbon	-11.5411
▁patience	-11.5411
▁predominant	-11.5411
▁prevalence	-11.5411
▁reaffirm	-11.5411
▁फिर	-11.5411
▁Jinping	-11.5411
▁RMB	-11.5411
▁incremental	-11.5411
▁maintenance	-11.5411
▁दूर	-11.5411
▁expire	-11.5411
▁mandatory	-11.5411
▁undervalued	-11.5411
▁floor	-11.5411
▁verge	-11.5412
blown	-11.5442
confidence	-11.5454
democracy	-11.5454
▁aspire	-11.5467
▁shareholder	-11.5517
fulfilling	-11.5528
tribution	-11.5543
tabilization	-11.5547
▁DELHI	-11.555
▁Election	-11.555
▁Napoleon	-11.555
▁Official	-11.555
▁Shinzo	-11.555
▁Uruguay	-11.555
▁accustomed	-11.555
▁capacities	-11.555
▁categories	-11.555
▁compassion	-11.555
▁cosmopolitan	-11.555
▁cumulative	-11.555
▁multiplier	-11.555
▁paralyzed	-11.555
▁rehabilitat	-11.555
▁reinvigorat	-11.555
▁restaurant	-11.555
▁rigorous	-11.555
▁उच्च	-11.555
▁राज्य	-11.555
▁समूह	-11.555
▁Journal	-11.555
▁Protection	-11.555
▁diversify	-11.555
▁domination	-11.555
▁gravity	-11.555
▁hidup	-11.555
▁बड़े	-11.555
▁contempt	-11.555
▁description	-11.555
▁FSB	-11.555
▁anxious	-11.555
▁अनेक	-11.555
▁proxy	-11.555
▁gamble	-11.555
▁crony	-11.555
▁selama	-11.555
▁clever	-11.555
▁falter	-11.555
▁joke	-11.555
alyzing	-11.5552
▁inertia	-11.5552
▁mature	-11.5552
▁Lanka	-11.5553
▁pack	-11.5569
guard	-11.5594
्याप्त	-11.5691
▁Individual	-11.5691
▁Mandela	-11.5691
▁Progress	-11.5691
▁Thanks	-11.5691
▁bizarre	-11.5691
▁brilliant	-11.5691
▁depreciate	-11.5691
▁hijack	-11.5691
▁pragmatism	-11.5691
▁protocol	-11.5691
▁reconsider	-11.5691
▁tendencies	-11.5691
▁unavoidable	-11.5691
▁दृष्टिकोण	-11.5691
▁रणनीति	-11.5691
▁Eventually	-11.5691
▁Liberation	-11.5691
▁column	-11.5691
▁appease	-11.5691
▁doubling	-11.5691
▁impasse	-11.5691
▁muddle	-11.5691
▁Credit	-11.5691
▁Major	-11.5691
▁listrik	-11.5691
▁भू	-11.5691
▁identical	-11.5691
ीकरण	-11.5691
▁($1	-11.5692
▁revert	-11.5698
emerge	-11.5788
clusive	-11.5827
▁inaugura	-11.5834
-1990	-11.5834
▁1988	-11.5834
▁Chicago	-11.5834
▁Czechoslovakia	-11.5834
▁MADRID	-11.5834
▁OSCE	-11.5834
▁Obasanjo	-11.5834
▁Tymoshenko	-11.5834
▁compact	-11.5834
▁dedicated	-11.5834
▁detainee	-11.5834
▁guerrilla	-11.5834
▁havoc	-11.5834
▁invitation	-11.5834
▁lecture	-11.5834
▁ostensibl	-11.5834
▁precarious	-11.5834
▁quantities	-11.5834
▁repercussions	-11.5834
▁संकट	-11.5834
▁Kuchma	-11.5834
▁Mohamed	-11.5834
▁$9	-11.5834
▁modified	-11.5834
▁orientation	-11.5834
▁Drug	-11.5834
hasilkan	-11.5835
▁चुक	-11.5835
shadow	-11.5882
business	-11.5882
financial	-11.5883
great	-11.5883
▁contradict	-11.595
aligned	-11.5964
cientific	-11.5976
▁BERLIN	-11.5979
▁Canadian	-11.5979
▁Children	-11.5979
▁Corruption	-11.5979
▁Regardless	-11.5979
▁correlation	-11.5979
▁definitive	-11.5979
▁demonstrators	-11.5979
▁embodied	-11.5979
▁explode	-11.5979
▁ideologies	-11.5979
▁married	-11.5979
▁memiliki	-11.5979
▁pembangunan	-11.5979
▁telephone	-11.5979
▁व्यापक	-11.5979
▁Eurasia	-11.5979
▁comprehend	-11.5979
▁dubbed	-11.5979
▁interrupt	-11.5979
▁राशि	-11.5979
▁beneath	-11.5979
▁Large	-11.5981
▁Warsaw	-11.5985
▁Judg	-11.5995
from	-11.603
invest	-11.6031
military	-11.6065
▁tackl	-11.6076
▁taxpayer	-11.611
operative	-11.6123
▁Muhammad	-11.6126
▁consequent	-11.6126
प्रौद्योगिकी	-11.6126
▁Florida	-11.6126
▁Prague	-11.6126
▁SWF	-11.6126
▁centrist	-11.6126
▁chapter	-11.6126
▁extinction	-11.6126
▁fertilizer	-11.6126
▁illiquid	-11.6126
▁penalties	-11.6126
▁stakeholders	-11.6126
▁supreme	-11.6126
▁taboo	-11.6126
▁vacation	-11.6126
▁1986	-11.6126
▁divisive	-11.6126
▁knock	-11.6126
▁tacit	-11.6126
▁Support	-11.6126
▁mixture	-11.6126
▁perverse	-11.6126
Saxon	-11.6126
▁0.5%	-11.6126
▁decay	-11.6126
▁यद	-11.6126
tenaga	-11.613
what	-11.617
certain	-11.6173
▁separat	-11.6209
▁नागरिक	-11.6275
▁व्यक्ति	-11.6275
▁Azerbaijan	-11.6275
▁Gerhard	-11.6275
▁Istanbul	-11.6275
▁Jiabao	-11.6275
▁Nicaragua	-11.6275
▁Traditional	-11.6275
▁advocating	-11.6275
▁compatible	-11.6275
▁declaring	-11.6275
▁delicate	-11.6275
▁meningkat	-11.6275
▁obsolete	-11.6275
▁peculiar	-11.6275
▁unhappy	-11.6275
▁महामार	-11.6275
▁discern	-11.6275
▁elusive	-11.6275
▁Medicare	-11.6275
▁penalty	-11.6275
▁Saleh	-11.6275
▁orchestra	-11.6275
संभव	-11.6275
▁buffer	-11.6275
▁forefront	-11.6275
▁कीमत	-11.6275
▁recapitalize	-11.6275
▁Nepal	-11.6277
defined	-11.6283
▁compar	-11.6296
discretionary	-11.6298
majority	-11.633
people	-11.633
▁repress	-11.6416
▁combin	-11.6423
BRIC	-11.6426
▁Lithuania	-11.6426
▁NAFTA	-11.6426
▁Peninsula	-11.6426
▁Pinochet	-11.6426
▁Suppose	-11.6426
▁catalyst	-11.6426
▁complicit	-11.6426
▁escalating	-11.6426
▁hawks	-11.6426
▁insolvency	-11.6426
▁irrigation	-11.6426
▁monopolies	-11.6426
▁renegotiat	-11.6426
▁terjadi	-11.6426
▁turbulence	-11.6426
▁tyranny	-11.6426
▁बिलियन	-11.6426
▁Facility	-11.6426
▁Uganda	-11.6426
▁bottle	-11.6426
▁deterrent	-11.6426
▁maturity	-11.6426
▁चिकित्स	-11.6426
▁Texas	-11.6426
▁Yukos	-11.6426
▁unchanged	-11.6426
▁intervening	-11.6426
ontrary	-11.6435
inflicted	-11.6475
different	-11.6484
protect	-11.6484
▁overlap	-11.6495
dapat	-11.6514
perusahaan	-11.658
▁Mechanism	-11.658
▁Saakashvili	-11.658
▁Schroeder	-11.658
▁Summers	-11.658
▁beautiful	-11.658
▁deteriorating	-11.658
▁diabetes	-11.658
▁dibanding	-11.658
▁emphasizing	-11.658
▁hierarchy	-11.658
▁plastic	-11.658
▁regret	-11.658
▁satisfaction	-11.658
▁synthetic	-11.658
▁Citizens	-11.658
▁intensified	-11.658
▁siege	-11.658
▁tindakan	-11.658
▁आगे	-11.658
▁Seoul	-11.658
▁elicit	-11.658
▁drift	-11.658
▁heritage	-11.658
▁wreck	-11.658
▁unbalanced	-11.658
SOEs	-11.658
र्जा	-11.658
▁muscle	-11.658
▁scant	-11.658
▁compris	-11.6583
▁wipe	-11.6597
▁investigati	-11.6605
पार	-11.6606
benefit	-11.664
▁unambiguous	-11.6736
▁Bhutto	-11.6736
▁Buddhist	-11.6736
▁Critics	-11.6736
▁Salvador	-11.6736
▁consecutive	-11.6736
▁determinant	-11.6736
▁eighteenth	-11.6736
▁grassroots	-11.6736
▁horrific	-11.6736
▁hypocrisy	-11.6736
▁persecution	-11.6736
▁psychiatric	-11.6736
▁sensitivity	-11.6736
▁testimony	-11.6736
▁valuation	-11.6736
▁प्रणालियों	-11.6736
▁मौजूद	-11.6736
▁buried	-11.6736
▁petition	-11.6736
▁solvency	-11.6736
▁leisure	-11.6737
▁Sierra	-11.6737
▁envision	-11.6737
▁reminiscen	-11.6737
ONG	-11.6737
▁tempting	-11.6737
▁racism	-11.6737
▁sacred	-11.6737
▁Therefore	-11.6737
▁interior	-11.6737
▁invisible	-11.6737
▁duration	-11.6737
▁partition	-11.6737
▁chaotic	-11.6737
affected	-11.6799
genetic	-11.68
respect	-11.6816
▁asymmetric	-11.6818
MDG	-11.6893
रेलू	-11.6895
▁BEIJING	-11.6895
▁ISIS	-11.6895
▁Juncker	-11.6895
▁affluent	-11.6895
▁annexation	-11.6895
▁astonishing	-11.6895
▁dismantling	-11.6895
▁escalation	-11.6895
▁homosexual	-11.6895
▁inferior	-11.6895
▁nostalgia	-11.6895
▁opaque	-11.6895
▁परिवार	-11.6895
▁पर्यावरण	-11.6895
▁Nobody	-11.6895
▁federation	-11.6895
▁harvest	-11.6895
▁फसल	-11.6895
▁Ebola	-11.6895
▁starvation	-11.6895
▁Morales	-11.6895
▁broadband	-11.6895
▁abnormal	-11.6895
▁erect	-11.6895
▁bulan	-11.6895
▁harness	-11.6896
▁Natural	-11.6896
wheel	-11.6896
▁अत्य	-11.6896
▁सर्व	-11.6898
fashioned	-11.69
coloniz	-11.6901
scribed	-11.6965
▁परिणाम	-11.7057
▁स्थाप	-11.7057
cigarette	-11.7057
pemimpin	-11.7057
▁Alternative	-11.7057
▁Amazon	-11.7057
▁Binyam	-11.7057
▁Dubai	-11.7057
▁culprit	-11.7057
▁encompass	-11.7057
▁irreversible	-11.7057
▁lingkungan	-11.7057
▁mathematical	-11.7057
▁mitigation	-11.7057
▁perpetuate	-11.7057
▁susceptible	-11.7057
▁दृष्टि	-11.7057
▁बाहर	-11.7057
▁भविष्य	-11.7057
▁Karzai	-11.7057
▁Khomeini	-11.7057
▁Ortega	-11.7057
▁dampak	-11.7057
▁magnet	-11.7057
▁teenage	-11.7057
▁Deputy	-11.7057
▁Which	-11.7057
▁cultivate	-11.7057
▁qualify	-11.7057
▁reversing	-11.7057
▁senator	-11.7057
▁sample	-11.7057
▁Begin	-11.7057
▁racist	-11.7057
▁Michel	-11.7057
▁concede	-11.7058
president	-11.7124
ात्मक	-11.7179
▁discretion	-11.7195
▁converge	-11.722
▁Damascus	-11.722
▁Domestic	-11.722
▁OPEC	-11.722
▁Protestant	-11.722
▁SARS	-11.722
▁Silvio	-11.722
▁analyses	-11.722
▁bacteria	-11.722
▁deficiencies	-11.722
▁fascism	-11.722
▁fragility	-11.722
▁incompetence	-11.722
▁intractable	-11.722
▁pessimism	-11.722
▁pluralist	-11.722
▁populated	-11.722
▁suffice	-11.722
▁survivors	-11.722
▁varieties	-11.722
▁vivid	-11.722
▁इलाज	-11.722
▁पैदा	-11.722
▁1947	-11.722
▁1978	-11.722
▁varied	-11.722
▁bloodshed	-11.7221
▁depict	-11.7221
nutrient	-11.7221
▁fiction	-11.7221
▁twist	-11.7221
▁patch	-11.7221
▁evade	-11.7221
▁sanction	-11.724
Kahn	-11.7282
thrown	-11.7325
इस्तेमाल	-11.7387
▁Building	-11.7387
▁Bundesbank	-11.7387
▁Petersburg	-11.7387
▁Tehran	-11.7387
▁Volcker	-11.7387
▁disguise	-11.7387
▁disillusion	-11.7387
▁exploration	-11.7387
▁immunity	-11.7387
▁incompetent	-11.7387
▁infamous	-11.7387
▁internasional	-11.7387
▁keuangan	-11.7387
▁pleasure	-11.7387
▁resurgence	-11.7387
▁retrenchment	-11.7387
▁simplistic	-11.7387
▁unconditional	-11.7387
▁vitamin	-11.7387
▁अनुसंधान	-11.7387
▁अलावा	-11.7387
▁1914	-11.7387
▁1971	-11.7387
▁cluster	-11.7387
▁likewise	-11.7387
▁ratification	-11.7387
▁guiding	-11.7387
▁ICC	-11.7387
▁halve	-11.7387
▁Zhao	-11.7387
बड़ी	-11.7388
▁conduc	-11.7413
Atlantic	-11.746
special	-11.746
ethnic	-11.7461
▁confine	-11.7518
▁Increasing	-11.7557
▁Earlier	-11.7557
▁Hungarian	-11.7557
▁MILAN	-11.7557
▁Mumbai	-11.7557
▁Pentagon	-11.7557
▁Snowden	-11.7557
▁Syriza	-11.7557
▁Technology	-11.7557
▁Tsipras	-11.7557
▁Wolfowitz	-11.7557
▁abortion	-11.7557
▁chemistry	-11.7557
▁efficacy	-11.7557
▁holiday	-11.7557
▁दौरान	-11.7557
▁advertise	-11.7557
▁ambiguity	-11.7557
▁seldom	-11.7557
▁1948	-11.7557
▁truck	-11.7557
▁ballistic	-11.7557
▁overheating	-11.7557
▁Consumer	-11.7557
▁Trump	-11.7557
▁Wolf	-11.7557
▁slack	-11.7557
▁शहरी	-11.7557
ORE	-11.7559
▁colleague	-11.7588
determination	-11.7633
Great	-11.7633
▁consolidat	-11.7695
Saud	-11.7706
▁Antarctic	-11.7729
▁Intelligence	-11.7729
▁Rouhani	-11.7729
▁allegations	-11.7729
▁allegiance	-11.7729
▁antagonism	-11.7729
▁circumvent	-11.7729
▁junta	-11.7729
▁revitaliz	-11.7729
▁seluruh	-11.7729
▁staunch	-11.7729
▁transplant	-11.7729
▁utility	-11.7729
▁अनुसार	-11.7729
▁आबादी	-11.7729
▁एशिया	-11.7729
▁vigilant	-11.7729
▁अगर	-11.7729
▁hollow	-11.7729
▁revenge	-11.7729
▁stroke	-11.7729
▁tropic	-11.7729
▁pilot	-11.7729
▁prioritize	-11.7729
▁haunt	-11.773
threw	-11.7731
▁resonate	-11.7732
▁Relations	-11.7743
▁Improv	-11.7774
combatants	-11.7778
▁Academy	-11.7904
▁Companies	-11.7904
▁Malaria	-11.7904
▁Schengen	-11.7904
▁Specifically	-11.7904
▁critique	-11.7904
▁discouraging	-11.7904
▁fantasy	-11.7904
▁hypothesis	-11.7904
▁imprisonment	-11.7904
▁inappropriate	-11.7904
▁literacy	-11.7904
▁masyarakat	-11.7904
▁mathematics	-11.7904
▁medication	-11.7904
▁preclude	-11.7904
▁pronounced	-11.7904
▁replied	-11.7904
▁transmitted	-11.7904
▁vessel	-11.7904
▁हालाँकि	-11.7904
affiliate	-11.7904
▁1933	-11.7904
▁WHO	-11.7904
▁crystal	-11.7904
▁genius	-11.7904
▁miliar	-11.7904
▁counsel	-11.7904
▁qualities	-11.7904
▁Milton	-11.7904
▁prince	-11.7904
▁Speak	-11.7905
▁mankind	-11.7905
▁modification	-11.7905
▁stigma	-11.7905
▁endemic	-11.7905
violent	-11.7987
culture	-11.7987
particularly	-11.7987
supply	-11.7987
President	-11.7987
million	-11.7987
▁unify	-11.7998
diagnos	-11.8005
molecular	-11.8083
precautionary	-11.8083
▁Hollywood	-11.8083
▁Katrina	-11.8083
▁Tahrir	-11.8083
▁acknowledging	-11.8083
▁confusing	-11.8083
▁dilakukan	-11.8083
▁disappointment	-11.8083
▁hectare	-11.8083
▁incompatible	-11.8083
▁linguistic	-11.8083
▁negligible	-11.8083
▁prudence	-11.8083
▁supremacy	-11.8083
▁unwanted	-11.8083
▁व्यापार	-11.8083
▁Beirut	-11.8083
▁Millions	-11.8083
▁Zedong	-11.8083
▁bloated	-11.8083
▁ethos	-11.8083
▁spawn	-11.8083
disposable	-11.8083
शील	-11.8084
sphere	-11.8168
through	-11.8168
colonial	-11.8169
activa	-11.8199
▁Holland	-11.8246
▁assassin	-11.8257
▁ominous	-11.8265
▁Barroso	-11.8265
▁Burmese	-11.8265
▁Celsius	-11.8265
▁Fischer	-11.8265
▁Scottish	-11.8265
▁accommodation	-11.8265
▁analytical	-11.8265
▁chicken	-11.8265
▁coffee	-11.8265
▁embassy	-11.8265
▁presuppose	-11.8265
▁provocative	-11.8265
▁ritual	-11.8265
▁volunteer	-11.8265
▁मृत्यु	-11.8265
▁confess	-11.8265
▁hurdle	-11.8265
▁stockpile	-11.8265
▁सेवाओं	-11.8265
▁stupid	-11.8265
▁illicit	-11.8265
▁intrinsic	-11.8265
SDGs	-11.8265
▁mouth	-11.8265
feminist	-11.8265
▁conquer	-11.8266
द्द	-11.8266
▁describ	-11.8281
Chinese	-11.8354
▁refuge	-11.8422
▁स्थान	-11.845
▁Einstein	-11.845
▁Securities	-11.845
▁Survey	-11.845
▁Universal	-11.845
▁Vatican	-11.845
▁analogous	-11.845
▁criterion	-11.845
▁deficiency	-11.845
▁foreclosure	-11.845
▁indictment	-11.845
▁mitigating	-11.845
▁physicist	-11.845
▁punitive	-11.845
▁strife	-11.845
▁unequivocal	-11.845
▁दिखा	-11.845
▁नाइजीरिया	-11.845
▁पूँजी	-11.845
▁0.7%	-11.845
▁Bureau	-11.845
▁Studies	-11.845
▁blunder	-11.845
▁incidence	-11.845
▁stereotyp	-11.845
▁wholesale	-11.845
risiko	-11.845
▁Agenda	-11.845
▁milestone	-11.845
▁straight	-11.845
▁wreak	-11.845
▁stature	-11.845
▁severity	-11.845
▁jeopardiz	-11.8456
▁corporation	-11.8514
system	-11.8543
मामले	-11.8594
▁अमेरिक	-11.8634
#160;	-11.8638
▁petroleum	-11.8639
▁stagnate	-11.8639
▁Challenge	-11.8639
▁Eurobonds	-11.8639
▁Hamilton	-11.8639
▁Infrastructure	-11.8639
▁ambiguous	-11.8639
▁arrogance	-11.8639
▁catalyze	-11.8639
▁harbor	-11.8639
▁infinite	-11.8639
▁influx	-11.8639
▁shaky	-11.8639
▁substantive	-11.8639
▁thriving	-11.8639
▁veteran	-11.8639
▁yesterday	-11.8639
▁yuan	-11.8639
▁कानून	-11.8639
▁प्रतिक्रिया	-11.8639
▁समाप्त	-11.8639
▁होंगे	-11.8639
▁1972	-11.8639
▁NTC	-11.8639
▁clarify	-11.8639
▁sistem	-11.8639
▁utopia	-11.8639
▁stipulat	-11.8639
haircut	-11.8639
Bashir	-11.8639
Maliki	-11.864
▁Prevent	-11.8641
mulai	-11.8641
Brazil	-11.8735
Semitic	-11.8831
discriminatory	-11.8831
distributive	-11.8831
▁Admittedly	-11.8831
▁Luxembourg	-11.8831
▁Mozambique	-11.8831
▁Thirty	-11.8831
▁Yasukuni	-11.8831
▁achievable	-11.8831
▁airplane	-11.8831
▁bureaucracies	-11.8831
▁candidacy	-11.8831
▁cannabis	-11.8831
▁deliberation	-11.8831
▁ethanol	-11.8831
▁hormone	-11.8831
▁inconsistent	-11.8831
▁perpetual	-11.8831
▁umbrella	-11.8831
▁vaccinat	-11.8831
▁कंपनियों	-11.8831
▁खर्च	-11.8831
rapeutic	-11.8831
▁1974	-11.8831
▁Hundred	-11.8831
▁Oxford	-11.8831
▁Siberia	-11.8831
▁intimidate	-11.8831
nourished	-11.8831
▁1956	-11.8831
▁Product	-11.8831
▁पेश	-11.8831
▁Likud	-11.8831
▁escalate	-11.8831
जिसे	-11.8921
Israel	-11.8924
circuit	-11.8928
imperial	-11.8931
responsibility	-11.8931
▁industri	-11.9002
▁dysfunction	-11.9014
destruct	-11.9027
जिन्हें	-11.9027
▁anonymous	-11.9027
(	-12.3035
`	-12.3131
“	-13.4617
ृ	-13.6838
#	-13.6839
औ	-13.684
ष	-13.6841
