<unk>	0
<s>	0
</s>	0
▁the	-2.86693
,	-3.12771
.	-3.42275
▁of	-3.54128
▁to	-3.61332
▁and	-3.77244
▁in	-4.00494
s	-4.14366
▁a	-4.23867
▁that	-4.27503
▁is	-4.31105
▁for	-4.7007
▁I	-4.77391
▁on	-4.85091
▁be	-4.92104
▁this	-4.9893
▁we	-5.03453
▁	-5.03595
▁are	-5.12193
▁it	-5.16611
▁have	-5.18421
▁not	-5.20764
▁with	-5.27632
▁as	-5.28983
-	-5.33507
▁which	-5.35651
▁European	-5.40882
▁The	-5.41965
▁by	-5.46448
▁will	-5.4746
▁has	-5.57801
'	-5.73167
ing	-5.74299
▁Mr	-5.83293
▁an	-5.87315
▁at	-5.90992
▁would	-5.91396
▁Commission	-5.94341
ed	-5.94711
▁also	-5.97159
▁from	-5.98201
▁all	-5.99161
▁should	-6.00629
▁President	-6.07376
▁but	-6.10178
▁must	-6.10262
▁-	-6.10265
▁We	-6.10279
▁our	-6.11162
▁been	-6.15276
d	-6.24586
▁was	-6.2459
▁can	-6.25507
▁more	-6.25679
▁Union	-6.26851
▁It	-6.2836
▁or	-6.29389
▁their	-6.31564
▁Parliament	-6.32216
▁its	-6.32361
▁you	-6.33318
▁do	-6.3865
▁Member	-6.39806
▁report	-6.40701
▁In	-6.41241
▁States	-6.42756
▁like	-6.43838
ly	-6.43848
▁there	-6.44365
▁Europe	-6.46672
▁Council	-6.48054
▁they	-6.48917
▁countries	-6.51073
’	-6.51207
▁This	-6.51289
▁very	-6.51323
▁one	-6.52474
▁(	-6.52874
▁these	-6.53197
▁EU	-6.55207
▁so	-6.56774
)	-6.59681
▁other	-6.62119
▁about	-6.62879
▁what	-6.66615
▁who	-6.68669
:	-6.69456
▁need	-6.69625
▁new	-6.69657
▁people	-6.70654
▁only	-6.71619
▁us	-6.71712
▁time	-6.75212
▁no	-6.75751
▁important	-6.76091
▁policy	-6.77124
▁if	-6.77616
▁my	-6.79045
▁because	-6.79962
▁up	-6.84477
?	-6.84942
▁out	-6.85242
▁now	-6.87336
▁such	-6.88287
▁–	-6.89999
▁support	-6.90234
▁am	-6.938
▁into	-6.94179
▁make	-6.95579
▁take	-6.96358
▁than	-6.97233
▁between	-6.97422
▁those	-6.98186
▁work	-6.98266
n	-6.99702
▁when	-7.00985
▁some	-7.01562
▁political	-7.02107
▁economic	-7.025
▁were	-7.04606
;	-7.05584
▁any	-7.06305
▁them	-7.09108
▁rights	-7.09801
al	-7.10434
▁being	-7.10814
y	-7.11787
▁way	-7.12318
▁therefore	-7.1244
▁made	-7.14292
er	-7.14481
▁many	-7.148
t	-7.15992
▁believe	-7.18505
in	-7.19058
▁fact	-7.19337
▁against	-7.20748
▁Commissioner	-7.21686
▁say	-7.22399
▁first	-7.22981
▁market	-7.23122
▁social	-7.24656
▁s	-7.25589
▁years	-7.26069
e	-7.2621
▁well	-7.27542
▁proposal	-7.27751
▁country	-7.28693
▁That	-7.29468
▁even	-7.29491
▁debate	-7.29815
▁just	-7.29969
▁most	-7.30561
▁point	-7.31208
▁could	-7.31292
▁development	-7.31429
▁A	-7.31669
▁two	-7.32545
▁think	-7.32722
▁over	-7.32751
▁had	-7.33416
▁world	-7.33428
▁human	-7.33801
▁issue	-7.35158
▁order	-7.35383
▁question	-7.35684
▁right	-7.35964
▁future	-7.36239
▁public	-7.36241
▁As	-7.36416
m	-7.37566
▁Committee	-7.38053
▁national	-7.38396
▁does	-7.38416
▁me	-7.3847
▁much	-7.38585
▁financial	-7.38796
▁cannot	-7.39409
▁part	-7.3946
▁same	-7.3967
▁want	-7.39714
▁situation	-7.4076
▁citizens	-7.4321
▁possible	-7.44176
▁under	-7.442
▁today	-7.44201
▁his	-7.44298
▁here	-7.45232
▁measures	-7.45573
▁he	-7.46168
▁where	-7.46418
▁year	-7.46856
▁good	-7.46991
▁clear	-7.47398
▁too	-7.47842
▁how	-7.4883
▁agreement	-7.48882
▁already	-7.48936
▁said	-7.49013
▁But	-7.49336
▁use	-7.49703
▁'	-7.50023
▁both	-7.50034
▁re	-7.50572
▁still	-7.50922
▁see	-7.51478
▁know	-7.51741
▁international	-7.52781
▁within	-7.53386
▁system	-7.53882
▁There	-7.5389
▁vote	-7.54112
▁own	-7.55618
▁view	-7.55723
▁course	-7.55733
▁may	-7.55972
▁common	-7.56085
es	-7.5902
▁ensure	-7.59251
▁particular	-7.59362
▁hope	-7.59572
▁However	-7.60873
▁case	-7.61118
▁end	-7.61725
▁level	-7.61781
▁cooperation	-7.62554
▁last	-7.62582
▁put	-7.63746
▁process	-7.63748
▁taken	-7.63988
▁example	-7.64274
▁long	-7.65088
▁place	-7.65136
▁Community	-7.65144
▁your	-7.65263
▁energy	-7.65781
▁able	-7.65891
▁problem	-7.66522
▁why	-7.67206
g	-7.67588
▁area	-7.67673
▁Mrs	-7.68862
▁If	-7.6905
▁without	-7.69335
▁number	-7.69572
▁means	-7.69597
▁through	-7.69631
r	-7.70727
▁far	-7.72142
▁action	-7.72348
c	-7.72495
▁information	-7.72588
▁de	-7.7352
▁however	-7.73883
▁rapporteur	-7.74577
▁problems	-7.74633
▁before	-7.76019
▁budget	-7.76251
▁then	-7.77131
re	-7.77321
▁United	-7.78591
▁gentlemen	-7.78735
▁security	-7.79039
▁law	-7.79109
▁House	-7.79397
▁great	-7.79517
▁particularly	-7.7976
a	-7.80113
▁directive	-7.80552
▁necessary	-7.807
▁give	-7.80706
▁trade	-7.81641
▁protection	-7.81865
▁given	-7.82055
▁respect	-7.82985
▁issues	-7.83396
▁legal	-7.83624
▁position	-7.83667
▁sector	-7.83718
▁Madam	-7.84453
▁women	-7.84507
▁crisis	-7.8467
▁For	-7.84779
▁since	-7.8496
▁set	-7.85052
▁role	-7.85185
ation	-7.85294
▁matter	-7.85389
▁whether	-7.85575
▁resolution	-7.85768
▁areas	-7.86434
▁regard	-7.86575
▁help	-7.87792
▁Treaty	-7.87882
▁government	-7.88812
▁S	-7.88909
▁again	-7.89041
▁decision	-7.89048
▁further	-7.89749
▁different	-7.90492
▁change	-7.91471
▁next	-7.91869
ers	-7.92053
▁Group	-7.92097
or	-7.92554
▁come	-7.9263
▁thank	-7.93008
▁agree	-7.93268
▁terms	-7.93295
▁better	-7.9358
▁health	-7.93833
▁after	-7.93869
▁favour	-7.9409
▁services	-7.95215
▁ladies	-7.95298
▁amendments	-7.95844
o	-7.95986
l	-7.96105
▁aid	-7.96138
▁certain	-7.96946
▁present	-7.96979
▁basis	-7.97013
▁programme	-7.97081
▁done	-7.97523
▁rules	-7.97782
▁behalf	-7.97866
▁global	-7.98861
▁What	-7.99267
▁continue	-7.99588
▁institutions	-7.99595
▁result	-8.00204
▁un	-8.00206
ion	-8.00521
▁proposals	-8.00648
u	-8.01026
▁state	-8.01048
▁adopted	-8.01995
▁framework	-8.02035
▁wish	-8.02315
ity	-8.02679
▁legislation	-8.02829
▁growth	-8.02988
▁progress	-8.03353
▁three	-8.03577
▁needs	-8.0359
▁Members	-8.03998
▁approach	-8.04027
le	-8.04129
▁current	-8.04529
▁ask	-8.04909
▁US	-8.05025
▁economy	-8.05072
▁few	-8.05676
▁group	-8.05877
▁opinion	-8.06223
▁real	-8.0715
▁high	-8.07202
i	-8.0738
▁welcome	-8.07748
▁State	-8.07761
able	-8.0778
▁become	-8.07808
▁did	-8.08363
▁policies	-8.08397
ic	-8.08492
b	-8.0898
▁including	-8.08987
▁down	-8.09781
▁forward	-8.09851
p	-8.09914
▁whole	-8.1017
▁going	-8.11217
▁go	-8.11236
▁subject	-8.11451
▁concerned	-8.1146
▁power	-8.11497
▁resources	-8.11617
▁million	-8.11677
▁increase	-8.12108
▁provide	-8.12393
▁something	-8.12506
▁working	-8.12932
▁C	-8.12999
an	-8.13124
th	-8.13249
▁towards	-8.13848
▁No	-8.14482
▁China	-8.1472
▁principle	-8.14871
▁conditions	-8.15122
▁second	-8.1567
▁find	-8.16099
ment	-8.16104
▁during	-8.16104
▁another	-8.16426
▁especially	-8.16554
it	-8.16592
▁p	-8.16791
▁used	-8.17377
▁On	-8.17378
▁“	-8.17803
▁rather	-8.18083
▁least	-8.18088
▁every	-8.18095
▁opportunity	-8.18279
▁back	-8.18299
▁employment	-8.18348
▁together	-8.18378
ar	-8.18414
▁specific	-8.18429
▁really	-8.18795
▁They	-8.18962
▁voted	-8.18984
▁account	-8.1913
▁less	-8.19158
▁So	-8.19207
▁itself	-8.1948
▁while	-8.19857
▁greater	-8.19869
▁transport	-8.19903
▁strategy	-8.2003
▁general	-8.20127
▁proposed	-8.2022
▁importance	-8.20367
en	-8.20547
▁third	-8.20603
▁authorities	-8.20685
▁small	-8.20688
▁major	-8.20898
▁reason	-8.21299
▁democracy	-8.21437
▁reform	-8.21889
▁research	-8.22012
▁fundamental	-8.22385
▁serious	-8.22793
▁At	-8.22849
/	-8.22865
▁large	-8.22902
▁regulation	-8.22913
▁free	-8.23179
▁negotiations	-8.23308
▁shall	-8.23428
▁industry	-8.23619
▁access	-8.23676
▁get	-8.2443
st	-8.24456
ra	-8.24543
▁environmental	-8.24764
▁clearly	-8.24899
▁Presidency	-8.24979
A	-8.2501
▁difficult	-8.25128
▁responsibility	-8.25742
▁deal	-8.25791
▁products	-8.26563
et	-8.26669
▁money	-8.26791
▁To	-8.26826
▁hand	-8.26846
▁always	-8.27102
▁These	-8.27186
▁once	-8.27543
▁safety	-8.27686
▁society	-8.27822
▁interest	-8.27919
▁And	-8.27985
at	-8.28127
▁quite	-8.28256
il	-8.28338
▁making	-8.28613
▁effective	-8.28629
▁Russia	-8.28719
▁interests	-8.28936
▁call	-8.28992
▁democratic	-8.29109
ro	-8.29222
▁allow	-8.29987
▁internal	-8.30112
ne	-8.30341
▁achieve	-8.30538
▁freedom	-8.30833
h	-8.30855
▁attention	-8.31096
▁region	-8.31339
▁based	-8.31454
▁efforts	-8.32158
▁each	-8.32326
ri	-8.32356
▁essential	-8.32402
▁form	-8.32982
▁things	-8.33068
▁positive	-8.33297
▁yet	-8.33489
▁recent	-8.33529
▁taking	-8.33635
▁regions	-8.33737
▁risk	-8.33978
▁environment	-8.34922
▁war	-8.36072
▁control	-8.36417
▁might	-8.37366
▁step	-8.37519
▁often	-8.37719
▁companies	-8.37764
▁implementation	-8.38284
ur	-8.38303
▁peace	-8.38374
▁full	-8.38545
▁various	-8.38566
on	-8.38844
▁force	-8.39014
▁single	-8.3905
▁her	-8.39157
C	-8.39173
▁look	-8.39186
▁main	-8.39347
▁food	-8.39759
▁words	-8.3992
1	-8.40235
▁best	-8.40309
▁life	-8.4033
2	-8.40677
▁competition	-8.40796
▁consider	-8.40901
5	-8.41911
▁funds	-8.4204
lo	-8.42053
▁children	-8.42114
▁having	-8.42853
▁workers	-8.4297
▁Government	-8.42995
se	-8.43118
▁1	-8.43154
▁states	-8.43467
▁procedure	-8.43685
▁Turkey	-8.43738
▁committee	-8.43898
▁points	-8.44216
▁involved	-8.44219
li	-8.44399
▁concerns	-8.44703
▁simply	-8.44739
▁euro	-8.45052
ive	-8.45203
▁accept	-8.4532
▁solution	-8.45464
▁majority	-8.45841
▁ago	-8.45917
▁co	-8.45968
▁developing	-8.45971
▁f	-8.46417
4	-8.46432
▁create	-8.47333
k	-8.47643
▁standards	-8.48004
▁production	-8.48038
▁bring	-8.48248
▁non	-8.48354
▁following	-8.49016
▁start	-8.49053
S	-8.49153
▁fully	-8.49309
▁period	-8.49357
▁quality	-8.49461
▁certainly	-8.49478
▁Affairs	-8.49649
▁E	-8.49771
▁relations	-8.50061
▁open	-8.50088
▁concern	-8.50848
▁regional	-8.50912
▁EUR	-8.50946
▁objectives	-8.51056
ism	-8.511
▁M	-8.51448
▁groups	-8.51537
▁foreign	-8.5176
f	-8.5187
▁Lisbon	-8.51967
▁decisions	-8.52119
▁amendment	-8.52238
z	-8.52261
▁impact	-8.52783
▁agreements	-8.52975
est	-8.53437
▁programmes	-8.53456
▁B	-8.53553
▁tax	-8.53593
▁dialogue	-8.53754
▁understand	-8.53832
▁agricultural	-8.53847
▁jobs	-8.5421
▁improve	-8.5434
▁governments	-8.5437
▁climate	-8.54388
▁members	-8.54421
el	-8.54514
▁actually	-8.54736
▁fight	-8.54744
▁objective	-8.55001
I	-8.5507
▁context	-8.55224
▁extremely	-8.55376
8	-8.55402
ta	-8.55551
▁aware	-8.55701
▁G	-8.55811
▁key	-8.55885
▁appropriate	-8.55939
te	-8.56062
▁past	-8.56266
▁text	-8.56303
▁themselves	-8.56338
▁needed	-8.56396
▁education	-8.56679
▁initiative	-8.57119
▁nuclear	-8.57125
▁indeed	-8.57219
▁Article	-8.57267
▁markets	-8.57423
▁short	-8.57471
▁available	-8.57782
▁among	-8.5828
▁lack	-8.58824
▁let	-8.5884
▁enlargement	-8.58853
▁meeting	-8.58853
▁compromise	-8.58983
▁act	-8.59291
▁individual	-8.59354
P	-8.59408
ated	-8.59535
▁longer	-8.59573
▁enough	-8.59619
▁dis	-8.59716
▁little	-8.59867
▁others	-8.59923
ent	-8.59986
to	-8.60371
▁costs	-8.60523
▁currently	-8.60738
▁Finally	-8.61094
ate	-8.61251
9	-8.61278
▁local	-8.61405
▁investment	-8.61533
▁Court	-8.61548
▁months	-8.61559
term	-8.61623
7	-8.61654
▁questions	-8.61921
▁results	-8.62088
▁field	-8.62225
▁Let	-8.62379
▁military	-8.62594
▁kind	-8.62637
▁day	-8.62808
ist	-8.62873
!	-8.62882
▁mentioned	-8.63025
▁feel	-8.63175
▁prevent	-8.63225
▁parties	-8.63279
▁You	-8.63711
ting	-8.63912
▁pay	-8.64065
3	-8.64071
as	-8.64072
▁responsible	-8.64207
▁promote	-8.64282
▁though	-8.64309
▁plan	-8.64499
▁strong	-8.64705
”	-8.64766
▁data	-8.64789
▁remain	-8.64908
▁management	-8.65096
▁consumers	-8.6525
▁benefit	-8.65257
▁concerning	-8.65272
▁doing	-8.65348
▁thing	-8.65355
▁F	-8.65449
▁young	-8.66288
▁systems	-8.66513
▁With	-8.66814
▁idea	-8.66891
▁cases	-8.67169
la	-8.67288
▁special	-8.67309
▁response	-8.67339
▁lead	-8.67432
▁share	-8.67441
▁reasons	-8.67652
▁true	-8.67735
v	-8.68292
▁significant	-8.68457
▁5	-8.68544
▁success	-8.68607
▁civil	-8.69067
▁aim	-8.6907
vi	-8.69478
▁per	-8.69691
▁matters	-8.69849
ating	-8.70071
▁final	-8.70082
▁commitment	-8.70413
▁business	-8.70449
ary	-8.7054
▁move	-8.70642
▁principles	-8.70671
▁rule	-8.7087
▁effect	-8.7091
ance	-8.71023
ol	-8.71053
▁line	-8.71261
▁perhaps	-8.71277
▁mean	-8.71335
▁population	-8.7153
▁nothing	-8.72215
ul	-8.72345
▁projects	-8.7238
▁achieved	-8.72449
▁K	-8.72584
▁activities	-8.72757
▁funding	-8.72788
▁face	-8.73019
▁moment	-8.73029
▁billion	-8.73888
▁sure	-8.73933
▁e	-8.74126
▁draft	-8.74223
▁sustainable	-8.74311
▁play	-8.74436
ir	-8.7449
▁Convention	-8.74595
▁priority	-8.7467
ies	-8.74751
▁term	-8.7484
ve	-8.74865
▁T	-8.75001
▁mind	-8.75075
▁America	-8.75105
▁although	-8.75135
▁seems	-8.75162
▁project	-8.75175
▁include	-8.75234
▁due	-8.75237
▁One	-8.75374
▁provided	-8.75401
▁agenda	-8.75445
▁seen	-8.75966
▁she	-8.76042
▁joint	-8.76125
▁congratulate	-8.76497
र	-8.76526
▁My	-8.76553
▁several	-8.76585
▁him	-8.76674
id	-8.76877
▁writing	-8.77353
un	-8.77382
▁integration	-8.77749
▁above	-8.77769
▁express	-8.77954
▁Minister	-8.77974
ा	-8.78278
▁demand	-8.78437
▁off	-8.78526
▁UN	-8.78624
▁reduce	-8.78672
up	-8.78991
▁never	-8.79139
▁protect	-8.79247
▁stability	-8.79354
6	-8.79363
▁regards	-8.79464
▁consumer	-8.79669
▁answer	-8.79945
▁guarantee	-8.79997
▁When	-8.80129
▁agreed	-8.80153
ti	-8.80278
▁speak	-8.80364
▁legislative	-8.80518
▁technical	-8.80535
▁balance	-8.80556
▁excellent	-8.80637
▁solidarity	-8.8079
▁Amendment	-8.80864
us	-8.80967
▁3	-8.81121
▁4	-8.81139
▁sense	-8.81355
ge	-8.81512
▁cost	-8.8159
▁around	-8.81826
ness	-8.81907
▁labour	-8.81911
▁P	-8.81942
▁19	-8.82295
▁He	-8.82537
▁value	-8.82617
▁elections	-8.82648
is	-8.82691
▁poverty	-8.83045
▁values	-8.83047
▁violence	-8.83149
▁Rights	-8.83185
▁meet	-8.83368
▁comes	-8.83508
▁stage	-8.84297
▁addition	-8.84453
de	-8.84611
▁regarding	-8.84651
▁pressure	-8.84706
▁makes	-8.84765
▁transparency	-8.84935
▁Our	-8.85029
▁Directive	-8.85063
▁upon	-8.85072
▁until	-8.85201
▁close	-8.85435
▁private	-8.85497
▁aspects	-8.85507
▁thus	-8.85538
no	-8.85624
▁conflict	-8.85994
▁contribution	-8.86027
▁practice	-8.86488
Office	-8.86655
▁apply	-8.86661
▁changes	-8.86736
▁increased	-8.86835
ous	-8.86882
▁soon	-8.8689
▁terrorism	-8.86947
▁Re	-8.87043
▁discussion	-8.87141
▁capital	-8.87538
▁water	-8.87604
▁existing	-8.87607
▁consequences	-8.87708
▁crucial	-8.87789
▁prices	-8.87842
me	-8.8807
▁relation	-8.8818
▁basic	-8.88217
▁mention	-8.88345
▁con	-8.88567
▁actions	-8.88739
▁assistance	-8.88786
▁keep	-8.88823
na	-8.88826
▁France	-8.88993
▁hard	-8.89048
▁communication	-8.89073
▁rate	-8.89156
▁d	-8.89203
▁show	-8.89204
▁develop	-8.89265
▁creation	-8.8928
tion	-8.89285
▁adopt	-8.89367
▁pre	-8.8947
▁increasing	-8.89615
▁tomorrow	-8.89648
▁service	-8.89673
▁job	-8.89993
B	-8.90187
▁everyone	-8.90214
▁turn	-8.90265
▁expect	-8.90333
▁draw	-8.90507
ll	-8.90555
▁list	-8.90586
▁All	-8.90596
▁central	-8.90784
▁reports	-8.90792
▁found	-8.90973
▁live	-8.91245
▁Bank	-8.91247
▁Therefore	-8.9135
▁held	-8.91486
▁request	-8.91565
DE	-8.91778
ig	-8.91819
ant	-8.9183
▁voting	-8.91874
▁cultural	-8.91888
▁criteria	-8.9192
age	-8.92087
▁debt	-8.92141
▁potential	-8.92172
▁10	-8.92262
▁colleagues	-8.92327
▁Secondly	-8.92348
▁community	-8.92458
▁6	-8.92472
▁Germany	-8.92834
▁accession	-8.93003
▁called	-8.9303
▁price	-8.93186
▁provisions	-8.9334
▁men	-8.93374
mo	-8.93513
▁Party	-8.93697
▁12	-8.93935
▁ourselves	-8.93975
▁asked	-8.94021
▁20	-8.94039
▁000	-8.94244
▁Thank	-8.94326
▁East	-8.94349
▁‘	-8.94706
▁farmers	-8.94708
▁either	-8.94818
M	-8.94835
ial	-8.94891
▁pleased	-8.94904
ia	-8.94908
ma	-8.94925
O	-8.94935
▁required	-8.95164
▁opportunities	-8.95361
▁procedures	-8.95498
im	-8.95524
▁carried	-8.95669
▁five	-8.95704
ी	-8.95729
▁four	-8.95731
▁across	-8.95812
▁enable	-8.95955
▁equal	-8.96012
▁doubt	-8.96014
▁oil	-8.96046
▁almost	-8.96109
▁cohesion	-8.96169
▁recently	-8.96206
▁statement	-8.96439
ut	-8.96633
▁Fund	-8.96652
▁external	-8.96887
▁exchange	-8.97032
▁ever	-8.97045
▁focus	-8.97241
▁saying	-8.97341
D	-8.97454
ce	-8.97683
▁nature	-8.97755
▁left	-8.97804
▁throughout	-8.97818
▁vital	-8.97986
▁American	-8.98113
▁whose	-8.98115
▁return	-8.9812
▁Africa	-8.98236
▁training	-8.98254
▁French	-8.9829
▁"	-8.98401
ch	-8.98426
▁fair	-8.98503
▁address	-8.98535
▁reforms	-8.98573
co	-8.98598
▁regulations	-8.98735
▁everything	-8.98864
▁mo	-8.99
▁week	-8.99002
w	-8.99035
ted	-8.9918
▁effort	-8.99309
▁application	-8.99335
▁anti	-8.996
▁movement	-8.99799
▁fishing	-8.99856
▁item	-9.00217
ad	-9.00368
▁tabled	-9.00423
▁requirements	-9.00438
न	-9.00471
▁experience	-9.00498
▁challenges	-9.00569
▁7	-9.00653
▁times	-9.00664
▁unemployment	-9.00721
▁namely	-9.00907
▁Israel	-9.00988
▁2	-9.01005
▁organisations	-9.01137
▁closed	-9.01233
▁Indeed	-9.01245
▁World	-9.01521
▁remains	-9.01818
▁O	-9.01915
▁2000	-9.01969
▁presented	-9.02001
▁home	-9.02046
▁relating	-9.02051
▁direction	-9.02132
▁review	-9.02207
▁levels	-9.02271
man	-9.02371
▁amount	-9.02485
▁priorities	-9.02497
▁tell	-9.02565
▁task	-9.02653
▁ten	-9.02739
▁powers	-9.02887
▁Of	-9.03005
▁8	-9.03043
▁waste	-9.03168
▁prepared	-9.03266
▁road	-9.03291
▁instruments	-9.03365
▁Iraq	-9.03369
▁D	-9.03457
▁encourage	-9.03498
▁reached	-9.03519
▁previous	-9.03561
ling	-9.03666
▁instrument	-9.0368
ised	-9.03712
▁criminal	-9.03721
▁cause	-9.03916
▁budgetary	-9.03961
▁decided	-9.04058
▁pro	-9.04136
▁reach	-9.04169
▁regime	-9.04192
▁using	-9.04286
▁model	-9.04362
▁poor	-9.04509
ci	-9.04711
▁quickly	-9.04996
▁coming	-9.05422
▁establish	-9.05575
▁cross	-9.05696
▁Ma	-9.05933
ally	-9.05951
▁reality	-9.0598
▁structural	-9.05985
▁effects	-9.06038
▁leaders	-9.06177
▁rise	-9.06188
▁light	-9.06214
▁established	-9.0634
▁initiatives	-9.06359
▁outside	-9.06422
and	-9.06659
▁st	-9.06678
▁package	-9.06737
▁old	-9.06944
▁raised	-9.07007
▁begin	-9.07091
led	-9.07166
▁try	-9.07249
0	-9.07255
▁implement	-9.07301
ise	-9.07569
▁justice	-9.0764
▁di	-9.07683
▁care	-9.07773
F	-9.08027
▁challenge	-9.08045
▁avoid	-9.08081
▁British	-9.0826
▁reduction	-9.08346
▁Development	-9.08435
▁direct	-9.08441
▁brought	-9.08462
▁document	-9.08675
▁implemented	-9.09079
▁conclusion	-9.09101
▁low	-9.09141
▁medium	-9.09274
▁natural	-9.09278
ian	-9.09352
ter	-9.09482
T	-9.09539
▁9	-9.0956
▁expressed	-9.09564
▁talk	-9.0959
ors	-9.0962
▁Ireland	-9.09683
▁strengthen	-9.09736
▁crime	-9.09835
▁victims	-9.09836
▁partners	-9.09912
▁media	-9.09962
▁six	-9.09999
▁away	-9.10027
▁add	-9.10114
▁side	-9.1013
▁behind	-9.10244
▁borders	-9.1029
▁talking	-9.10375
▁monitoring	-9.10523
▁stop	-9.10537
▁11	-9.10551
▁Nations	-9.10565
▁illegal	-9.10718
▁additional	-9.1072
▁reading	-9.10765
▁follow	-9.1081
▁took	-9.10834
▁half	-9.10976
less	-9.11031
▁contribute	-9.11224
▁included	-9.11307
▁stress	-9.1148
▁May	-9.11546
▁fisheries	-9.11571
▁living	-9.11654
▁despite	-9.11724
▁treatment	-9.11727
▁partnership	-9.11894
▁higher	-9.11977
▁Central	-9.12115
▁emissions	-9.12227
po	-9.12243
ence	-9.12255
▁15	-9.12277
▁note	-9.12413
▁immigration	-9.12606
▁along	-9.12715
isation	-9.12977
tic	-9.13024
▁agriculture	-9.13113
▁fellow	-9.13114
▁huge	-9.13118
▁self	-9.13173
▁message	-9.13339
▁nor	-9.13356
▁capacity	-9.13467
▁extent	-9.1358
▁innovation	-9.13723
▁R	-9.13783
▁confidence	-9.13811
▁benefits	-9.13893
▁developed	-9.1393
▁businesses	-9.14101
▁giving	-9.14192
▁supported	-9.14276
ill	-9.14291
▁finally	-9.14327
▁presidency	-9.14378
▁creating	-9.14593
▁summit	-9.1461
▁rates	-9.14692
▁infrastructure	-9.14737
em	-9.14842
▁ban	-9.14853
▁offer	-9.14897
▁completely	-9.14923
▁forces	-9.14955
▁International	-9.15097
▁German	-9.15192
▁ex	-9.1523
om	-9.15251
▁sectors	-9.15284
▁independent	-9.15309
ver	-9.15362
▁received	-9.15627
▁c	-9.15628
▁b	-9.15699
▁Moreover	-9.1572
▁absolutely	-9.15759
▁possibility	-9.15892
▁Conference	-9.15994
▁reference	-9.16046
▁competitiveness	-9.16166
▁supply	-9.16183
▁air	-9.16214
▁personal	-9.16268
▁measure	-9.16379
▁December	-9.16445
▁Republic	-9.16457
▁car	-9.16594
▁Iran	-9.16637
▁hold	-9.16738
ha	-9.16776
▁history	-9.16826
▁De	-9.16903
the	-9.16967
त	-9.17087
▁similar	-9.17149
▁remind	-9.17197
x	-9.17207
"	-9.17353
▁total	-9.17394
▁lot	-9.17561
▁events	-9.17617
E	-9.17619
▁technology	-9.1768
▁First	-9.17801
gu	-9.17977
▁produce	-9.18188
▁created	-9.18414
▁Greece	-9.18511
▁family	-9.18571
ure	-9.18575
▁content	-9.18661
tra	-9.18835
▁knowledge	-9.1899
▁applied	-9.19065
hi	-9.1908
▁ensuring	-9.19275
▁rest	-9.19461
▁date	-9.19502
▁approved	-9.19619
▁proper	-9.19719
▁relevant	-9.19817
▁South	-9.19852
क	-9.2012
▁wrong	-9.2018
▁heard	-9.20269
▁thanks	-9.20284
▁days	-9.20312
▁receive	-9.20336
▁coordination	-9.20423
▁representatives	-9.20453
▁motion	-9.20622
▁monetary	-9.20697
▁met	-9.2082
um	-9.20863
▁practical	-9.20965
▁parliamentary	-9.2106
▁Agreement	-9.21094
va	-9.21156
▁Economic	-9.21385
▁strategic	-9.21388
▁connection	-9.21432
▁maintain	-9.21541
ck	-9.21576
ag	-9.216
▁currency	-9.21662
▁economies	-9.21677
▁assessment	-9.21721
ni	-9.21728
▁damage	-9.21739
▁discuss	-9.2184
▁Russian	-9.21885
▁aimed	-9.22157
▁beginning	-9.22289
▁institutional	-9.22332
▁sitting	-9.22377
▁instead	-9.22434
▁Furthermore	-9.2245
▁trying	-9.22468
▁former	-9.22529
▁discussed	-9.22558
▁status	-9.22776
▁goods	-9.22795
▁culture	-9.22797
▁combat	-9.22892
▁limit	-9.22916
▁annual	-9.23164
ful	-9.23169
▁provision	-9.23175
▁run	-9.23186
▁Now	-9.23312
▁effectively	-9.23359
▁Firstly	-9.23413
▁influence	-9.23448
▁exist	-9.23604
▁considered	-9.23606
▁scientific	-9.23856
▁administration	-9.23871
▁increasingly	-9.24081
▁allowed	-9.24084
▁adoption	-9.24171
▁t	-9.24438
▁beyond	-9.24471
▁successful	-9.2455
▁concept	-9.24634
▁stand	-9.2483
▁party	-9.24897
▁scope	-9.24947
▁humanitarian	-9.25033
▁death	-9.25094
▁decide	-9.25184
▁Today	-9.25193
▁early	-9.25202
▁discussions	-9.25312
▁affected	-9.2536
▁industrial	-9.25401
ak	-9.25434
▁according	-9.25457
▁led	-9.25474
▁precisely	-9.25554
▁People	-9.25585
▁shown	-9.25604
▁conclude	-9.25615
▁lives	-9.25659
▁guidelines	-9.25745
ities	-9.25786
lu	-9.25835
▁carry	-9.25869
▁banks	-9.25976
rs	-9.2614
▁Democrats	-9.26153
▁solutions	-9.26221
▁requires	-9.26249
▁efficiency	-9.26298
▁member	-9.26387
▁export	-9.26521
▁Regulation	-9.26566
▁unacceptable	-9.26631
▁circumstances	-9.26684
▁committed	-9.26829
▁June	-9.27056
▁thought	-9.27334
▁providing	-9.27459
▁discrimination	-9.27595
▁An	-9.27619
min	-9.27675
▁intervention	-9.27753
▁How	-9.27808
▁post	-9.27834
▁relationship	-9.27876
▁difficulties	-9.27945
▁asylum	-9.28064
▁paragraph	-9.28222
▁speech	-9.28308
▁%	-9.28341
▁After	-9.28376
▁gas	-9.28553
▁outcome	-9.28855
R	-9.28879
ty	-9.29028
▁dealing	-9.2906
ry	-9.29117
▁risks	-9.2916
▁W	-9.29234
▁threat	-9.29316
▁goes	-9.29471
▁inter	-9.29696
▁alone	-9.29753
▁improving	-9.29869
▁active	-9.29923
े	-9.29956
▁failure	-9.30009
▁Policy	-9.30186
▁defence	-9.30287
ine	-9.30457
▁opposition	-9.30522
▁origin	-9.30765
▁land	-9.3099
▁participation	-9.31045
▁rural	-9.3118
▁के	-9.31355
▁Some	-9.31551
▁overall	-9.31569
▁enterprises	-9.31644
per	-9.31662
▁H	-9.31682
▁purpose	-9.31773
▁Justice	-9.31861
▁happen	-9.3214
vis	-9.32336
▁considerable	-9.32347
▁WTO	-9.32372
N	-9.3238
▁cut	-9.32446
▁Social	-9.32467
▁respond	-9.32527
▁require	-9.32532
ot	-9.32616
▁Kosovo	-9.32663
▁accepted	-9.32757
▁study	-9.32801
▁leave	-9.32974
▁accordance	-9.33063
▁financing	-9.33101
▁minimum	-9.33197
L	-9.33292
▁police	-9.33301
▁directly	-9.33316
▁takes	-9.33357
▁administrative	-9.3337
▁defend	-9.33465
▁fear	-9.33578
▁provides	-9.33723
way	-9.3374
▁growing	-9.33813
▁burden	-9.33821
▁honourable	-9.33836
▁propose	-9.33868
▁seriously	-9.33907
▁calls	-9.33911
00	-9.33914
▁Even	-9.33987
▁consideration	-9.34022
am	-9.34039
▁border	-9.34189
▁limited	-9.342
G	-9.34292
▁Although	-9.34309
vo	-9.34321
▁entire	-9.34507
▁seem	-9.34608
sh	-9.34885
▁promoting	-9.34904
▁highly	-9.34915
▁Security	-9.35045
▁likely	-9.35065
▁Chinese	-9.35186
go	-9.35232
▁later	-9.35245
▁recognise	-9.35274
▁income	-9.35374
▁Italy	-9.35598
▁remember	-9.35668
▁known	-9.35679
▁plans	-9.35706
▁name	-9.35708
▁expenditure	-9.35716
▁credit	-9.35766
▁duty	-9.35769
▁rightly	-9.36027
▁implementing	-9.36071
▁conference	-9.36159
▁By	-9.36222
▁fall	-9.36383
▁caused	-9.36498
▁complete	-9.36537
▁Brussels	-9.36551
European	-9.36585
▁closely	-9.36657
pa	-9.36699
▁Po	-9.36747
▁chance	-9.36935
▁correct	-9.36969
▁conclusions	-9.3703
▁Middle	-9.37053
ि	-9.37058
▁emphasise	-9.37105
▁competitive	-9.37127
▁comments	-9.37132
▁urgent	-9.37185
▁forms	-9.37214
▁attempt	-9.37307
▁steps	-9.37434
ph	-9.37528
▁ways	-9.37578
▁paid	-9.37633
▁union	-9.37747
▁fiscal	-9.3799
▁stated	-9.37999
ल	-9.38078
▁anything	-9.38136
▁Human	-9.38175
The	-9.38298
making	-9.3831
▁demands	-9.38347
▁Since	-9.38372
▁wanted	-9.38386
▁activity	-9.38485
called	-9.38495
one	-9.38507
▁sort	-9.38545
▁join	-9.38568
▁referred	-9.38598
▁authority	-9.38705
▁January	-9.38736
▁Unfortunately	-9.38773
▁Do	-9.38804
▁useful	-9.38846
▁Euro	-9.38866
▁colleague	-9.38944
▁specifically	-9.38958
di	-9.39023
▁India	-9.39041
▁Palestinian	-9.39113
▁refer	-9.39227
▁sea	-9.39292
▁press	-9.39535
é	-9.39561
▁lower	-9.39773
▁unfortunately	-9.39793
ising	-9.39896
▁Mediterranean	-9.39925
▁sufficient	-9.39948
स	-9.4
▁event	-9.40027
(	-9.40038
com	-9.40222
▁product	-9.40336
▁comment	-9.40348
▁reducing	-9.40355
▁introduction	-9.40411
▁fund	-9.40439
▁setting	-9.4044
▁bear	-9.40518
▁Constitution	-9.40568
▁regret	-9.40783
▁efficient	-9.40801
con	-9.41032
▁dangerous	-9.41185
▁equality	-9.41193
▁represent	-9.41227
▁intended	-9.41237
▁commitments	-9.41531
▁big	-9.41576
▁Spain	-9.417
▁type	-9.41777
▁broad	-9.41864
der	-9.41874
par	-9.42008
pe	-9.42009
▁child	-9.42133
▁alternative	-9.42135
▁V	-9.42182
▁views	-9.42186
▁probably	-9.4219
▁whom	-9.42211
▁Ukraine	-9.42455
▁shows	-9.42466
▁modern	-9.4268
▁North	-9.42681
▁urge	-9.42879
▁Japan	-9.42946
▁La	-9.4307
▁produced	-9.43083
ex	-9.43121
▁domestic	-9.43235
▁trust	-9.4332
▁happened	-9.43393
▁enormous	-9.4356
▁candidate	-9.43604
▁2008	-9.43607
▁aspect	-9.4376
▁improved	-9.43784
ac	-9.43847
▁Summit	-9.43944
▁introduce	-9.44058
▁building	-9.44106
▁animal	-9.44112
▁bodies	-9.44155
ca	-9.44438
▁v	-9.44495
▁becoming	-9.44505
▁election	-9.44535
▁weeks	-9.44741
▁consultation	-9.44789
▁sometimes	-9.44813
sized	-9.44894
H	-9.44903
▁Pa	-9.44905
▁language	-9.45075
▁2004	-9.45169
ts	-9.45226
▁genuine	-9.45236
red	-9.45436
▁supporting	-9.45486
▁myself	-9.4565
▁March	-9.45663
▁establishing	-9.45699
▁build	-9.45721
▁comprehensive	-9.45787
▁critical	-9.45807
▁properly	-9.45897
▁raise	-9.45959
bi	-9.46018
▁exercise	-9.46023
▁reduced	-9.46128
▁spending	-9.46191
▁standard	-9.46195
▁UK	-9.46222
▁word	-9.46223
▁ambitious	-9.46298
▁earlier	-9.46318
▁2009	-9.46547
ke	-9.4656
▁age	-9.46679
▁ground	-9.46688
▁gain	-9.46695
▁2010	-9.46724
▁Irish	-9.46752
▁structure	-9.46771
▁serve	-9.46797
▁Prime	-9.4688
▁represents	-9.46923
▁transfer	-9.47025
▁calling	-9.47101
▁2007	-9.47131
▁commercial	-9.47218
▁Mar	-9.47258
▁Internet	-9.47307
▁bo	-9.47344
▁September	-9.47347
▁producers	-9.47422
ns	-9.47449
ions	-9.47467
▁negative	-9.47486
▁13	-9.47519
▁Environment	-9.47526
▁speaking	-9.47535
▁counter	-9.47605
▁explain	-9.47663
▁consensus	-9.47725
▁Ba	-9.4781
▁contrary	-9.47965
▁appeal	-9.48086
▁achieving	-9.48206
▁strengthening	-9.48215
▁forget	-9.48249
▁dimension	-9.48266
op	-9.48312
▁came	-9.4832
▁facing	-9.48367
▁reject	-9.48384
▁establishment	-9.48405
▁25	-9.48464
▁thinking	-9.48502
▁definition	-9.48507
ward	-9.48558
▁Many	-9.48666
▁yesterday	-9.48709
▁seek	-9.48765
▁ma	-9.48831
ru	-9.48886
▁send	-9.48908
line	-9.48929
20	-9.48941
▁spirit	-9.49072
▁leading	-9.4917
▁30	-9.4918
▁read	-9.49184
ning	-9.49188
▁sanctions	-9.49431
qu	-9.49446
▁hear	-9.49674
▁evidence	-9.49682
▁method	-9.49686
▁insist	-9.49914
▁discussing	-9.50004
▁Western	-9.50009
▁Foreign	-9.50049
▁manner	-9.50075
mi	-9.5008
cu	-9.50107
▁Spanish	-9.50151
▁entirely	-9.50195
▁obviously	-9.50292
▁analysis	-9.50335
▁differences	-9.50369
he	-9.50376
▁Minutes	-9.50397
▁voice	-9.50397
les	-9.50472
▁finance	-9.50508
▁lost	-9.50541
▁company	-9.50582
▁Green	-9.50632
▁secure	-9.50665
▁animals	-9.50669
▁looking	-9.50696
land	-9.50702
▁While	-9.50705
प	-9.50817
▁Rules	-9.50871
▁governance	-9.50957
▁Ha	-9.5096
▁convinced	-9.50967
ten	-9.51015
border	-9.51028
▁2006	-9.51102
da	-9.51207
▁else	-9.51468
ap	-9.51536
out	-9.51606
▁staff	-9.51614
▁sources	-9.51637
▁sound	-9.5176
▁attitude	-9.51801
▁failed	-9.51817
▁recognition	-9.51885
▁campaign	-9.51903
ative	-9.52013
▁l	-9.52036
▁Yet	-9.52093
ight	-9.52269
fi	-9.5227
responsibilities	-9.52511
▁1999	-9.52555
▁Nevertheless	-9.52574
▁mandate	-9.52701
▁elements	-9.52721
ations	-9.52729
▁organisation	-9.52779
▁weapons	-9.52868
▁network	-9.52968
▁simple	-9.53054
▁body	-9.53103
ized	-9.53177
▁visit	-9.53218
FR	-9.53504
▁complex	-9.53531
od	-9.53703
▁balanced	-9.53815
▁refugees	-9.53839
▁Why	-9.53846
▁choice	-9.53934
ability	-9.53948
▁acceptable	-9.53953
▁politics	-9.54031
▁introduced	-9.54096
▁18	-9.54159
res	-9.54179
▁2005	-9.54258
▁closer	-9.54313
▁aims	-9.54396
▁gives	-9.54528
do	-9.5454
▁statements	-9.54625
▁Asia	-9.5469
▁Italian	-9.54843
▁official	-9.549
▁perspective	-9.54954
ish	-9.54981
▁heart	-9.54987
▁concrete	-9.55014
ists	-9.55181
▁constructive	-9.55213
▁attack	-9.55216
▁Kingdom	-9.55229
▁GDP	-9.55234
▁worse	-9.55359
▁ideas	-9.55467
▁person	-9.55488
▁speed	-9.55513
▁added	-9.55554
▁easy	-9.55661
ization	-9.55663
▁prevention	-9.55724
▁comp	-9.55757
▁laws	-9.55947
▁sub	-9.5598
▁merely	-9.55985
▁degree	-9.56072
▁criticism	-9.56203
ho	-9.56281
sa	-9.56362
.”	-9.56364
▁cr	-9.56413
▁office	-9.56519
▁networks	-9.56579
▁signal	-9.56646
▁agencies	-9.5666
ों	-9.56695
▁ahead	-9.56809
ec	-9.56818
▁wants	-9.56848
iv	-9.5689
▁L	-9.56894
▁transparent	-9.56923
tu	-9.56927
mer	-9.57118
्	-9.57315
▁mechanism	-9.57427
▁flexibility	-9.57449
▁strongly	-9.577
▁delegation	-9.57786
▁parts	-9.57809
che	-9.5785
▁November	-9.57979
▁African	-9.58082
▁targets	-9.58115
▁repeat	-9.58117
nd	-9.58219
ं	-9.58292
▁14	-9.58341
▁exactly	-9.58365
▁elected	-9.58379
▁combating	-9.58413
▁opening	-9.58414
▁safe	-9.58525
▁instance	-9.58535
▁pointed	-9.58603
▁developments	-9.5866
▁professional	-9.58675
▁St	-9.58725
▁po	-9.58742
▁institution	-9.58837
▁documents	-9.58918
▁asking	-9.58956
▁advantage	-9.58982
▁century	-9.59047
▁independence	-9.59181
▁man	-9.59185
▁unable	-9.59199
▁factor	-9.59356
▁liberalisation	-9.59392
▁firstly	-9.594
son	-9.59419
▁West	-9.59449
ring	-9.59461
▁Trade	-9.59497
▁appear	-9.59497
▁practices	-9.59503
▁impossible	-9.59517
▁w	-9.59563
▁se	-9.59623
▁discharge	-9.59697
▁extend	-9.59701
▁Bo	-9.59766
▁methods	-9.59806
▁pass	-9.59883
▁highlight	-9.59899
▁confirm	-9.59955
ह	-9.59974
▁thousands	-9.59977
▁bad	-9.60059
▁target	-9.60065
▁Ca	-9.6019
pp	-9.60233
▁understanding	-9.60278
▁base	-9.6031
be	-9.60465
ber	-9.6049
▁sign	-9.60569
▁head	-9.60662
▁drawn	-9.60672
▁late	-9.60834
▁multi	-9.60874
▁2003	-9.60899
▁immediately	-9.60935
▁desire	-9.60955
▁managed	-9.61051
▁Israeli	-9.61082
▁recommendations	-9.61085
▁disaster	-9.6114
▁renewable	-9.61176
ory	-9.61184
▁goal	-9.61207
▁applies	-9.61217
▁mainly	-9.6137
▁J	-9.61412
).	-9.61432
▁technologies	-9.61767
▁morning	-9.61905
▁substantial	-9.61952
▁addressed	-9.62053
▁integrated	-9.62129
▁improvement	-9.62133
▁putting	-9.62197
▁traditional	-9.622
▁conduct	-9.62267
▁mis	-9.62379
▁forced	-9.6245
▁2001	-9.62525
▁consumption	-9.62551
▁ability	-9.62635
ou	-9.62709
▁New	-9.6277
▁Romania	-9.62809
▁laid	-9.62914
▁obvious	-9.62926
▁expression	-9.6299
ping	-9.63022
tri	-9.63181
▁membership	-9.63187
▁path	-9.632
▁Such	-9.63245
▁Turkish	-9.63295
▁Monetary	-9.63319
▁enter	-9.63361
▁politicians	-9.63426
▁resolve	-9.63499
▁Greek	-9.63552
▁mutual	-9.6358
▁disease	-9.63654
▁im	-9.63659
▁rich	-9.63841
▁travel	-9.63845
ding	-9.63988
▁Question	-9.64045
▁continuing	-9.64068
▁separate	-9.64139
▁table	-9.64182
▁obligations	-9.64333
▁wide	-9.64458
▁2002	-9.64532
▁fish	-9.64581
▁Co	-9.64754
▁Procedure	-9.64776
▁participate	-9.64824
▁dealt	-9.64829
▁operate	-9.64895
▁fraud	-9.6499
▁continent	-9.65014
▁happy	-9.65014
▁informed	-9.65147
ud	-9.65228
▁submitted	-9.65235
ner	-9.65382
▁mechanisms	-9.65418
▁October	-9.65489
▁reply	-9.65633
▁intention	-9.65692
▁According	-9.65722
▁says	-9.65963
▁Paper	-9.65979
▁told	-9.66009
▁Health	-9.66112
▁MEPs	-9.66132
▁Ro	-9.6614
▁immediate	-9.66216
▁sensitive	-9.6622
▁operation	-9.6629
▁signed	-9.66293
▁cover	-9.66355
▁rejected	-9.66376
▁parliaments	-9.66413
▁Ministers	-9.66433
▁followed	-9.66519
▁treaty	-9.66592
si	-9.66873
▁permanent	-9.66907
▁emphasis	-9.67016
▁expected	-9.67082
▁Afghanistan	-9.6744
▁religious	-9.6744
ably	-9.67449
▁month	-9.67472
▁reflect	-9.6753
▁mission	-9.67585
▁en	-9.67715
▁Charter	-9.67855
▁recovery	-9.67888
▁families	-9.67904
▁स	-9.67936
▁record	-9.6796
▁worked	-9.68065
▁Li	-9.68096
j	-9.68104
▁affairs	-9.68307
▁talks	-9.68398
▁Agency	-9.68443
▁Poland	-9.68453
men	-9.68476
▁link	-9.68494
▁Le	-9.68519
▁test	-9.68561
▁Belarus	-9.68565
▁contains	-9.68601
▁payments	-9.68616
▁Ladies	-9.68639
▁figures	-9.68732
tre	-9.68834
▁promotion	-9.68935
▁NATO	-9.69009
ize	-9.69018
▁Programme	-9.69083
▁War	-9.69254
▁gr	-9.69304
ious	-9.69364
▁bank	-9.69456
▁ba	-9.69467
▁inform	-9.69481
▁trans	-9.69494
▁territory	-9.69529
▁related	-9.69616
▁includes	-9.69648
▁adequate	-9.69743
▁cl	-9.69882
▁getting	-9.70005
▁comply	-9.70062
▁bringing	-9.70063
▁inflation	-9.70078
du	-9.70174
▁Strategy	-9.70377
▁round	-9.70492
▁16	-9.70581
▁manage	-9.70587
▁author	-9.70612
▁Mo	-9.70634
▁organised	-9.70661
▁17	-9.70698
▁prove	-9.70727
ard	-9.7086
▁suggest	-9.70932
▁है	-9.71025
gen	-9.71045
▁sides	-9.71049
▁rapporteurs	-9.71153
▁officials	-9.71229
mit	-9.71288
ens	-9.71309
▁Con	-9.71322
bu	-9.71364
▁drugs	-9.71402
▁delay	-9.71437
▁seeking	-9.71473
▁Portugal	-9.71486
▁opposed	-9.71549
▁rapid	-9.71579
▁intend	-9.71581
▁greatest	-9.7162
▁thereby	-9.71748
▁traffic	-9.7176
▁ha	-9.71846
os	-9.7187
▁subsidies	-9.71892
▁liberal	-9.71892
▁positions	-9.71995
▁advance	-9.72029
▁danger	-9.72078
▁Chamber	-9.72095
▁ought	-9.72122
ient	-9.72223
▁truly	-9.72299
▁में	-9.72436
▁mark	-9.72548
▁bilateral	-9.72556
▁spent	-9.72581
▁actual	-9.726
side	-9.72668
▁faced	-9.7267
▁persons	-9.7272
PL	-9.7283
fe	-9.72864
▁ready	-9.72889
▁lose	-9.72934
ical	-9.7302
▁changed	-9.73075
▁referendum	-9.7312
▁range	-9.73181
▁facilitate	-9.73223
▁Amsterdam	-9.733
म	-9.73378
▁shared	-9.73446
▁guarantees	-9.73459
▁average	-9.7361
▁suffering	-9.73632
▁nations	-9.73669
▁board	-9.73672
▁linked	-9.7373
▁Pact	-9.73779
▁source	-9.73917
▁controls	-9.74036
▁element	-9.74051
▁lines	-9.74076
mb	-9.74139
▁directives	-9.74152
▁attacks	-9.74171
▁wishes	-9.74365
▁Al	-9.74488
▁la	-9.74654
Applause	-9.74755
▁designed	-9.74796
pi	-9.74803
▁original	-9.74827
U	-9.74855
und	-9.74912
▁endorse	-9.74929
▁trafficking	-9.74969
▁proceed	-9.74986
based	-9.75001
▁Be	-9.75074
▁communities	-9.75096
▁totally	-9.75096
▁involvement	-9.75097
▁July	-9.75133
▁Bulgaria	-9.75253
▁Cyprus	-9.7528
▁2020	-9.75323
▁worth	-9.75357
▁impose	-9.75534
io	-9.7558
▁recommendation	-9.75675
▁Eastern	-9.75781
ments	-9.75823
▁happening	-9.75959
▁Ra	-9.75961
▁subsidiarity	-9.76072
▁50	-9.76078
▁leadership	-9.76129
▁involving	-9.76151
au	-9.76171
▁appears	-9.76405
rt	-9.76422
▁General	-9.76473
ng	-9.76686
▁affect	-9.7676
▁Sweden	-9.76817
▁starting	-9.76845
cur	-9.76861
▁granted	-9.76916
▁Schengen	-9.76924
▁Di	-9.76989
▁Roma	-9.77022
▁Pakistan	-9.77031
ite	-9.77111
▁evaluation	-9.77245
▁speakers	-9.77357
▁fail	-9.77363
▁tackle	-9.77482
ba	-9.77647
▁anyone	-9.77776
▁grateful	-9.7781
▁presence	-9.77811
▁Only	-9.77905
▁terrorist	-9.77957
▁claim	-9.77991
▁Arab	-9.78024
▁minority	-9.78044
▁scale	-9.78114
▁Amendments	-9.7813
▁protecting	-9.78211
▁neither	-9.78243
ga	-9.7833
▁break	-9.78512
lic	-9.78517
sp	-9.78529
EC	-9.78758
▁k	-9.78769
▁moral	-9.78879
rate	-9.79002
▁factors	-9.79016
▁credibility	-9.79032
▁minorities	-9.79037
▁21	-9.79067
▁SMEs	-9.79168
▁Structural	-9.79196
▁tr	-9.79253
▁invest	-9.7931
▁Public	-9.79415
ship	-9.79505
▁gender	-9.79525
ff	-9.79545
ang	-9.79547
▁adopting	-9.79573
▁mass	-9.79587
ever	-9.79599
▁resolutions	-9.79639
▁peaceful	-9.79648
▁continues	-9.79657
▁vision	-9.79745
▁tourism	-9.79774
▁arms	-9.79828
IT	-9.79889
▁decades	-9.80053
▁limits	-9.80204
▁collective	-9.8022
ka	-9.80235
▁structures	-9.80329
ie	-9.80344
▁session	-9.80418
▁acts	-9.8042
▁pollution	-9.80435
▁Thirdly	-9.80438
▁firm	-9.80492
▁Sea	-9.80593
▁causes	-9.80655
▁diversity	-9.80656
▁otherwise	-9.80656
▁carefully	-9.80659
▁involve	-9.80852
▁started	-9.80882
▁patent	-9.8099
pro	-9.81017
▁Ka	-9.81069
ging	-9.81184
▁welfare	-9.81185
▁deficit	-9.81191
▁Those	-9.81213
▁series	-9.81218
▁interesting	-9.81246
▁letter	-9.81253
▁option	-9.81294
▁gave	-9.81305
▁fuel	-9.81335
▁wealth	-9.81384
▁goals	-9.81565
all	-9.8168
▁deliver	-9.8188
▁constitution	-9.8194
▁condemn	-9.81945
▁taxes	-9.81959
▁safeguard	-9.82063
ES	-9.82121
▁pillar	-9.82251
▁protest	-9.82251
▁From	-9.82308
istic	-9.8231
▁appreciate	-9.82336
▁corruption	-9.82344
▁April	-9.82421
▁27	-9.82521
▁covered	-9.82558
▁spread	-9.82562
amp	-9.82626
▁Not	-9.82654
▁mobility	-9.8276
▁monitor	-9.82774
▁paper	-9.82817
▁N	-9.82839
▁planning	-9.82899
▁plenary	-9.8293
▁regulatory	-9.83012
▁substances	-9.83086
▁Budget	-9.83196
▁reasonable	-9.83201
▁constitutional	-9.83217
▁generally	-9.83405
we	-9.83551
▁immigrants	-9.83688
ack	-9.83714
ster	-9.83742
▁continued	-9.83834
▁solve	-9.8384
▁wonder	-9.83866
▁Given	-9.83958
▁consistent	-9.84038
▁taxation	-9.84044
▁investments	-9.84046
▁floor	-9.84073
▁approval	-9.84097
▁recognised	-9.84159
▁Swedish	-9.84188
oc	-9.8423
▁ra	-9.84293
▁initial	-9.84318
V	-9.84345
▁Funds	-9.84396
▁lies	-9.84403
▁votes	-9.84484
▁Energy	-9.84505
र्	-9.84535
▁easier	-9.84562
ld	-9.84626
▁hours	-9.84769
▁detailed	-9.84821
▁1.	-9.84905
▁fulfil	-9.84973
▁debates	-9.8499
▁depend	-9.84992
▁naturally	-9.85076
▁employees	-9.85138
▁decisive	-9.85228
▁proposing	-9.85318
part	-9.85429
lar	-9.85454
▁Korea	-9.85466
▁material	-9.85479
▁arrangements	-9.85607
▁1998	-9.85607
▁meetings	-9.85706
▁detail	-9.85806
ob	-9.85841
▁vehicles	-9.85847
ue	-9.85995
▁legitimate	-9.86016
▁construction	-9.86058
5%	-9.86226
▁truth	-9.86251
▁representative	-9.86293
▁binding	-9.86398
▁globalisation	-9.86468
▁moving	-9.86545
▁sent	-9.86568
▁competence	-9.86581
▁imposed	-9.86584
▁judicial	-9.867
▁normal	-9.86739
▁seven	-9.86871
▁suffer	-9.86878
▁phase	-9.86928
ble	-9.86981
act	-9.87103
▁react	-9.87212
▁obtain	-9.87384
▁encouraging	-9.87491
▁enjoy	-9.87646
▁abuse	-9.87672
▁fighting	-9.87749
▁top	-9.87829
▁loss	-9.88007
▁ethnic	-9.88171
▁rail	-9.88285
▁II	-9.88332
▁zone	-9.88357
01	-9.88379
ton	-9.88379
▁improvements	-9.88432
▁grant	-9.88474
▁largely	-9.88594
▁Czech	-9.88627
▁Christian	-9.88686
▁court	-9.88729
▁entry	-9.88748
▁difference	-9.88765
wa	-9.88959
▁experts	-9.88965
▁citizen	-9.88967
▁declaration	-9.88972
▁acknowledge	-9.89006
▁equally	-9.89032
▁Da	-9.89075
▁gap	-9.89173
▁largest	-9.89315
▁compensation	-9.89351
▁learn	-9.89358
▁obligation	-9.89495
▁ultimately	-9.89558
▁harmonisation	-9.89654
▁Instead	-9.89685
▁Bush	-9.89972
▁crimes	-9.89986
▁helping	-9.90002
▁committees	-9.90052
ub	-9.90071
▁lay	-9.90075
▁grounds	-9.90086
▁ACP	-9.90142
▁Despite	-9.90172
over	-9.9019
▁diseases	-9.90315
▁restrictions	-9.90319
▁save	-9.90326
ification	-9.90343
▁Latin	-9.90356
▁tried	-9.90388
▁Auditors	-9.90417
▁migration	-9.90417
▁partner	-9.90529
▁near	-9.90567
▁fe	-9.90575
ki	-9.90652
▁individuals	-9.90691
▁Pro	-9.90855
ces	-9.90855
▁ho	-9.90953
▁count	-9.91088
▁massive	-9.91239
▁succeed	-9.91294
▁operations	-9.91308
▁technological	-9.91308
▁trading	-9.91308
▁check	-9.91361
▁conflicts	-9.91403
▁te	-9.91571
▁universal	-9.91617
▁occasion	-9.91644
▁associated	-9.91738
▁Nos	-9.91739
▁millions	-9.91744
▁capable	-9.91783
▁Research	-9.91803
▁More	-9.9182
▁Market	-9.91834
▁emerging	-9.91866
▁situations	-9.91873
▁amongst	-9.91908
▁flexible	-9.92052
▁Rule	-9.9217
▁maximum	-9.92303
▁Or	-9.92322
imp	-9.92356
▁Britain	-9.92364
▁Barroso	-9.92457
▁allowing	-9.9246
har	-9.92484
▁tobacco	-9.92488
▁Can	-9.92558
fa	-9.92564
▁distribution	-9.92582
▁assist	-9.92641
▁Stability	-9.92811
▁Perhaps	-9.92927
▁pension	-9.92937
▁reaction	-9.92986
▁boost	-9.9299
PT	-9.93034
▁defined	-9.93052
▁sexual	-9.93084
ach	-9.93088
▁negotiating	-9.93115
▁block	-9.93276
▁glad	-9.93344
▁1997	-9.93362
▁Copenhagen	-9.93367
▁spoke	-9.93371
our	-9.93452
▁Netherlands	-9.93462
ified	-9.93544
▁demonstrated	-9.9362
▁Another	-9.93717
▁nation	-9.93816
gi	-9.93836
▁CO	-9.9386
▁Socialist	-9.93873
▁identify	-9.93873
▁bi	-9.93905
▁adapt	-9.93927
str	-9.93996
ible	-9.94022
year	-9.9407
▁president	-9.94145
▁fine	-9.94153
िक	-9.94477
▁की	-9.94487
▁contributions	-9.94605
▁space	-9.94636
▁oral	-9.94651
qui	-9.94791
▁Georgia	-9.9486
▁Agriculture	-9.94988
▁speaker	-9.94993
▁Vice	-9.95012
▁placed	-9.95027
▁Com	-9.95135
ने	-9.95145
▁Se	-9.95157
▁prosperity	-9.95244
▁exports	-9.95279
kan	-9.95292
▁proportion	-9.95323
ron	-9.95372
▁shift	-9.95373
▁pursue	-9.95437
▁respected	-9.95437
▁vulnerable	-9.95469
ump	-9.95477
▁demonstrate	-9.9556
▁imports	-9.95565
ger	-9.95611
ip	-9.95611
▁requirement	-9.95712
▁industries	-9.95824
▁languages	-9.9584
▁overcome	-9.95857
▁visa	-9.95889
▁holding	-9.95951
▁extra	-9.95961
▁excessive	-9.95964
▁import	-9.95993
▁retain	-9.96083
▁cooperate	-9.9618
ab	-9.96199
▁insurance	-9.96213
gan	-9.96304
▁Financial	-9.96375
▁inclusion	-9.96375
▁property	-9.96395
▁feed	-9.96428
▁clean	-9.96538
▁interested	-9.96615
cing	-9.9672
que	-9.96757
▁i	-9.96776
▁stock	-9.96779
▁via	-9.97003
▁slow	-9.97024
▁existence	-9.97082
▁resolved	-9.97134
port	-9.97233
▁stronger	-9.9729
▁topic	-9.97307
▁numerous	-9.97354
▁whilst	-9.97354
▁played	-9.97362
▁Because	-9.97387
ants	-9.97391
sk	-9.97502
▁port	-9.97528
pat	-9.97637
▁pe	-9.97735
for	-9.97746
▁approve	-9.97752
▁effectiveness	-9.97796
▁radical	-9.97815
▁guaranteed	-9.97818
W	-9.97866
▁compared	-9.9787
▁Austria	-9.97925
▁strict	-9.98038
▁PPE	-9.98078
▁U	-9.98188
▁unless	-9.98259
emb	-9.9837
▁delighted	-9.98476
rd	-9.98493
▁supposed	-9.985
▁awareness	-9.98504
▁High	-9.98547
ev	-9.98573
▁Baltic	-9.98642
▁transition	-9.98689
▁exists	-9.98758
▁weak	-9.9884
▁powerful	-9.99031
▁primarily	-9.99075
▁expectations	-9.99165
ier	-9.99216
▁formal	-9.99225
▁forthcoming	-9.99309
▁compliance	-9.994
▁payment	-9.99406
▁Legal	-9.99476
pri	-9.99488
▁whatever	-9.99498
▁Br	-9.99536
▁multilateral	-9.99544
▁Consumer	-9.99744
▁temporary	-9.99812
▁Here	-9.99926
▁functioning	-9.99991
▁murder	-10.0001
▁function	-10.0003
▁deep	-10.0011
▁purposes	-10.0018
▁arise	-10.0024
▁double	-10.0029
▁freedoms	-10.0036
ned	-10.0039
▁concluded	-10.0042
▁define	-10.0046
▁personally	-10.005
▁examine	-10.0054
▁protected	-10.0055
▁maritime	-10.0066
fer	-10.0066
king	-10.0072
▁school	-10.0073
val	-10.0077
▁clarify	-10.0083
▁island	-10.0084
▁Croatia	-10.0086
▁February	-10.0086
▁got	-10.0086
▁underline	-10.0088
▁voluntary	-10.0093
▁written	-10.01
President	-10.0103
▁ministers	-10.0108
▁highest	-10.012
▁ECB	-10.0125
▁scheme	-10.0125
▁passed	-10.0129
▁proposes	-10.0134
▁Action	-10.014
▁latest	-10.0141
▁amounts	-10.0167
▁customs	-10.0169
▁Agenda	-10.0171
▁tasks	-10.018
▁justified	-10.0182
▁disasters	-10.0193
hy	-10.0199
▁hands	-10.0209
▁grow	-10.021
▁labelling	-10.0213
▁Fa	-10.0213
▁announced	-10.0231
nt	-10.0235
▁gone	-10.0236
▁appropriations	-10.024
▁elsewhere	-10.024
▁sport	-10.0242
▁article	-10.025
▁politically	-10.0255
▁Strasbourg	-10.0257
ral	-10.0265
▁Luxembourg	-10.0275
▁emergency	-10.0275
▁design	-10.0276
50	-10.0277
य	-10.0278
▁launch	-10.029
▁Dutch	-10.0292
▁Balkans	-10.0293
▁treated	-10.0293
▁evening	-10.03
▁prison	-10.0305
▁argument	-10.0318
▁restore	-10.0319
▁entitled	-10.032
▁extended	-10.0322
▁Portuguese	-10.0334
▁latter	-10.0341
▁Ch	-10.0346
▁contain	-10.0347
▁stable	-10.0352
rm	-10.0362
▁Framework	-10.0375
fin	-10.0376
▁Lo	-10.0394
▁realise	-10.0403
▁Sa	-10.0405
▁Dur	-10.0408
▁sum	-10.0411
▁Obama	-10.0414
▁revision	-10.0414
▁assure	-10.0425
▁code	-10.0425
▁firms	-10.0425
▁contained	-10.0426
▁decline	-10.0428
▁electronic	-10.0435
▁historical	-10.045
▁dignity	-10.0453
▁eight	-10.0459
▁eurozone	-10.046
▁realistic	-10.0464
▁ca	-10.0465
▁front	-10.047
▁sovereignty	-10.0471
▁win	-10.0475
▁prepare	-10.0483
▁planned	-10.0483
▁na	-10.0501
▁determined	-10.0501
▁Ex	-10.0503
▁occasions	-10.0506
▁relative	-10.0517
▁100	-10.0518
▁ECU	-10.0524
्य	-10.0527
▁somewhat	-10.0531
▁assume	-10.0532
pre	-10.0533
▁wine	-10.0542
▁remarks	-10.0555
ven	-10.0557
▁substance	-10.0561
ition	-10.0562
▁happens	-10.0564
▁size	-10.0565
▁involves	-10.0566
▁choose	-10.0566
▁leader	-10.057
▁brief	-10.0575
▁Assembly	-10.0577
▁offers	-10.0578
tor	-10.0583
▁studies	-10.0588
30	-10.0597
▁Budgets	-10.0601
▁version	-10.0602
ok	-10.0613
ze	-10.0616
▁Muslim	-10.0621
▁significantly	-10.0626
▁operators	-10.0626
▁absence	-10.063
▁Nor	-10.0634
▁strategies	-10.0638
▁wait	-10.0638
▁USA	-10.064
▁passengers	-10.0646
▁centre	-10.0664
▁supports	-10.0673
log	-10.0675
ो	-10.0678
▁processes	-10.0689
fo	-10.0692
▁allocated	-10.07
▁described	-10.0702
▁violations	-10.0704
lin	-10.0717
▁impression	-10.0717
▁strike	-10.0721
▁contact	-10.0721
▁ch	-10.0729
▁barriers	-10.0731
▁National	-10.0731
▁electricity	-10.0736
▁drug	-10.074
▁preventing	-10.0744
▁unfair	-10.075
▁statistics	-10.0753
ai	-10.0755
▁feeling	-10.0758
▁parliament	-10.0775
nu	-10.0781
▁kept	-10.0782
▁historic	-10.0785
▁expense	-10.079
▁den	-10.0791
▁hearing	-10.08
▁keeping	-10.081
▁restructuring	-10.0816
▁honour	-10.0816
▁Lastly	-10.0827
▁obstacles	-10.0831
▁firmly	-10.0836
02	-10.084
व	-10.0851
▁को	-10.0851
ates	-10.0852
▁EC	-10.0858
▁identity	-10.0859
ju	-10.0861
▁Thus	-10.0864
▁sentence	-10.0871
▁contract	-10.0873
▁Ombudsman	-10.0877
▁Women	-10.0885
▁Soviet	-10.0886
▁undoubtedly	-10.0892
▁Treaties	-10.0896
use	-10.0903
▁Putin	-10.0907
▁Serbia	-10.0908
ped	-10.0913
▁prefer	-10.0914
▁honest	-10.0918
▁medical	-10.0918
uc	-10.0918
▁Tr	-10.0919
ow	-10.0923
▁Americans	-10.0926
▁accounts	-10.0936
▁Sch	-10.0937
ration	-10.0938
ja	-10.0939
▁40	-10.0965
▁societies	-10.0966
ile	-10.0968
COM	-10.0979
▁helped	-10.098
▁mid	-10.0981
▁room	-10.0985
▁published	-10.0987
▁Under	-10.0989
▁Report	-10.099
▁peoples	-10.0993
▁primary	-10.0996
▁please	-10.0996
▁Over	-10.1
▁farming	-10.1
▁opinions	-10.1001
mil	-10.1002
cent	-10.1002
▁sensible	-10.1003
▁indicate	-10.1006
▁Organisation	-10.1014
▁से	-10.1024
▁rising	-10.1033
▁ongoing	-10.1034
▁spend	-10.1035
▁agency	-10.1041
▁preparing	-10.1048
by	-10.1051
ric	-10.1053
▁revenue	-10.1056
▁operating	-10.1063
▁arguments	-10.1065
▁maintaining	-10.1066
▁permit	-10.1068
tro	-10.1078
▁intellectual	-10.1086
द	-10.1088
▁built	-10.1089
▁urgently	-10.1093
K	-10.1105
Y	-10.1107
▁exclusion	-10.1112
▁clause	-10.1123
▁nevertheless	-10.1123
▁extension	-10.1127
5-	-10.113
▁CAP	-10.1138
▁plant	-10.1142
▁1996	-10.1155
ice	-10.1159
▁considering	-10.116
▁eliminate	-10.1161
▁extreme	-10.1164
▁condition	-10.1178
▁stocks	-10.1178
▁contracts	-10.118
▁Last	-10.1182
▁religion	-10.1184
▁offered	-10.1185
▁settlement	-10.1192
▁changing	-10.1195
scale	-10.1197
ey	-10.1204
▁urban	-10.1206
▁drawing	-10.1208
▁science	-10.121
▁Secretary	-10.1214
▁Brazil	-10.1214
▁Fundamental	-10.1225
▁became	-10.1229
▁Will	-10.123
▁interpretation	-10.1232
▁regular	-10.1232
▁constantly	-10.1235
▁Prodi	-10.1242
light	-10.1247
▁diplomatic	-10.1248
▁NGOs	-10.1259
▁penalty	-10.126
▁requested	-10.1263
▁Transport	-10.1264
▁recommend	-10.1267
▁recall	-10.1268
▁Vi	-10.1274
▁stake	-10.1277
▁Then	-10.128
▁represented	-10.1283
▁proved	-10.1289
▁knows	-10.1289
▁courage	-10.1297
▁profit	-10.13
▁strengthened	-10.1314
▁dependent	-10.1317
so	-10.1321
▁innovative	-10.1321
▁deadline	-10.1322
arch	-10.1328
▁cuts	-10.1331
▁quotas	-10.1333
▁equipment	-10.1337
ez	-10.1339
▁operational	-10.1339
▁worldwide	-10.1341
▁allows	-10.1342
▁Alliance	-10.1344
▁trial	-10.1354
▁resulting	-10.1356
mm	-10.1358
▁convergence	-10.1367
▁constitute	-10.1367
▁association	-10.1371
▁duties	-10.1371
▁details	-10.1372
▁Islamic	-10.1373
▁patients	-10.1378
▁Na	-10.1378
▁felt	-10.1391
▁types	-10.1392
ple	-10.1395
▁performance	-10.1396
▁collapse	-10.1398
▁th	-10.1399
▁generation	-10.1401
▁door	-10.1404
▁apart	-10.1409
▁himself	-10.1414
▁tend	-10.1427
▁investors	-10.1427
▁spoken	-10.1429
▁team	-10.143
▁revolution	-10.1433
▁figure	-10.1438
▁root	-10.1439
▁cities	-10.144
▁weaken	-10.1449
▁White	-10.1449
▁driving	-10.146
▁IMF	-10.1464
▁understood	-10.1468
▁ones	-10.1481
▁undermine	-10.1492
▁proceedings	-10.1496
ug	-10.1498
bo	-10.1523
▁crises	-10.1523
▁precise	-10.1527
unt	-10.1533
▁finding	-10.1537
ee	-10.1542
tter	-10.155
▁fishermen	-10.1554
▁ratification	-10.1554
▁applying	-10.1557
▁Hungarian	-10.1558
▁belief	-10.1558
ज	-10.1559
▁secondly	-10.1566
▁coherent	-10.1574
▁fleet	-10.1575
▁strength	-10.1576
put	-10.1586
▁rapidly	-10.1587
▁Fisheries	-10.1602
▁stay	-10.1603
▁easily	-10.1606
ah	-10.161
▁confirmed	-10.1612
sur	-10.1619
▁destruction	-10.1621
▁running	-10.1623
▁dynamic	-10.1633
▁territorial	-10.1637
▁bomb	-10.1646
mar	-10.1648
▁1990	-10.1649
▁introducing	-10.1649
▁train	-10.1649
▁partly	-10.165
ick	-10.1671
time	-10.1677
▁saw	-10.1677
▁enhance	-10.1678
▁j	-10.168
▁coordinated	-10.1682
▁assess	-10.1687
्र	-10.1693
▁went	-10.1694
▁materials	-10.1695
▁prospect	-10.1714
tive	-10.1716
▁unit	-10.1719
▁o	-10.1723
▁united	-10.1726
▁bio	-10.1726
▁shadow	-10.1733
▁van	-10.1734
▁relates	-10.1736
▁minutes	-10.1742
▁began	-10.1756
▁exploitation	-10.1756
▁examples	-10.1764
▁uniform	-10.1765
▁willing	-10.1776
▁behaviour	-10.1781
cer	-10.1783
▁Constitutional	-10.1783
▁secret	-10.1785
▁Bar	-10.1792
▁quote	-10.1796
-20	-10.1797
▁supervision	-10.1797
▁buy	-10.1798
▁determine	-10.1798
▁codecision	-10.1802
▁stands	-10.1808
des	-10.1809
izing	-10.1817
▁piece	-10.1817
▁savings	-10.182
General	-10.1825
▁24	-10.1826
,”	-10.1827
▁occur	-10.1832
▁popular	-10.1834
▁Where	-10.1834
▁blood	-10.1838
▁afford	-10.1839
ता	-10.1843
▁welcomed	-10.1843
▁preserve	-10.1846
ler	-10.1854
of	-10.1872
tan	-10.1874
▁23	-10.1875
▁hit	-10.1879
▁conciliation	-10.1882
▁inadequate	-10.1882
ना	-10.1886
rr	-10.1893
▁submit	-10.1901
▁tool	-10.1909
▁meant	-10.191
▁release	-10.1912
▁undertaken	-10.1913
▁careful	-10.1914
▁book	-10.1916
▁television	-10.1923
▁timetable	-10.1927
▁dispute	-10.1941
▁Syria	-10.1949
▁prospects	-10.1954
क्	-10.1957
▁waiting	-10.1964
▁Protection	-10.1964
▁intends	-10.197
▁someone	-10.1976
leg	-10.1979
▁house	-10.1981
▁treat	-10.1983
tar	-10.1988
▁vast	-10.1989
▁briefly	-10.1991
▁debating	-10.1993
▁predict	-10.1993
▁playing	-10.1998
▁Both	-10.2002
▁reiterate	-10.2005
▁follows	-10.2008
▁perfectly	-10.2011
▁urgency	-10.2022
▁Once	-10.2024
▁launched	-10.2024
▁core	-10.2026
▁2011	-10.2026
▁Egypt	-10.2033
▁wider	-10.2033
▁net	-10.2038
▁belong	-10.204
▁places	-10.2041
▁Protocol	-10.2042
▁nearly	-10.2051
gra	-10.2052
▁advanced	-10.2057
▁imagine	-10.2063
▁opposite	-10.2067
ries	-10.2072
▁daily	-10.2079
▁significance	-10.2079
▁poorest	-10.2082
▁decade	-10.2083
▁valuable	-10.2092
▁southern	-10.21
▁Without	-10.2104
▁difficulty	-10.2108
▁suggested	-10.211
▁determination	-10.2136
▁carbon	-10.2136
▁extensive	-10.2146
▁legitimacy	-10.2146
▁judge	-10.215
▁worst	-10.215
▁22	-10.2155
▁sustainability	-10.2155
▁brings	-10.2157
▁labor	-10.2163
▁Time	-10.2175
▁possibly	-10.2179
▁plants	-10.218
▁character	-10.2182
▁Me	-10.2188
▁banking	-10.2189
ide	-10.219
▁restrict	-10.2193
▁absolute	-10.2197
▁claims	-10.2199
▁friends	-10.2204
bil	-10.2208
▁shock	-10.2213
terinstitutional	-10.2226
▁struggle	-10.2226
stream	-10.2226
▁concentrate	-10.2227
▁प्र	-10.2239
▁fields	-10.2241
▁hundreds	-10.2242
▁Employment	-10.2255
session	-10.2255
▁learning	-10.2258
pec	-10.2266
▁etc	-10.2268
▁implications	-10.2275
related	-10.2309
▁becomes	-10.2319
▁Before	-10.2327
▁Common	-10.2336
▁Representative	-10.234
han	-10.2347
▁Ko	-10.2349
cal	-10.2351
▁tragic	-10.2357
▁Every	-10.236
▁answers	-10.2362
▁larger	-10.2365
▁division	-10.2365
▁0	-10.2369
free	-10.2374
▁reserve	-10.2382
▁negotiation	-10.2387
▁amending	-10.2397
NL	-10.2403
▁Most	-10.2406
▁Finland	-10.2417
▁reinforce	-10.2419
▁leads	-10.2426
▁red	-10.2428
▁heading	-10.243
▁genuinely	-10.2435
▁options	-10.2438
▁disposal	-10.2438
▁skills	-10.2443
▁previously	-10.2445
▁n	-10.2445
wi	-10.2453
▁remove	-10.2453
▁oppose	-10.2453
▁advocate	-10.2466
▁highlighted	-10.2467
▁suffered	-10.2476
▁legally	-10.2483
▁couple	-10.2485
▁shape	-10.2486
▁listen	-10.2491
▁users	-10.2492
int	-10.2501
▁adjustment	-10.2501
▁Austrian	-10.2501
▁assets	-10.2503
▁minister	-10.2504
▁accident	-10.2505
▁prevail	-10.2512
▁Per	-10.2514
ific	-10.2517
96	-10.2527
▁Are	-10.253
▁threats	-10.2531
▁engine	-10.2551
▁exception	-10.2554
▁heavy	-10.2555
▁ideal	-10.2557
▁maintained	-10.2559
▁mistake	-10.2562
aw	-10.2562
▁harm	-10.2568
▁Control	-10.2568
▁applicant	-10.2568
▁works	-10.2574
▁occupation	-10.2577
▁Northern	-10.2577
▁argue	-10.2579
▁exceptional	-10.2583
ade	-10.2588
▁Subject	-10.2599
▁prisoners	-10.2599
▁sovereign	-10.2602
▁depends	-10.2615
▁arrest	-10.2616
▁bit	-10.2618
▁bound	-10.2624
▁Commissioners	-10.2626
set	-10.2626
economic	-10.263
▁intervene	-10.2638
▁increases	-10.2641
▁accidents	-10.2641
▁species	-10.2642
▁incentives	-10.2644
ese	-10.2644
▁Cooperation	-10.2656
▁biggest	-10.266
▁identified	-10.266
▁confident	-10.2673
▁judgment	-10.2678
▁Greens	-10.2702
▁destroy	-10.2704
▁exceed	-10.2717
▁turned	-10.2718
▁opt	-10.272
▁focused	-10.272
▁cars	-10.272
ering	-10.2723
▁Kyoto	-10.2726
ार	-10.2726
▁warning	-10.2727
▁meaning	-10.2729
▁Consequently	-10.273
▁actively	-10.2755
▁endeavour	-10.2757
▁qualified	-10.2757
99	-10.276
▁seeing	-10.2762
▁replace	-10.2763
av	-10.2766
▁attempts	-10.2766
▁conducted	-10.2772
▁issued	-10.2776
▁touch	-10.2777
▁Bosnia	-10.2779
▁complicated	-10.2795
▁vessels	-10.2808
▁Great	-10.2815
▁rational	-10.2815
▁surely	-10.2818
nch	-10.2823
▁investigation	-10.2826
▁fast	-10.2826
▁blame	-10.2833
▁म	-10.2833
▁promised	-10.2836
▁valid	-10.2837
▁Food	-10.2842
▁faith	-10.2842
▁protocol	-10.2842
▁fit	-10.2846
▁sufficiently	-10.2849
▁analyse	-10.2855
▁amended	-10.2857
2%	-10.286
▁Heads	-10.2869
▁wage	-10.2871
▁greatly	-10.2873
▁referring	-10.2879
▁ship	-10.2886
▁background	-10.2887
cept	-10.2889
ew	-10.2894
▁contrast	-10.2896
▁facilities	-10.2896
▁br	-10.2897
▁hu	-10.2898
ay	-10.2901
off	-10.291
▁ह	-10.2914
▁Palestinians	-10.2925
▁federal	-10.2932
▁profits	-10.2942
▁2.	-10.2947
▁medicines	-10.2954
▁links	-10.2961
▁declared	-10.2961
▁below	-10.2962
▁prior	-10.2969
▁catch	-10.2971
▁reconstruction	-10.2972
▁satisfactory	-10.2986
EL	-10.2988
▁green	-10.2997
lf	-10.3
▁sought	-10.3005
pol	-10.3006
▁ill	-10.3009
▁Internal	-10.3013
her	-10.3016
▁tools	-10.3018
▁battle	-10.3022
rat	-10.3024
▁Plan	-10.3024
▁dollar	-10.3033
▁preparation	-10.3037
▁textile	-10.3039
▁Does	-10.304
▁1995	-10.3045
▁admit	-10.3058
▁perform	-10.3063
▁finish	-10.3068
fl	-10.3072
▁addressing	-10.3074
▁500	-10.3075
▁cancer	-10.3077
▁Thursday	-10.3082
▁tragedy	-10.3082
▁meat	-10.3097
▁waters	-10.3104
▁speeches	-10.3105
▁attend	-10.3107
▁geographical	-10.311
▁Having	-10.3119
▁obliged	-10.3134
▁chairman	-10.3143
▁She	-10.3146
ung	-10.315
▁whereas	-10.3155
▁ruling	-10.3155
▁milk	-10.3155
▁mu	-10.3156
vent	-10.3166
▁chosen	-10.3168
ft	-10.3168
▁External	-10.3169
state	-10.317
▁ignore	-10.3178
▁earn	-10.3179
▁experienced	-10.3181
▁smaller	-10.3183
▁game	-10.3184
▁players	-10.3185
▁differ	-10.3185
▁Gaza	-10.3193
▁possibilities	-10.3197
▁enforcement	-10.3199
RO	-10.32
▁successfully	-10.3203
▁essentially	-10.3203
end	-10.3204
▁Regional	-10.3225
▁willingness	-10.3227
▁Growth	-10.3234
▁Just	-10.3236
▁deeply	-10.3238
den	-10.3239
▁electoral	-10.3239
▁image	-10.3242
dy	-10.3243
▁bar	-10.3243
▁openness	-10.3243
▁component	-10.3244
▁VAT	-10.3244
▁transitional	-10.3246
▁satisfied	-10.3248
▁taxpayers	-10.3249
▁indicated	-10.3254
▁neighbours	-10.326
▁Second	-10.3265
right	-10.3266
rant	-10.3267
▁ports	-10.3268
▁Hungary	-10.3272
rac	-10.3272
Christian	-10.3272
▁engage	-10.3275
▁deserve	-10.3286
▁weight	-10.3296
▁Ta	-10.3307
▁completed	-10.3308
▁raising	-10.331
▁Ber	-10.3317
▁constant	-10.3326
▁demanding	-10.3338
▁remaining	-10.3341
▁budgets	-10.3341
▁physical	-10.3342
▁withdraw	-10.3343
▁ordinary	-10.3347
वा	-10.335
▁seat	-10.3356
ntergovernmental	-10.3357
▁motor	-10.3358
▁fruit	-10.3365
▁schools	-10.3369
▁neighbouring	-10.337
▁producing	-10.337
▁Liberal	-10.3372
▁watch	-10.338
▁losses	-10.3383
▁refuse	-10.3384
▁army	-10.3389
▁Belgian	-10.3389
▁unilateral	-10.3394
▁trend	-10.3395
pul	-10.3401
dis	-10.3405
▁lift	-10.3408
▁seeks	-10.3411
▁Libya	-10.3417
▁contributed	-10.3422
▁reflected	-10.3426
▁summer	-10.3428
ell	-10.343
▁carrying	-10.3436
▁opened	-10.344
▁reflects	-10.3446
relatively	-10.3454
▁Safety	-10.3455
▁governing	-10.3456
mis	-10.346
▁aviation	-10.346
▁प	-10.3463
▁deserves	-10.3464
▁sugar	-10.3465
▁affects	-10.3467
▁fire	-10.3467
▁moreover	-10.3471
▁Ar	-10.3472
long	-10.348
vert	-10.3482
▁widely	-10.3483
▁advice	-10.3503
▁picture	-10.3513
▁paying	-10.3513
▁charges	-10.3517
▁20%	-10.3523
▁representation	-10.3527
▁Wa	-10.3537
wing	-10.3539
▁proof	-10.3552
▁competent	-10.3561
▁widespread	-10.3565
▁compulsory	-10.3575
▁द	-10.3584
▁Belgium	-10.3585
ran	-10.3594
▁phenomenon	-10.3594
▁advertising	-10.3599
▁Cuba	-10.3602
▁afternoon	-10.3614
▁Europol	-10.3615
▁purely	-10.3619
▁combined	-10.3629
▁leaving	-10.3633
▁recession	-10.3638
▁acting	-10.3638
▁का	-10.3641
▁Other	-10.3653
▁gl	-10.3656
▁achievement	-10.3657
▁Partnership	-10.3657
▁BSE	-10.3658
▁healthy	-10.3662
▁alcohol	-10.3662
▁deficits	-10.3666
▁numbers	-10.3667
▁requests	-10.3667
▁schemes	-10.3674
▁town	-10.3676
▁Iraqi	-10.369
▁ratified	-10.3691
ically	-10.3697
ink	-10.3703
▁flag	-10.3708
lt	-10.3708
▁whereby	-10.3713
▁justify	-10.3718
▁solely	-10.372
chi	-10.3723
▁organ	-10.3724
▁intentions	-10.3732
▁armed	-10.3735
▁Nice	-10.3742
8/	-10.3743
▁chair	-10.3749
▁allocation	-10.375
▁worrying	-10.3766
▁reliable	-10.377
▁observe	-10.3784
▁enabling	-10.3824
▁abandon	-10.3832
▁chain	-10.3834
▁hardly	-10.3841
bor	-10.3846
▁broader	-10.3849
▁card	-10.385
▁considers	-10.3857
▁south	-10.3868
▁productivity	-10.3869
▁flow	-10.387
EU	-10.3873
▁evident	-10.3873
▁torture	-10.3873
▁Home	-10.3879
▁thanking	-10.3879
▁foremost	-10.3883
ear	-10.3888
▁bureaucracy	-10.3893
▁considerations	-10.3894
cut	-10.3895
▁charge	-10.3899
▁necessarily	-10.3908
▁encouraged	-10.3909
▁sphere	-10.3918
▁guaranteeing	-10.3921
▁label	-10.3922
▁pensions	-10.3925
▁Th	-10.3926
▁push	-10.3927
▁severe	-10.3932
lla	-10.3938
ham	-10.3939
▁credible	-10.3943
▁reaching	-10.3944
▁advantages	-10.3957
▁mother	-10.3963
▁consequence	-10.3965
▁housing	-10.3968
▁explanation	-10.397
▁Act	-10.3976
▁rely	-10.3977
▁Ho	-10.3982
▁considerably	-10.3983
▁students	-10.3983
▁Lithuania	-10.3983
▁regarded	-10.3986
▁debated	-10.3987
wide	-10.3998
▁definitely	-10.3999
▁हो	-10.4001
▁harmful	-10.4009
▁indication	-10.4018
▁Barcelona	-10.4023
▁extending	-10.4029
▁Su	-10.4042
▁Authority	-10.4048
▁Ga	-10.4049
▁consist	-10.4053
▁host	-10.4058
▁Berlin	-10.4061
▁city	-10.4065
▁proud	-10.4066
▁expensive	-10.4069
mat	-10.4072
▁Denmark	-10.4074
▁Asian	-10.4085
▁Polish	-10.4089
▁Sudan	-10.4089
▁audit	-10.4089
tergovernmental	-10.409
▁friend	-10.4094
▁consult	-10.4094
▁Any	-10.41
▁candidates	-10.4108
▁courts	-10.4118
▁Danish	-10.4119
▁expansion	-10.4119
▁percentage	-10.4119
▁Pre	-10.4123
▁commit	-10.4143
▁tough	-10.4144
▁spite	-10.4145
▁organizations	-10.4149
▁entered	-10.4151
▁succeeded	-10.4152
back	-10.4153
▁expand	-10.4154
▁Cor	-10.4156
▁minor	-10.4157
▁eastern	-10.416
▁sc	-10.4166
▁correctly	-10.417
▁Car	-10.418
lan	-10.4184
▁Tunisia	-10.4206
ris	-10.4209
▁infringement	-10.4211
▁uncertainty	-10.4212
▁unanimously	-10.4214
▁sorry	-10.4222
▁stance	-10.4228
▁centres	-10.4229
▁negotiate	-10.4238
▁Socialists	-10.4239
▁stressed	-10.4246
▁greenhouse	-10.4247
▁eye	-10.4249
▁targeted	-10.4266
▁loans	-10.4267
▁31	-10.4274
az	-10.4276
▁facts	-10.4282
▁र	-10.4291
▁negotiated	-10.4293
▁chapter	-10.4294
▁heritage	-10.4299
▁removed	-10.4302
▁civilian	-10.4302
▁26	-10.4309
▁repeatedly	-10.4313
▁promises	-10.4322
▁promise	-10.4323
▁register	-10.433
▁unique	-10.4336
▁व	-10.4347
work	-10.4348
▁insufficient	-10.4349
lli	-10.4357
▁prompt	-10.4361
▁thorough	-10.4371
▁manufacturers	-10.4378
▁El	-10.4379
▁demonstration	-10.4382
▁violation	-10.4386
bre	-10.4389
▁tests	-10.439
lat	-10.439
▁environmentally	-10.4399
ny	-10.4401
ctor	-10.4402
▁Man	-10.4408
▁voters	-10.4411
▁Gu	-10.4425
▁quarter	-10.4429
▁killed	-10.4429
▁clarity	-10.4429
wo	-10.444
▁Mon	-10.4444
▁noted	-10.4455
▁troops	-10.4455
▁granting	-10.4459
▁London	-10.4461
▁presidential	-10.4463
))	-10.4466
▁employ	-10.447
▁twenty	-10.4471
▁Left	-10.4483
▁respective	-10.4485
af	-10.4486
▁unnecessary	-10.4487
▁commend	-10.4487
▁none	-10.4496
Parliament	-10.4496
▁object	-10.4497
▁beef	-10.4502
▁occurred	-10.4504
▁eventually	-10.4507
▁fewer	-10.451
▁28	-10.4512
▁hence	-10.4519
▁await	-10.4524
▁class	-10.4525
▁recognize	-10.4531
▁fairly	-10.4535
ident	-10.4539
▁economically	-10.4539
▁suitable	-10.4543
▁affecting	-10.4545
▁Their	-10.4546
▁Burma	-10.4551
▁eyes	-10.4551
▁dictatorship	-10.4551
▁entail	-10.4556
ency	-10.4559
▁ethical	-10.4567
▁60	-10.4577
iti	-10.4579
ology	-10.4586
▁convention	-10.4592
4/	-10.4594
lit	-10.4597
▁...	-10.4603
▁disappear	-10.4618
▁conviction	-10.462
▁prohibit	-10.463
▁lessons	-10.4639
▁communications	-10.4639
▁attract	-10.4639
▁deals	-10.4639
bit	-10.4641
rn	-10.4644
▁sake	-10.4652
▁causing	-10.4663
stitut	-10.4669
row	-10.4673
▁aside	-10.47
▁passenger	-10.4709
▁certainty	-10.4712
▁sets	-10.4714
▁2013	-10.4717
▁Lebanon	-10.4717
▁threshold	-10.4717
▁multinational	-10.4722
7%	-10.4728
▁mere	-10.4732
form	-10.4733
▁constitutes	-10.4733
ित	-10.4735
▁custom	-10.4737
▁modified	-10.4744
atory	-10.4746
ust	-10.4746
▁unity	-10.475
▁exploit	-10.4753
▁stem	-10.476
▁Slovakia	-10.476
▁200	-10.4764
▁terrorists	-10.4764
▁educational	-10.4768
are	-10.4769
▁Iranian	-10.4775
▁threaten	-10.4776
▁29	-10.4783
▁Un	-10.4783
▁treaties	-10.4789
▁कर	-10.4795
▁youth	-10.4799
▁refers	-10.48
▁unemployed	-10.4811
▁news	-10.4822
▁Maastricht	-10.4831
▁everybody	-10.4831
▁regrettable	-10.4831
▁Communist	-10.4836
▁doubts	-10.4836
▁importantly	-10.4836
▁quota	-10.4842
▁citizenship	-10.4843
▁showing	-10.4846
▁ecological	-10.4858
▁excluded	-10.486
if	-10.4866
rit	-10.4867
▁exemption	-10.487
▁Pri	-10.488
▁art	-10.4888
▁regulate	-10.4888
market	-10.4888
ons	-10.489
imbabwe	-10.4891
▁computer	-10.4891
▁pose	-10.4895
▁reserves	-10.4897
▁applicable	-10.4902
▁track	-10.4903
▁Association	-10.4907
▁mine	-10.491
▁Yugoslavia	-10.4911
▁foster	-10.4913
▁Van	-10.4917
▁Hamas	-10.4924
▁wording	-10.4925
▁drive	-10.4926
▁Civil	-10.4929
▁ships	-10.4949
ov	-10.495
▁die	-10.4953
war	-10.4954
▁obtained	-10.4956
▁lie	-10.4965
▁Macedonia	-10.4968
▁tariff	-10.4968
▁fresh	-10.4979
J	-10.4981
▁familiar	-10.499
tern	-10.4991
▁turning	-10.4993
▁Follow	-10.4996
▁employers	-10.5
yang	-10.5
▁Congress	-10.5007
▁micro	-10.5007
6/	-10.5015
▁qua	-10.5022
▁merit	-10.5025
▁gradually	-10.503
▁bureaucratic	-10.5035
2/	-10.5035
▁ga	-10.5045
▁Yes	-10.5046
▁favourable	-10.5047
▁declare	-10.5049
▁afraid	-10.5051
▁prime	-10.5057
day	-10.5061
▁super	-10.5062
▁incorporated	-10.5068
▁पर	-10.5077
win	-10.5081
▁Citizens	-10.5085
▁supplies	-10.5085
▁evaluate	-10.5096
▁Bi	-10.5099
▁undertakings	-10.51
▁transactions	-10.511
▁Joint	-10.5119
ski	-10.512
▁terrible	-10.5124
lock	-10.5126
▁deaths	-10.5133
sign	-10.5137
▁emphasised	-10.5144
▁suggests	-10.5146
▁forum	-10.5156
▁era	-10.5158
▁middle	-10.5164
3/	-10.5164
hand	-10.5165
▁fourth	-10.5172
jo	-10.5179
▁sad	-10.518
▁won	-10.518
▁deny	-10.5182
▁surprised	-10.5198
▁Rur	-10.52
▁Parliamentary	-10.5206
▁believes	-10.5206
ik	-10.521
2002	-10.5211
▁divided	-10.5216
▁pact	-10.522
▁supplementary	-10.5222
▁undertake	-10.5225
▁generations	-10.5226
▁dream	-10.5226
▁yes	-10.5231
▁लि	-10.5233
let	-10.5234
▁cheap	-10.5235
▁dead	-10.5235
▁failing	-10.5248
▁airlines	-10.5248
hu	-10.5249
▁search	-10.525
▁digital	-10.526
▁household	-10.5267
▁Two	-10.5268
▁Ja	-10.5274
▁2012	-10.5278
▁English	-10.5283
▁foundations	-10.529
▁banana	-10.529
▁engaged	-10.5295
▁witness	-10.5297
▁simplification	-10.53
aries	-10.5301
▁competences	-10.5305
▁resulted	-10.5307
▁कि	-10.5314
▁flows	-10.5317
▁Mexico	-10.5323
▁bus	-10.5329
kin	-10.533
▁licence	-10.5334
▁generate	-10.5338
▁purchase	-10.534
▁disabled	-10.534
▁populations	-10.5345
▁Tourism	-10.5346
▁journalists	-10.5348
▁assurance	-10.5363
▁regardless	-10.5365
▁applications	-10.5367
4%	-10.5368
▁repeated	-10.5369
▁En	-10.537
▁punish	-10.5373
rg	-10.5379
▁noon	-10.538
▁utmost	-10.538
▁street	-10.5381
▁creates	-10.5382
▁demographic	-10.5386
▁jointly	-10.5394
▁outstanding	-10.5399
ath	-10.5401
▁transatlantic	-10.5404
▁Like	-10.5405
▁compete	-10.5406
▁decent	-10.5406
▁trouble	-10.5409
rect	-10.541
uff	-10.5411
▁reservations	-10.5412
7/	-10.5415
▁Indonesia	-10.5415
old	-10.5415
▁Free	-10.5416
▁shortcomings	-10.5421
▁Industry	-10.5427
▁emphasize	-10.5427
▁newspaper	-10.5433
▁Similarly	-10.5438
▁foot	-10.5441
▁wages	-10.5452
hor	-10.5453
▁Her	-10.5465
▁texts	-10.5466
▁suspect	-10.5467
▁northern	-10.5467
▁comparison	-10.5491
▁investigate	-10.5514
▁resource	-10.5521
▁Culture	-10.5532
▁viable	-10.5533
▁offering	-10.5537
▁Freedom	-10.5537
▁rare	-10.5541
▁buildings	-10.5553
▁explained	-10.5556
▁healthcare	-10.5558
▁toward	-10.5578
▁kinds	-10.5583
▁abroad	-10.5584
▁ambition	-10.5591
▁moved	-10.5596
▁accompanied	-10.5596
▁Clearly	-10.5608
▁Morocco	-10.5608
▁nonetheless	-10.562
▁checks	-10.5622
▁night	-10.5627
▁Ne	-10.563
▁estimated	-10.5639
▁begun	-10.5644
▁choices	-10.5647
▁His	-10.5655
▁biodiversity	-10.5655
▁forest	-10.566
ators	-10.566
▁sharp	-10.5661
▁Well	-10.5669
▁hopes	-10.567
▁drafting	-10.567
▁revised	-10.5675
▁complaints	-10.5682
▁Bureau	-10.5685
▁suspended	-10.5688
pan	-10.569
▁informal	-10.5691
▁divide	-10.5701
▁Go	-10.5703
▁tonnes	-10.5715
6%	-10.5716
▁distinction	-10.5719
▁Moldova	-10.5721
▁apparent	-10.5723
▁usually	-10.5724
▁Federal	-10.5727
▁10%	-10.5728
▁हैं	-10.5734
nce	-10.5738
ibly	-10.5738
▁amend	-10.5738
▁black	-10.5739
▁extraordinary	-10.5739
▁pleasure	-10.5739
▁marked	-10.574
▁coast	-10.5745
▁violent	-10.5745
▁suggestions	-10.5746
▁condemned	-10.5752
▁intensive	-10.5754
▁examined	-10.5755
▁category	-10.5757
ibility	-10.5757
▁underlying	-10.5758
▁beings	-10.5759
▁financed	-10.5759
▁pan	-10.5764
▁freely	-10.5774
▁presenting	-10.5777
▁recover	-10.5785
▁disagree	-10.5785
▁mini	-10.5791
▁Palestine	-10.5793
▁notice	-10.5802
▁collaboration	-10.5805
▁pain	-10.581
▁aircraft	-10.5811
▁frequently	-10.5813
▁coordinate	-10.5816
▁birth	-10.5817
▁expressing	-10.5818
▁falls	-10.5823
▁threatened	-10.5828
ional	-10.5831
elect	-10.5834
▁territories	-10.5835
▁Canada	-10.5841
igh	-10.5841
▁alter	-10.5843
▁Nonetheless	-10.5847
▁spring	-10.5853
level	-10.5855
▁clarification	-10.5859
▁parallel	-10.5859
▁receiving	-10.5859
▁restricted	-10.5879
▁advise	-10.5879
▁preference	-10.5879
▁indicators	-10.5883
▁tradition	-10.5884
▁enhanced	-10.5889
▁lasting	-10.5891
ari	-10.5905
lecommunications	-10.5908
▁equivalent	-10.5908
▁executive	-10.5908
▁bearing	-10.5912
▁match	-10.5914
▁pursued	-10.5914
▁liability	-10.5926
style	-10.5928
ya	-10.593
▁ceiling	-10.5932
▁assert	-10.5941
▁Albania	-10.5942
▁concentration	-10.5944
print	-10.5946
▁manufacture	-10.5949
▁dramatic	-10.5949
▁adhere	-10.5951
▁appointment	-10.5956
▁marketing	-10.596
▁emerge	-10.5961
▁San	-10.5963
▁resident	-10.5975
uck	-10.5978
▁poll	-10.5978
▁Jo	-10.5979
▁petition	-10.5981
▁declarations	-10.5984
▁50%	-10.5994
ray	-10.5994
▁logical	-10.5996
▁story	-10.5996
▁sell	-10.5998
▁Algeria	-10.6005
▁replaced	-10.6008
▁parents	-10.6011
▁relate	-10.6012
▁pen	-10.6014
▁prevented	-10.6021
▁raw	-10.6027
▁observed	-10.603
SA	-10.603
▁principal	-10.6036
▁resistance	-10.6037
ef	-10.6042
▁corporate	-10.6043
▁penalties	-10.6049
▁para	-10.6056
▁falling	-10.6061
ana	-10.6075
▁unfortunate	-10.6076
▁mental	-10.6079
▁elderly	-10.6085
▁minute	-10.6086
▁socio	-10.609
▁profound	-10.6092
▁looked	-10.6096
▁outset	-10.6102
▁Inter	-10.6105
▁formula	-10.6106
▁solid	-10.6111
▁Geneva	-10.6116
▁Japanese	-10.6118
▁symbol	-10.6122
▁Rome	-10.6126
country	-10.6139
▁finances	-10.6142
▁observers	-10.6149
▁EMU	-10.616
▁regulated	-10.6163
▁Obviously	-10.6166
▁accurate	-10.6166
CS	-10.6171
▁invite	-10.6185
hr	-10.6187
▁discipline	-10.6191
▁Bu	-10.6192
▁satisfaction	-10.6198
▁racism	-10.6198
uch	-10.6201
▁ratify	-10.6204
▁Fi	-10.6205
▁commission	-10.621
fully	-10.6213
▁Atlantic	-10.6215
▁tackling	-10.6216
▁universities	-10.6223
▁showed	-10.6232
▁delays	-10.6233
▁supplement	-10.6233
▁exert	-10.6236
▁refused	-10.6242
▁reflection	-10.6251
▁breach	-10.6252
▁abolition	-10.6254
▁offence	-10.6255
▁collection	-10.6277
gent	-10.6282
▁rejection	-10.6286
▁railway	-10.6287
▁farm	-10.6289
▁regimes	-10.6289
EEC	-10.6292
ला	-10.6293
▁drafted	-10.6294
▁suit	-10.6295
▁surveillance	-10.6298
▁organise	-10.63
▁promoted	-10.6307
▁standing	-10.631
▁Investment	-10.6317
▁unions	-10.6326
▁rating	-10.6328
▁Democratic	-10.6331
▁ज	-10.6336
▁distinguish	-10.6336
▁surprise	-10.6342
▁chemical	-10.6343
9/	-10.635
▁demonstrates	-10.6356
▁experiment	-10.6362
▁preparations	-10.6366
▁shares	-10.6374
contr	-10.6374
▁migrants	-10.6375
▁warmly	-10.6376
▁transit	-10.6377
▁wind	-10.6382
▁suggestion	-10.639
8%	-10.6391
▁Hu	-10.6398
▁beneficial	-10.64
▁victory	-10.6402
▁progressive	-10.6403
▁sending	-10.6404
▁acquis	-10.6406
▁north	-10.6407
▁learned	-10.6417
▁incorporate	-10.6425
▁sex	-10.643
▁disadvantage	-10.6432
▁क	-10.6438
▁reverse	-10.6445
gar	-10.6447
▁Office	-10.6451
▁1994	-10.6458
▁undertaking	-10.6463
▁usual	-10.6467
▁transform	-10.647
▁saving	-10.6473
▁nobody	-10.6477
▁woman	-10.6477
▁joined	-10.6479
▁coal	-10.6479
matic	-10.6483
▁quick	-10.6487
▁respects	-10.6487
ult	-10.6489
▁scientists	-10.649
▁keen	-10.6492
▁airports	-10.6493
▁contradiction	-10.6494
▁fixed	-10.6498
like	-10.65
▁Labour	-10.6509
05	-10.6512
▁sales	-10.6514
▁volume	-10.6516
▁models	-10.6518
▁rid	-10.6518
▁basically	-10.6522
▁nine	-10.6524
▁alongside	-10.6525
▁Declaration	-10.6528
▁necessity	-10.6528
▁subjects	-10.653
ox	-10.6536
▁authorisation	-10.6538
▁fill	-10.6539
col	-10.6542
load	-10.6547
medi	-10.6548
ast	-10.655
▁gather	-10.6561
▁ter	-10.6566
ria	-10.6567
▁PSE	-10.6568
lam	-10.6571
▁wise	-10.6572
▁brutal	-10.6574
▁August	-10.658
▁losing	-10.658
▁penal	-10.6588
▁sharing	-10.6593
▁wave	-10.6601
▁जा	-10.6604
▁alternatives	-10.6612
▁derogation	-10.6619
▁procurement	-10.6619
▁drivers	-10.662
▁unanimous	-10.6623
▁borrow	-10.6633
▁Nigeria	-10.6633
▁withdrawal	-10.6637
▁Reform	-10.6641
▁Fe	-10.6643
▁desirable	-10.6646
▁victim	-10.6651
▁Who	-10.6655
▁movements	-10.6657
▁scenario	-10.6659
▁gained	-10.666
sch	-10.6671
ै	-10.6671
▁presentation	-10.6672
how	-10.6673
▁periods	-10.6678
▁arising	-10.6679
▁persuade	-10.6685
▁directed	-10.6701
▁approaches	-10.6704
▁route	-10.6704
▁interpret	-10.6707
ong	-10.6714
app	-10.6714
▁warming	-10.6715
ying	-10.6718
quality	-10.6722
▁distance	-10.6724
▁processing	-10.6731
▁inequality	-10.6738
▁stick	-10.674
▁virtually	-10.675
AR	-10.6761
▁cutting	-10.6764
▁section	-10.6765
▁Otherwise	-10.6777
▁connected	-10.6778
▁managing	-10.6785
duct	-10.6785
▁exclusively	-10.679
▁margin	-10.679
▁inside	-10.6793
▁surrounding	-10.6795
▁associations	-10.6817
▁listened	-10.6818
▁organization	-10.682
▁covers	-10.6823
▁productive	-10.6824
own	-10.6838
▁acceptance	-10.6839
▁forests	-10.6841
commun	-10.6844
▁Centre	-10.6851
▁compatible	-10.6857
▁mobile	-10.6857
▁qualifications	-10.6859
holders	-10.6863
▁marine	-10.6864
▁everywhere	-10.6866
▁fears	-10.6866
▁slightly	-10.6871
▁distortion	-10.6871
▁subsequent	-10.6875
▁sight	-10.6882
▁controlled	-10.6883
▁rigorous	-10.6884
▁pilot	-10.6884
▁imposing	-10.6884
governmental	-10.6887
▁efficiently	-10.6888
▁सं	-10.689
▁forecast	-10.6891
▁tribute	-10.6891
▁alliance	-10.6891
▁notably	-10.6901
▁abolish	-10.6905
▁attractive	-10.6907
▁congratulations	-10.6911
▁jurisdiction	-10.6911
▁sit	-10.6914
▁Chechnya	-10.6918
▁perfect	-10.6929
▁crops	-10.6939
▁Ge	-10.6943
97	-10.6943
▁experiencing	-10.6945
▁write	-10.6945
ep	-10.6948
▁cycle	-10.6951
▁Lu	-10.6956
▁noise	-10.697
▁controversial	-10.6972
▁stations	-10.6979
▁defending	-10.6982
▁approximately	-10.6984
▁ambitions	-10.6991
▁grave	-10.6992
▁survive	-10.6999
▁talked	-10.7
▁Service	-10.701
▁emerged	-10.7013
▁justification	-10.7014
▁lawyer	-10.7021
▁adjust	-10.7022
▁incentive	-10.7024
▁contacts	-10.7024
▁stimulate	-10.7026
▁adverse	-10.7026
ological	-10.7028
▁destroyed	-10.7032
▁cast	-10.7033
urg	-10.7034
▁partial	-10.7037
▁auto	-10.7037
ather	-10.7045
▁observation	-10.7045
oli	-10.7051
▁describe	-10.7054
▁vehicle	-10.7058
▁reported	-10.7064
▁flu	-10.7068
las	-10.7072
EA	-10.7073
▁dumping	-10.708
▁fate	-10.7096
van	-10.7107
▁missing	-10.7109
▁clearer	-10.711
br	-10.7113
▁shortly	-10.7113
Q	-10.712
रा	-10.7124
▁excuse	-10.7128
▁Also	-10.713
▁roads	-10.7139
▁contributing	-10.7142
▁raises	-10.7147
▁Year	-10.7149
▁strictly	-10.7155
SV	-10.7159
▁enlarged	-10.7161
ranging	-10.7179
▁Finnish	-10.7184
▁friendly	-10.7189
▁abstained	-10.7189
▁bill	-10.7191
▁remark	-10.7193
▁uphold	-10.7195
▁hoped	-10.7196
▁mistakes	-10.72
ko	-10.7203
▁EP	-10.7203
▁hundred	-10.7205
▁Wi	-10.7206
▁Islam	-10.721
rk	-10.7211
▁conventions	-10.7216
▁absurd	-10.7218
▁marginal	-10.7219
▁traditions	-10.7219
▁actors	-10.7224
▁dossier	-10.7225
▁accessible	-10.7231
▁conservation	-10.7232
cious	-10.7239
▁disappointed	-10.7239
▁humanity	-10.7245
ator	-10.7246
▁sincerely	-10.7259
▁coherence	-10.726
pel	-10.7266
▁signs	-10.7267
▁integrity	-10.7267
▁defining	-10.7267
▁pursuing	-10.7274
char	-10.728
▁roll	-10.7281
▁fuels	-10.7286
▁yield	-10.7288
uring	-10.7288
▁warm	-10.729
▁confusion	-10.7302
▁Indian	-10.7304
reaching	-10.7305
▁cease	-10.7309
5-00	-10.7315
▁Education	-10.7316
▁permitted	-10.7318
▁praise	-10.7323
ify	-10.7327
▁disputes	-10.7328
▁reconciliation	-10.733
ifies	-10.7336
▁tangible	-10.7337
▁IGC	-10.7337
▁ignored	-10.7338
▁forgotten	-10.7344
ER	-10.7352
▁joining	-10.7355
▁postal	-10.7358
▁Doha	-10.736
▁narrow	-10.7365
▁statute	-10.7365
▁regularly	-10.7366
10	-10.7369
▁motions	-10.7372
▁lacking	-10.7372
eu	-10.7384
▁pace	-10.7386
▁foundation	-10.7392
▁Decision	-10.7393
▁blind	-10.7393
▁illustrate	-10.7393
▁consolidation	-10.74
▁campaigns	-10.7401
▁looks	-10.7404
▁imperative	-10.7407
▁thousand	-10.7426
rry	-10.7428
▁convince	-10.743
▁accountability	-10.743
▁examination	-10.7435
▁display	-10.7435
▁characteristics	-10.7435
▁publish	-10.7438
▁flood	-10.7447
▁Conservative	-10.745
law	-10.7462
hold	-10.7462
acc	-10.7463
▁Day	-10.7464
06	-10.7467
▁interim	-10.7477
▁Petitions	-10.7478
▁Taiwan	-10.7478
/2000	-10.7478
▁coalition	-10.7478
▁closure	-10.7492
▁congratulating	-10.7492
▁update	-10.7495
national	-10.7497
▁neglect	-10.7499
▁Fran	-10.7505
▁female	-10.7506
pend	-10.7508
▁achievements	-10.7518
▁sold	-10.7523
▁Ni	-10.7525
read	-10.7527
▁Statute	-10.7528
CT	-10.7535
▁1980	-10.7536
▁integrate	-10.7537
za	-10.7539
▁planet	-10.7542
▁Single	-10.755
ritten	-10.755
▁terror	-10.7552
▁released	-10.7569
▁Saddam	-10.7571
▁shortage	-10.7576
▁consulted	-10.7579
▁York	-10.7585
▁map	-10.759
ini	-10.759
▁unanimity	-10.7592
▁35	-10.7593
▁died	-10.7594
▁anniversary	-10.76
▁yourself	-10.76
▁helpful	-10.7601
EN	-10.7605
▁harmonised	-10.7607
▁lesson	-10.7608
PA	-10.7617
▁simplify	-10.7618
▁distributed	-10.762
effective	-10.7622
▁badly	-10.7622
▁soil	-10.7623
▁ke	-10.7627
▁systematic	-10.7627
▁categories	-10.7629
▁reveal	-10.7639
▁instability	-10.7643
▁remained	-10.765
▁Through	-10.765
▁length	-10.7657
▁funded	-10.7662
▁proven	-10.7664
je	-10.7665
▁genetically	-10.7666
▁arrive	-10.7674
bat	-10.7679
▁asset	-10.7683
▁hospital	-10.7694
▁Chairman	-10.7694
▁error	-10.7695
▁banned	-10.7696
▁representing	-10.7716
▁dan	-10.7719
मा	-10.772
▁Objective	-10.7723
▁variety	-10.773
▁resort	-10.773
▁refugee	-10.7735
ush	-10.7744
▁drop	-10.7744
▁imported	-10.7745
▁renewed	-10.7749
▁zero	-10.7752
cy	-10.7758
▁gross	-10.7759
▁frontier	-10.7768
▁preventive	-10.777
03	-10.7771
▁modest	-10.7774
rum	-10.7777
▁Estonia	-10.7781
▁consent	-10.7782
▁40%	-10.7782
▁scandal	-10.7787
▁accounting	-10.7789
▁profession	-10.7793
ken	-10.78
▁soldiers	-10.7803
tur	-10.7807
▁ideological	-10.7811
mission	-10.7813
▁subsequently	-10.7814
▁farms	-10.7821
▁Global	-10.7824
▁democracies	-10.7825
▁surprising	-10.7825
▁worthy	-10.7827
▁fallen	-10.7829
▁cent	-10.783
▁scrutiny	-10.7833
▁signing	-10.7834
▁fails	-10.7837
▁except	-10.7838
▁disregard	-10.784
▁procedural	-10.784
▁Allow	-10.7843
▁killing	-10.7845
▁impetus	-10.7848
press	-10.7861
▁potentially	-10.7862
▁visible	-10.7862
mark	-10.7864
mann	-10.7864
Mediterranean	-10.7879
▁वि	-10.7881
▁older	-10.7884
▁neutral	-10.7885
▁Malta	-10.7885
▁Latvia	-10.7892
▁possess	-10.7904
ek	-10.7907
▁owing	-10.7915
▁Far	-10.792
▁complain	-10.7921
▁unlikely	-10.7928
▁surplus	-10.7931
▁Ver	-10.7933
6-0	-10.7935
▁substantially	-10.7936
ति	-10.7936
▁pursuan	-10.7937
▁Paris	-10.7941
▁accordingly	-10.7944
1999	-10.7946
cip	-10.7959
▁80	-10.7959
▁items	-10.7968
ium	-10.7968
▁300	-10.7969
▁guide	-10.7969
▁Millennium	-10.7974
▁resumed	-10.7976
▁distort	-10.7981
▁seemed	-10.7981
proliferation	-10.7981
▁founded	-10.7982
000	-10.7983
▁Information	-10.7996
▁director	-10.7999
▁hour	-10.8002
aging	-10.8002
▁Third	-10.8003
▁gradual	-10.8003
▁tolerance	-10.8004
▁coastal	-10.8007
ix	-10.801
▁participating	-10.8011
debate	-10.8014
▁genetic	-10.8018
▁logic	-10.802
▁Wall	-10.8023
▁highlights	-10.8028
▁exceptions	-10.8031
िया	-10.8034
▁albeit	-10.8034
ivity	-10.8036
▁lend	-10.8037
▁residence	-10.8041
▁perspectives	-10.8048
▁30%	-10.805
▁exposed	-10.8055
▁expertise	-10.8057
▁Te	-10.806
▁feature	-10.8064
▁heads	-10.8072
▁adult	-10.8072
▁emission	-10.8073
▁consequently	-10.8076
▁Your	-10.8079
▁timely	-10.808
▁Cohesion	-10.8094
▁enforce	-10.8095
connect	-10.8102
▁denied	-10.8102
▁apparently	-10.8107
▁persist	-10.8109
▁ended	-10.8111
▁Saudi	-10.8117
ough	-10.8118
▁Solidarity	-10.8125
▁resolving	-10.8125
▁execution	-10.8125
▁autonomy	-10.8132
▁film	-10.8132
▁Air	-10.8134
▁halt	-10.8134
▁restrictive	-10.8136
zen	-10.8138
▁habit	-10.8141
▁overwhelming	-10.8145
▁System	-10.8147
▁combination	-10.8147
▁Ab	-10.8162
▁freight	-10.8163
▁plays	-10.8163
▁smooth	-10.8163
▁abuses	-10.8164
▁sustained	-10.8165
▁backing	-10.8167
▁Criminal	-10.817
▁Defence	-10.817
▁relief	-10.817
▁allies	-10.8171
▁initially	-10.8174
▁confront	-10.8179
▁dangers	-10.8179
▁disastrous	-10.8185
(2)	-10.8189
▁Work	-10.8192
▁manufacturing	-10.8193
▁unprecedented	-10.8193
FI	-10.8196
▁inhabitants	-10.8201
▁railways	-10.8202
▁soft	-10.8208
▁consistently	-10.8213
97)	-10.8215
▁whatsoever	-10.8216
▁respecting	-10.8219
ira	-10.8227
▁solved	-10.823
▁complement	-10.8237
▁austerity	-10.8239
▁program	-10.824
▁faster	-10.8245
▁sacrifice	-10.8247
▁false	-10.8247
▁acknowledged	-10.825
▁inevitably	-10.8254
▁warrant	-10.8258
ties	-10.827
care	-10.8271
▁envisaged	-10.8276
▁avoided	-10.8281
40	-10.8283
▁visited	-10.8288
▁cultures	-10.8292
▁incomes	-10.8292
▁providers	-10.8301
▁fifth	-10.8301
▁mandatory	-10.8301
▁reductions	-10.8305
▁escape	-10.8308
▁race	-10.8313
▁features	-10.8316
▁preliminary	-10.8324
▁correspond	-10.8331
▁shop	-10.8333
▁focusing	-10.8336
▁accepting	-10.8337
▁Regarding	-10.8339
HU	-10.8344
▁govern	-10.8346
▁1992	-10.8347
ij	-10.8354
▁continuous	-10.8355
bel	-10.8356
▁Friday	-10.8363
▁neighbourhood	-10.8363
▁covering	-10.8365
▁Congo	-10.8365
▁sustain	-10.8372
▁tourist	-10.8372
▁tighten	-10.8374
▁Hence	-10.8377
▁assessments	-10.8379
▁bonds	-10.8381
▁Could	-10.8394
▁constraints	-10.8402
▁pick	-10.8407
▁generous	-10.8409
▁experiences	-10.8411
DA	-10.8416
▁Har	-10.8422
▁Colombia	-10.8425
▁participants	-10.8425
▁accused	-10.8427
▁meantime	-10.8428
▁estimates	-10.843
▁Mu	-10.8431
▁repression	-10.8433
▁exclude	-10.8453
▁Part	-10.8453
nder	-10.8454
▁bottom	-10.8456
▁fashion	-10.8456
▁survival	-10.8456
▁resist	-10.8457
▁detention	-10.8464
▁functions	-10.8465
▁platform	-10.848
▁pretext	-10.848
▁rhetoric	-10.848
▁pledge	-10.848
NA	-10.8482
ान	-10.8491
▁invited	-10.8497
▁employed	-10.8499
15	-10.8502
▁slaughter	-10.8504
len	-10.8506
▁twice	-10.8511
▁typical	-10.8511
▁elite	-10.8512
▁Services	-10.8514
▁chemicals	-10.8519
▁alleged	-10.8527
▁cope	-10.8533
▁silence	-10.8535
▁defeat	-10.8535
down	-10.8542
▁pharmaceutical	-10.8543
▁wall	-10.8545
▁inevitable	-10.8551
but	-10.8559
▁Please	-10.8559
▁appointed	-10.8562
▁ownership	-10.8567
▁entering	-10.8573
45	-10.8573
▁attach	-10.8575
tech	-10.8588
▁dictator	-10.859
▁Dublin	-10.8591
▁fires	-10.8591
▁homes	-10.8597
▁Wednesday	-10.8607
▁location	-10.8609
spir	-10.861
▁intelligent	-10.8623
▁macroeconomic	-10.8623
▁satellite	-10.8631
3%	-10.8635
outermost	-10.8638
▁Scotland	-10.8638
▁convey	-10.8639
▁damaging	-10.8646
▁fought	-10.8646
▁Monday	-10.8647
या	-10.8653
▁sites	-10.8658
▁discover	-10.866
ily	-10.866
▁accord	-10.8661
▁sympathy	-10.8662
▁Within	-10.8666
▁appreciation	-10.8671
▁cod	-10.8671
▁imbalances	-10.8678
▁Blair	-10.8679
▁OLAF	-10.8679
▁pipeline	-10.8679
▁sports	-10.8679
▁delivered	-10.8681
▁stringent	-10.8695
▁monitored	-10.8696
▁Switzerland	-10.8703
▁containing	-10.8704
▁Hong	-10.8705
tel	-10.8707
▁Kong	-10.8714
▁leaves	-10.8718
point	-10.8723
▁Vietnam	-10.8727
▁Tibet	-10.8732
▁fundamentally	-10.8743
▁Qu	-10.8744
5-01	-10.8744
pla	-10.8745
We	-10.8749
▁stakeholders	-10.8751
aving	-10.8758
▁select	-10.8764
▁overlook	-10.8766
nya	-10.8766
▁tolerate	-10.8778
▁explicitly	-10.878
▁reaffirm	-10.8783
head	-10.8785
▁remarkable	-10.8787
▁mountain	-10.8791
▁heavily	-10.8808
▁Institute	-10.8808
▁organic	-10.8814
▁safeguarding	-10.8819
▁नि	-10.882
ले	-10.8823
▁Above	-10.8824
AS	-10.883
▁immunity	-10.8832
▁devoted	-10.8839
▁दे	-10.884
▁straight	-10.884
▁essence	-10.884
▁openly	-10.8842
▁listening	-10.8844
▁struck	-10.8848
▁prerequisite	-10.8857
cle	-10.8859
▁father	-10.8859
ifying	-10.8864
▁70	-10.8867
▁Solana	-10.8873
▁survey	-10.8873
▁implies	-10.8889
▁intelligence	-10.8889
▁consistency	-10.8898
▁trap	-10.8908
▁endorsed	-10.8909
▁socialist	-10.8911
▁wake	-10.8914
▁radio	-10.8918
ulation	-10.8922
▁excess	-10.8928
▁criterion	-10.8939
▁dependence	-10.8942
hood	-10.8942
▁acted	-10.8945
▁adaptation	-10.8947
▁Mor	-10.8949
▁consolidate	-10.8952
▁communicate	-10.8955
▁desperate	-10.8955
▁Washington	-10.8963
clu	-10.8965
place	-10.8968
▁collect	-10.8971
▁circle	-10.8972
▁exacerbat	-10.8972
vote	-10.8972
fold	-10.8976
LT	-10.9004
▁accelerate	-10.9013
▁bridge	-10.9021
▁counterfeit	-10.9021
▁investigations	-10.9025
▁civilians	-10.9026
▁football	-10.903
▁researchers	-10.9035
▁conscience	-10.9038
▁innocent	-10.9038
grad	-10.9041
▁stimulus	-10.9046
▁punishment	-10.9048
▁करने	-10.9055
▁enabled	-10.9057
▁offices	-10.906
▁lobby	-10.9062
▁exhaust	-10.9063
▁satisfy	-10.9063
▁80%	-10.9064
▁maintenance	-10.9071
▁arrived	-10.9078
▁Patten	-10.908
▁moderate	-10.908
▁argued	-10.9092
▁supervisory	-10.9098
▁answered	-10.9103
▁democratically	-10.9104
▁disturb	-10.9105
▁precedent	-10.9105
ica	-10.911
▁supplier	-10.9113
▁corresponding	-10.9114
▁journey	-10.9121
▁outlined	-10.9122
▁stopped	-10.9124
▁don	-10.9131
▁quo	-10.9133
▁unlike	-10.9135
▁delegations	-10.9136
▁donors	-10.9137
▁channel	-10.9139
▁pressing	-10.9142
▁sincere	-10.9142
9%	-10.9143
▁statistical	-10.9147
▁furthermore	-10.9155
standing	-10.9158
▁Shi	-10.9163
▁fault	-10.9163
▁compensate	-10.9163
▁names	-10.9164
ते	-10.9165
▁स्	-10.917
ker	-10.9171
▁east	-10.9172
▁testing	-10.9172
▁cells	-10.9178
▁Ashton	-10.918
▁title	-10.918
▁adequately	-10.9184
▁retirement	-10.919
▁believed	-10.9205
▁registration	-10.9206
▁patient	-10.9216
▁trends	-10.9222
▁hunger	-10.9223
▁underpin	-10.9223
▁Rather	-10.9224
▁Would	-10.9231
▁detect	-10.9231
▁annex	-10.9231
ancy	-10.9239
yes	-10.9254
▁Timor	-10.9256
▁definitive	-10.9256
lia	-10.9263
▁borne	-10.9264
▁encounter	-10.9265
▁extremist	-10.9265
▁earthquake	-10.9273
▁fifteen	-10.9273
▁monopoly	-10.9282
▁personnel	-10.929
▁resign	-10.929
▁Olympic	-10.9291
▁trigger	-10.9291
▁worried	-10.9291
▁remote	-10.9291
11	-10.9297
▁HIV	-10.9299
▁council	-10.9299
▁diplomacy	-10.9299
▁born	-10.9302
ET	-10.9306
cor	-10.9307
being	-10.9312
▁Meanwhile	-10.9316
empt	-10.9317
▁served	-10.9323
▁exclusive	-10.9326
dict	-10.9333
▁comparable	-10.9333
friendly	-10.9345
री	-10.9352
▁internationally	-10.9353
▁protectionism	-10.9353
▁combine	-10.9365
▁Slovenia	-10.9366
▁derive	-10.9368
ती	-10.9371
round	-10.9374
▁Romanian	-10.9375
▁completion	-10.9376
▁atmosphere	-10.9385
▁storage	-10.9385
▁blue	-10.9385
▁Albanian	-10.9387
▁isolation	-10.9394
▁returned	-10.9398
▁globalization	-10.9398
▁OSCE	-10.9402
▁explanations	-10.9408
▁Among	-10.9411
▁privacy	-10.9411
▁inquiry	-10.9411
▁driven	-10.9411
▁Organization	-10.9419
▁Four	-10.9424
run	-10.9438
▁owe	-10.9439
▁love	-10.944
▁western	-10.9447
oo	-10.9455
▁refusal	-10.9463
pen	-10.9472
▁AIDS	-10.9476
▁obstacle	-10.9478
▁gold	-10.9482
▁enterprise	-10.9487
(1)	-10.9487
▁Afghan	-10.9489
▁signature	-10.9489
▁admitted	-10.9491
▁deploy	-10.9493
▁expert	-10.9494
▁examining	-10.9497
▁attain	-10.9498
▁Liberals	-10.9502
▁Law	-10.9505
▁Should	-10.9506
▁illness	-10.9518
▁ALDE	-10.9532
placing	-10.9536
▁Trans	-10.9537
▁Until	-10.9541
▁safeguards	-10.9544
Rule	-10.9546
democratic	-10.9546
▁privilege	-10.9557
▁Equal	-10.9564
▁Verheugen	-10.9567
▁1%	-10.9569
security	-10.9572
serving	-10.9575
commerce	-10.9576
▁Pe	-10.9577
flex	-10.9578
▁broadly	-10.958
25	-10.9583
▁Everyone	-10.9587
▁tonight	-10.9595
▁recommended	-10.9601
▁Kurdish	-10.9602
▁precondition	-10.9602
MO	-10.9611
▁precautionary	-10.9612
hen	-10.9619
▁Naturally	-10.962
▁autumn	-10.962
mouth	-10.9621
ाल	-10.9623
not	-10.9624
▁Special	-10.9629
▁decrease	-10.9629
▁embargo	-10.9629
▁modernisation	-10.9634
▁initiated	-10.9636
▁Pi	-10.9638
▁ultimate	-10.9639
▁stipulat	-10.9641
▁recital	-10.9646
▁senior	-10.9646
▁visas	-10.9647
▁observations	-10.9649
where	-10.9657
▁Haiti	-10.9657
trust	-10.9662
▁pattern	-10.9664
▁emotion	-10.9673
CE	-10.9674
▁demanded	-10.9675
▁sums	-10.9684
discrimination	-10.9697
▁kill	-10.9699
▁creative	-10.97
▁manifest	-10.97
▁translation	-10.97
▁career	-10.9705
▁hopefully	-10.9707
▁Annex	-10.9709
▁removal	-10.9709
▁John	-10.9709
▁claimed	-10.9715
▁reconcile	-10.9717
▁2015	-10.9719
▁Sha	-10.972
▁posed	-10.9724
▁programming	-10.9726
▁tight	-10.9727
▁ties	-10.9731
▁sole	-10.9742
▁inequalities	-10.9744
▁favor	-10.9753
▁GMOs	-10.9762
▁continuation	-10.9766
▁sale	-10.9774
fall	-10.9775
cultural	-10.9778
art	-10.9779
▁Beijing	-10.978
▁construct	-10.9785
▁Fischler	-10.9789
▁announcement	-10.9794
▁conditional	-10.9796
▁alarming	-10.9804
▁ratio	-10.9805
▁instruct	-10.9807
▁bold	-10.9811
▁37	-10.9823
▁originally	-10.9823
▁fulfilled	-10.9828
▁investing	-10.9831
▁civilisation	-10.9836
▁tensions	-10.9836
▁concessions	-10.9839
▁diverse	-10.9843
▁reward	-10.985
▁famous	-10.9852
▁vigorous	-10.9852
▁1993	-10.9861
▁strange	-10.9862
▁pull	-10.9863
▁Pen	-10.9865
▁clauses	-10.987
▁enshrined	-10.9874
▁desired	-10.9874
▁page	-10.9875
▁constituent	-10.9888
▁embark	-10.9888
▁Region	-10.9888
pass	-10.9889
▁findings	-10.9891
▁airport	-10.9896
▁automatically	-10.9898
asi	-10.99
▁seekers	-10.9914
▁handling	-10.9915
encies	-10.9925
▁publicly	-10.9937
▁repercussions	-10.9942
▁यह	-10.9942
cha	-10.9952
▁appeared	-10.9957
▁dollars	-10.9958
▁wherever	-10.996
▁hot	-10.9961
▁telling	-10.9963
▁arm	-10.9965
establish	-10.9969
▁shipping	-10.9971
▁practically	-10.9974
▁fell	-10.9978
▁currencies	-10.9988
1%	-10.9995
▁vary	-11.0005
▁shame	-11.0006
board	-11.0007
▁transformation	-11.0008
▁assured	-11.0011
▁camps	-11.0013
▁assumption	-11.0016
▁drastic	-11.0016
▁transferred	-11.0019
▁90	-11.0023
▁Peace	-11.0025
▁genocide	-11.0034
▁neighbor	-11.0034
▁split	-11.0034
▁tackled	-11.0036
car	-11.0041
▁Korean	-11.0042
▁Democracy	-11.0043
नी	-11.0046
▁inspection	-11.0052
nov	-11.0054
▁सम	-11.0056
▁speculation	-11.0062
▁plain	-11.0062
▁cap	-11.0067
/2003	-11.0071
▁opponents	-11.0073
▁adapted	-11.0073
ban	-11.0076
▁Chancellor	-11.008
▁facility	-11.008
▁inappropriate	-11.008
▁Recent	-11.0083
▁channels	-11.0088
▁chief	-11.0089
▁linguistic	-11.0089
▁steel	-11.0089
▁orientation	-11.0089
▁tremendous	-11.0098
▁irregularities	-11.0099
▁systematically	-11.01
से	-11.0107
▁Fed	-11.0116
▁conventional	-11.0119
▁ageing	-11.0125
▁producer	-11.0125
▁Hussein	-11.0126
▁macro	-11.0135
▁attached	-11.0138
▁Armenia	-11.0145
▁strive	-11.0145
▁programs	-11.0151
▁Stockholm	-11.0154
▁reassure	-11.0154
▁simplified	-11.0154
▁Santer	-11.0156
▁incident	-11.0162
▁mix	-11.0165
▁poorer	-11.0173
▁regulator	-11.0174
▁laying	-11.0178
▁closing	-11.0182
▁hazardous	-11.0183
▁recognized	-11.0197
hal	-11.0199
▁arrangement	-11.0203
▁Tak	-11.0207
▁flights	-11.0207
low	-11.0209
▁arrested	-11.021
▁boom	-11.0224
▁pragmatic	-11.0229
▁workplace	-11.023
▁OECD	-11.0238
shore	-11.0251
▁recorded	-11.0254
▁persecution	-11.0257
▁vague	-11.0276
0,000	-11.0276
▁throw	-11.0277
▁organized	-11.0277
▁MEP	-11.0277
▁Vienna	-11.0285
▁caught	-11.0285
▁liberalization	-11.0288
gate	-11.0288
▁errors	-11.0293
▁threatening	-11.0294
▁screen	-11.0295
▁aggressive	-11.0295
▁anywhere	-11.0304
▁guilty	-11.0306
▁premium	-11.0313
▁Brok	-11.0315
uk	-11.0316
▁workforce	-11.0323
▁rescue	-11.0323
▁tape	-11.0324
▁EIB	-11.0332
▁parliamentarian	-11.0342
▁interference	-11.0342
▁assessing	-11.0342
▁indirect	-11.0345
▁Whilst	-11.0351
▁artificial	-11.0351
▁Globalisation	-11.0353
well	-11.0354
▁donor	-11.0368
▁horizontal	-11.037
▁sections	-11.0379
▁Schulz	-11.038
▁prejudice	-11.0389
▁deciding	-11.0389
▁grown	-11.0396
▁Helsinki	-11.0399
▁detriment	-11.0406
▁appalling	-11.0408
▁Gra	-11.0414
▁girls	-11.0418
iev	-11.042
▁abstain	-11.042
▁Dr	-11.0426
▁toxic	-11.0428
yard	-11.043
turn	-11.0438
▁painful	-11.0441
▁eco	-11.045
▁fragile	-11.0456
▁forestry	-11.0458
ama	-11.0463
▁immense	-11.0466
▁disadvantaged	-11.0466
▁iron	-11.0467
कार	-11.0473
▁constituency	-11.0475
▁3%	-11.0477
▁floods	-11.0479
DP	-11.0482
▁Black	-11.0485
▁mobilise	-11.0485
▁Ru	-11.0487
▁disabilities	-11.0495
▁generated	-11.0498
▁reinforced	-11.0499
▁remit	-11.0506
▁output	-11.0511
▁avoiding	-11.0512
▁routes	-11.0514
्व	-11.0516
east	-11.0517
▁recycling	-11.0533
▁isolated	-11.0533
07	-11.0534
▁composition	-11.0552
▁hinder	-11.0552
▁endanger	-11.0553
▁relocation	-11.0554
▁formally	-11.0559
▁Cypriot	-11.0562
▁Tampere	-11.0562
▁democratisation	-11.0562
▁lowest	-11.0576
▁eat	-11.0585
makers	-11.0593
▁outline	-11.0594
▁Youth	-11.0595
▁applaud	-11.0601
▁convert	-11.0604
▁stricter	-11.0605
▁objections	-11.0605
▁Each	-11.0607
▁university	-11.0611
▁depth	-11.0614
▁publication	-11.0614
▁abortion	-11.062
third	-11.0624
▁embrace	-11.063
▁vocational	-11.063
drew	-11.0632
▁governed	-11.0643
omic	-11.0648
▁scheduled	-11.0654
▁limiting	-11.0655
▁centuries	-11.0659
▁conservative	-11.0659
▁village	-11.0659
sky	-11.0664
▁Resolution	-11.0669
▁60%	-11.067
▁Argentina	-11.0679
▁Liberties	-11.0689
▁delicate	-11.0689
▁criticise	-11.0689
▁accomplish	-11.0689
bro	-11.0694
▁attempting	-11.0697
▁Galileo	-11.0699
दा	-11.0699
▁electorate	-11.0708
▁passing	-11.0711
ili	-11.0712
▁differently	-11.0714
▁harmonise	-11.0719
▁burn	-11.0719
▁thoroughly	-11.0719
▁calm	-11.0719
▁finger	-11.072
▁inspections	-11.0721
▁abandoned	-11.0721
▁store	-11.0722
▁enjoyed	-11.0726
▁Climate	-11.0728
▁Moscow	-11.0738
▁lifelong	-11.0743
▁foodstuffs	-11.0748
▁preparatory	-11.0748
initiative	-11.0752
▁worry	-11.0755
▁broken	-11.0755
▁lending	-11.0761
▁backward	-11.0762
▁empty	-11.0768
efficient	-11.0772
▁suppress	-11.0777
▁knew	-11.0778
▁aspirations	-11.0787
▁normally	-11.0792
▁electric	-11.0794
▁requiring	-11.0807
▁problematic	-11.0808
ALE	-11.0819
▁cash	-11.082
▁coordinating	-11.0827
▁gene	-11.083
▁adding	-11.0832
▁Political	-11.0837
▁Prize	-11.0838
▁technique	-11.0847
▁dismiss	-11.0847
▁medicine	-11.0848
▁diminish	-11.0857
▁phrase	-11.0857
▁veto	-11.0857
discriminatory	-11.0867
▁displaced	-11.0867
▁invitation	-11.0867
▁telephone	-11.0867
▁incidents	-11.0867
▁5%	-11.087
▁economists	-11.0874
Herzegovina	-11.0877
▁benchmark	-11.0877
▁fat	-11.088
▁transpose	-11.0887
▁multiannual	-11.0897
▁irrespective	-11.0907
▁philosophy	-11.0907
▁stating	-11.091
▁smoking	-11.0917
▁witnessed	-11.0923
▁seize	-11.0926
▁beneficiaries	-11.0927
▁doctors	-11.0928
▁academic	-11.0937
▁GUE	-11.0937
▁travelling	-11.0942
▁characterised	-11.095
▁Fourthly	-11.0957
▁fossil	-11.0957
▁complied	-11.0957
▁plea	-11.0959
NGL	-11.0967
▁score	-11.0969
▁whenever	-11.097
oriented	-11.0973
bling	-11.0973
▁remedy	-11.0977
▁dare	-11.0981
▁engagement	-11.0988
▁transposition	-11.0988
▁dec	-11.0994
▁biological	-11.0999
employed	-11.1
▁invested	-11.1003
▁flight	-11.1007
▁Guinea	-11.1008
▁robust	-11.1018
▁underestimate	-11.1018
▁repair	-11.1018
▁assessed	-11.1024
▁irre	-11.1029
pped	-11.1031
▁Australia	-11.1038
▁Milosevic	-11.1038
▁enthusiasm	-11.1038
▁occupied	-11.1038
grade	-11.1039
▁suspend	-11.1042
▁costly	-11.1043
▁wholeheartedly	-11.1048
▁blow	-11.105
▁gases	-11.106
यो	-11.1064
▁responding	-11.1065
▁Martin	-11.1069
▁Chile	-11.107
▁everyday	-11.1074
▁indispensable	-11.1079
▁removing	-11.1079
▁suspicion	-11.1079
▁Ke	-11.108
▁cite	-11.1082
▁withdrawn	-11.1088
▁biofuels	-11.1089
▁cat	-11.1092
▁Caucasus	-11.1099
▁Neither	-11.1099
▁disparities	-11.1099
▁affair	-11.1115
▁condemnation	-11.1115
▁supporters	-11.1117
▁Taliban	-11.112
▁ideology	-11.112
▁irresponsible	-11.112
▁enrich	-11.113
▁assembly	-11.113
▁availability	-11.113
▁facilitating	-11.113
▁judiciary	-11.113
▁addresses	-11.1132
▁USD	-11.1147
▁policymakers	-11.1152
▁disagreement	-11.1154
SK	-11.1155
▁Democrat	-11.1155
dependent	-11.116
▁specialist	-11.1165
▁player	-11.1168
▁reminded	-11.1173
▁topical	-11.1181
▁cooperative	-11.1181
्या	-11.1187
▁capitalism	-11.119
▁convincing	-11.1192
▁odd	-11.1192
▁equity	-11.1202
▁Goals	-11.1202
▁Board	-11.1205
▁weaknesses	-11.1207
depth	-11.1209
In	-11.1211
▁weakness	-11.1212
▁vegetable	-11.1233
▁dual	-11.1233
▁secondary	-11.1234
▁Much	-11.1239
aire	-11.1241
ON	-11.1242
peripheral	-11.1243
▁feasible	-11.1243
▁Terr	-11.1246
▁tele	-11.1251
medicinal	-11.1254
▁accompany	-11.1254
▁ecosystem	-11.1254
▁solving	-11.1254
▁tactic	-11.1254
▁symbolic	-11.1256
▁Monti	-11.1257
▁concentrated	-11.126
▁exempt	-11.1262
▁outbreak	-11.1264
▁draftsman	-11.1264
▁transnational	-11.1265
▁command	-11.1275
का	-11.1282
▁explicit	-11.129
▁securing	-11.1295
▁preferred	-11.1298
new	-11.1303
▁Madrid	-11.1306
▁undermining	-11.1306
▁obtaining	-11.1314
▁affirm	-11.1316
▁behavior	-11.1316
▁comitology	-11.1316
▁roughly	-11.1316
▁trip	-11.1318
AC	-11.1321
▁integral	-11.1327
▁retail	-11.1327
▁intense	-11.1327
▁Federation	-11.1337
▁institute	-11.1346
▁quantity	-11.1348
▁safer	-11.1348
▁Sarkozy	-11.1358
▁hide	-11.1358
▁revealed	-11.1365
▁defense	-11.1369
▁render	-11.1376
▁calculation	-11.1379
▁monopolies	-11.1379
▁white	-11.1379
▁settle	-11.1379
▁Code	-11.139
▁conform	-11.1392
▁wonderful	-11.1393
▁devote	-11.1397
ending	-11.1398
▁understandable	-11.14
▁inclusive	-11.14
▁moratorium	-11.14
▁dear	-11.1403
▁25%	-11.1405
▁devise	-11.1408
▁rebuild	-11.1414
▁Gr	-11.1418
ego	-11.1418
▁criticised	-11.1421
▁suddenly	-11.1421
▁rank	-11.1422
COD	-11.1422
▁Against	-11.1423
-03	-11.1424
▁buying	-11.1431
▁vaccine	-11.1432
▁tuna	-11.1432
roots	-11.1437
▁meaningful	-11.144
▁slowly	-11.1441
▁totalitarian	-11.1443
▁Sever	-11.145
▁delete	-11.1462
▁entrepreneurs	-11.1463
▁1989	-11.1464
▁Darfur	-11.1474
▁45	-11.1492
▁Fortunately	-11.1495
▁grass	-11.1499
▁secular	-11.1506
▁envisage	-11.1508
even	-11.1513
▁scarce	-11.1517
▁registered	-11.1517
▁focuses	-11.152
▁Sub	-11.1523
▁default	-11.1527
▁switch	-11.1527
▁cancel	-11.1528
▁responded	-11.153
▁1991	-11.1538
▁passport	-11.154
▁deeper	-11.1542
▁Gulf	-11.1549
▁winner	-11.1562
▁bigger	-11.1573
▁stresses	-11.1578
▁Ukrainian	-11.1581
▁transmission	-11.1582
▁distinct	-11.1584
▁catastrophe	-11.1592
▁Baroness	-11.1592
▁pushing	-11.1596
▁complexity	-11.1597
▁communist	-11.1602
▁river	-11.1602
▁400	-11.1605
▁reviewed	-11.1609
▁audiovisual	-11.1613
▁celebrate	-11.1613
▁fortunate	-11.1613
▁accountable	-11.162
▁Val	-11.1622
▁livestock	-11.1624
▁xenophobia	-11.1624
▁selection	-11.1634
▁jeopardise	-11.1635
▁pesticides	-11.1643
▁abolished	-11.1644
▁appoint	-11.1653
▁indirectly	-11.1653
▁bid	-11.1656
▁occupy	-11.1656
▁momentum	-11.1657
▁selling	-11.1659
▁pursuit	-11.1667
taking	-11.1669
▁footing	-11.1673
▁Venezuela	-11.1678
▁controlling	-11.1687
▁harsh	-11.1689
position	-11.1694
▁Forum	-11.1695
▁determining	-11.1699
▁Arabia	-11.1702
▁Apart	-11.1703
▁modification	-11.171
▁shut	-11.171
▁Verts	-11.1712
▁interpreted	-11.1721
▁rigid	-11.1721
▁Progress	-11.1732
▁clarified	-11.1732
▁wild	-11.1732
▁file	-11.1732
▁station	-11.1736
▁mortgage	-11.1743
▁earth	-11.1743
▁scene	-11.1743
cycle	-11.1744
▁tender	-11.1748
▁liquidity	-11.1756
▁agents	-11.1758
▁machine	-11.1764
▁Hague	-11.1765
▁devastating	-11.1776
▁privatisation	-11.1776
▁courageous	-11.178
▁authorised	-11.1781
▁neighbour	-11.1782
▁realize	-11.1783
▁1970	-11.1787
▁Montenegro	-11.1787
▁denounce	-11.1787
▁maybe	-11.179
2005	-11.1796
▁merger	-11.1798
▁Ben	-11.1799
▁Kinnock	-11.1809
▁champion	-11.1809
sector	-11.1814
▁illegally	-11.1826
12	-11.1829
gram	-11.183
▁realised	-11.1841
▁spot	-11.1842
▁delayed	-11.1845
▁center	-11.1849
▁disgrace	-11.1853
▁brain	-11.1853
▁hydro	-11.1856
▁handled	-11.1858
▁unequivocal	-11.1864
▁initiate	-11.1866
▁capita	-11.1871
owned	-11.1873
▁guard	-11.1874
▁fan	-11.1885
▁acquire	-11.1888
▁predecessor	-11.1897
▁quantitative	-11.1897
▁Ste	-11.1898
▁fix	-11.1907
▁conscious	-11.1908
▁unified	-11.1908
▁cow	-11.1915
▁conceal	-11.1919
▁Nordic	-11.1921
▁deregulation	-11.1922
▁extract	-11.1924
human	-11.1924
▁venture	-11.193
▁tension	-11.1939
▁George	-11.1941
▁dioxide	-11.1941
▁postponed	-11.1948
▁32	-11.195
▁promising	-11.1952
▁violate	-11.1955
▁wrote	-11.1963
▁drinking	-11.1966
▁grand	-11.198
▁Cambodia	-11.1986
▁dedicated	-11.1986
▁disappointment	-11.1986
sceptic	-11.1986
▁God	-11.1992
productive	-11.1995
▁exact	-11.1997
▁assumed	-11.2002
▁reputation	-11.2008
▁outrage	-11.2008
▁2007-2013	-11.2019
▁elimination	-11.2019
▁separation	-11.2019
▁undermined	-11.203
▁destination	-11.203
▁70%	-11.2031
▁club	-11.2033
▁exploited	-11.204
▁database	-11.2042
▁quantities	-11.2042
▁deliberately	-11.2043
▁foresee	-11.2053
▁eliminating	-11.2053
▁perception	-11.2053
pproval	-11.2055
misunderstanding	-11.2064
▁delegate	-11.2065
▁Par	-11.2075
▁rebel	-11.2075
cho	-11.2085
▁capabilities	-11.2087
▁dramatically	-11.2089
▁neo	-11.2091
▁officers	-11.2092
▁luck	-11.2099
▁depriv	-11.2107
▁realities	-11.2109
▁weapon	-11.2109
▁cautious	-11.2109
▁Ju	-11.2119
▁Perspective	-11.2121
▁cattle	-11.2132
▁tendency	-11.2133
liberal	-11.2135
▁Directorate	-11.2139
▁violated	-11.214
▁owners	-11.2142
▁evolution	-11.2143
▁propaganda	-11.2143
▁nationalism	-11.2145
generation	-11.2146
▁enforced	-11.215
▁perceived	-11.2152
▁Canc	-11.2162
▁Cuban	-11.217
CNS	-11.2178
▁Slovak	-11.2188
class	-11.2193
US	-11.2197
mail	-11.2198
▁spectrum	-11.22
▁dictate	-11.2203
▁Tibetan	-11.2204
▁150	-11.2211
▁36	-11.2211
▁energies	-11.2212
▁optimistic	-11.2212
berg	-11.2213
public	-11.2214
building	-11.2222
▁Likewise	-11.2223
▁Quite	-11.2224
AT	-11.2232
▁misleading	-11.2234
▁trillion	-11.2234
▁sooner	-11.2238
▁profile	-11.2246
▁frankly	-11.2247
▁compare	-11.2251
▁Certainly	-11.2253
▁acquired	-11.2254
▁bubble	-11.2257
▁Round	-11.226
▁swift	-11.2264
▁concluding	-11.228
▁earmarked	-11.228
▁urged	-11.2283
ika	-11.2284
▁officially	-11.2286
some	-11.2292
▁pluralism	-11.2292
▁website	-11.2292
▁evil	-11.2292
▁interfere	-11.2292
▁radioactive	-11.2292
▁expanding	-11.2295
▁encouragement	-11.2295
▁teachers	-11.2295
▁deposit	-11.2297
udge	-11.2308
▁Industrial	-11.2315
▁cruel	-11.2315
▁Whether	-11.2326
▁gratitude	-11.2326
▁reconsider	-11.2326
▁England	-11.2338
▁recognising	-11.2338
▁behave	-11.2338
known	-11.2339
▁mal	-11.2355
▁rape	-11.2359
▁Confedera	-11.2361
▁memory	-11.2361
carbon	-11.2366
▁spare	-11.2369
▁CFSP	-11.2373
▁Neighbourhood	-11.2373
▁suspension	-11.2373
▁militari	-11.2373
▁charter	-11.2373
▁Iceland	-11.2373
▁mixed	-11.2382
▁recipient	-11.2384
▁Consider	-11.2384
determination	-11.2389
▁Cold	-11.2393
▁software	-11.2396
▁successes	-11.2416
▁dominant	-11.2419
▁Relations	-11.242
▁psychological	-11.2431
▁renewal	-11.2437
▁integrating	-11.2454
▁uncertain	-11.2465
▁postpone	-11.2466
▁donation	-11.2467
रो	-11.2467
▁alarm	-11.247
▁salaries	-11.2478
ogue	-11.2483
▁consume	-11.2496
mper	-11.2497
▁Revolution	-11.2501
▁Three	-11.2501
▁echo	-11.2503
▁discovered	-11.2504
▁broke	-11.2506
▁Director	-11.2506
▁banning	-11.2508
▁pushed	-11.2516
list	-11.2519
bra	-11.252
ller	-11.2523
▁Conciliation	-11.2525
▁epidemic	-11.2525
▁regulating	-11.2525
▁virtue	-11.2525
▁corrupt	-11.2533
▁located	-11.2548
▁subsidy	-11.2548
▁grip	-11.2551
▁accus	-11.2559
▁refrain	-11.256
▁smoke	-11.256
▁reproductive	-11.2578
▁complaint	-11.258
▁storm	-11.2584
▁Men	-11.2589
▁unite	-11.259
EM	-11.2593
▁dairy	-11.2596
▁identification	-11.2596
EGF	-11.2596
▁broaden	-11.2603
▁liberty	-11.2608
▁prosecution	-11.2608
▁Syrian	-11.2614
bon	-11.2616
ंत	-11.2618
▁unwilling	-11.2619
▁Balkan	-11.2628
▁substantive	-11.2631
▁substitute	-11.2632
▁confine	-11.2636
▁province	-11.2643
disproportionate	-11.2644
▁cheaper	-11.2648
▁Frontex	-11.2656
▁broadcast	-11.2659
▁guidance	-11.2667
▁harmonization	-11.2679
▁coup	-11.2682
▁Eurostat	-11.2682
द्	-11.2686
zz	-11.269
▁massacre	-11.2691
▁scrap	-11.2692
▁belonging	-11.2701
RA	-11.2705
▁Anyone	-11.2705
von	-11.2713
▁issuing	-11.2715
▁preserving	-11.2717
▁Lange	-11.2744
▁confrontation	-11.2744
▁discriminate	-11.2751
▁specified	-11.2751
▁resolute	-11.2763
▁Ya	-11.2767
▁authoritarian	-11.2772
▁Adjustment	-11.2775
▁blocked	-11.2779
▁copyright	-11.2788
▁enhancing	-11.28
▁inherent	-11.28
with	-11.2803
▁Serbian	-11.2808
▁Paul	-11.2812
▁Finance	-11.2812
▁enact	-11.2816
power	-11.2819
▁automatic	-11.2823
▁Access	-11.2824
▁injustice	-11.2824
▁pity	-11.2825
▁Govern	-11.2831
▁supranational	-11.2836
▁Islands	-11.2836
▁eligible	-11.2848
▁breath	-11.2848
▁hoping	-11.2851
▁deprived	-11.2852
▁demonstrating	-11.286
▁absent	-11.286
▁geopolitical	-11.286
▁Michel	-11.2873
▁minimal	-11.2873
▁conjunction	-11.2885
▁striking	-11.2885
▁premature	-11.2885
▁acute	-11.2885
▁transportation	-11.2896
▁caution	-11.2897
▁disappointing	-11.2897
▁Norway	-11.29
subsidi	-11.2903
▁broadcasting	-11.2905
▁frequent	-11.2905
▁emergence	-11.291
▁airline	-11.2917
▁Yesterday	-11.2921
▁sentiment	-11.2921
▁intensify	-11.2921
▁refusing	-11.2934
▁90%	-11.2935
▁Clinton	-11.2946
▁arbitrary	-11.2946
▁dark	-11.2946
ीय	-11.2947
▁Area	-11.2949
▁Frattini	-11.2958
▁Next	-11.2958
▁commodity	-11.2958
▁plus	-11.2959
cher	-11.2961
▁weaker	-11.2963
▁Mugabe	-11.2971
▁imply	-11.2971
▁fulfilling	-11.2976
▁charged	-11.2994
▁cold	-11.2995
▁bull	-11.3003
▁handle	-11.3007
▁preservation	-11.3008
▁stood	-11.3008
▁Egyptian	-11.3011
▁establishes	-11.3019
▁deterioration	-11.302
ियों	-11.302
▁teach	-11.3023
▁33	-11.3025
▁managers	-11.3025
▁48	-11.3028
▁deplore	-11.3032
ाव	-11.3035
▁calculate	-11.3045
▁holiday	-11.3045
▁hostage	-11.3048
active	-11.3056
▁protein	-11.3057
ught	-11.3061
▁simultaneously	-11.3075
▁delivery	-11.3081
value	-11.3082
▁Laeken	-11.3082
▁impressive	-11.3082
▁severely	-11.3085
▁consolidated	-11.3087
▁Arctic	-11.3095
▁NEW	-11.3095
▁cornerstone	-11.3095
▁indigenous	-11.3095
▁contradict	-11.3098
▁pig	-11.3104
▁Chair	-11.3106
▁Process	-11.3107
▁cloning	-11.3107
▁Southern	-11.3107
▁capitalist	-11.3115
legislator	-11.3119
▁excessively	-11.3119
▁Ecofin	-11.312
▁hypocrisy	-11.312
▁continuity	-11.3132
▁church	-11.3132
▁intolerable	-11.3132
▁pensioners	-11.3135
posing	-11.3138
▁nationalist	-11.314
▁sadly	-11.3143
▁sensitivity	-11.3145
▁ease	-11.3148
▁obstruct	-11.3157
▁Nazi	-11.3163
▁inspectors	-11.3171
▁persistent	-11.3173
▁Republican	-11.3174
structure	-11.318
▁circulation	-11.3182
▁disarmament	-11.3182
▁wisdom	-11.3182
▁site	-11.3193
▁specify	-11.3195
▁loud	-11.3195
▁weekend	-11.3211
▁Jean	-11.322
▁coordinator	-11.322
▁fur	-11.3224
▁mutually	-11.3231
▁rock	-11.3233
▁master	-11.3236
other	-11.3244
▁capacities	-11.3245
▁Basque	-11.3246
bsp	-11.3248
▁34	-11.3252
स्	-11.3256
▁dominated	-11.3258
▁Ethiopia	-11.3258
▁comfort	-11.3258
▁breast	-11.3259
▁formulated	-11.3265
▁box	-11.3267
▁attended	-11.3267
ku	-11.3268
▁prominent	-11.3271
now	-11.3272
trade	-11.3273
▁exposure	-11.3284
▁disability	-11.3295
▁worthwhile	-11.3296
▁domain	-11.3296
▁simplifying	-11.3302
▁advocated	-11.3303
▁arisen	-11.3305
accession	-11.3308
▁absorb	-11.3309
▁fatal	-11.3319
rio	-11.332
▁Fifth	-11.3322
▁pride	-11.3322
▁biotechnology	-11.3322
▁contradictory	-11.3335
gged	-11.335
▁ruin	-11.3356
developed	-11.3359
▁correction	-11.337
▁educate	-11.3373
▁chose	-11.3377
Europe	-11.3381
▁Communication	-11.3386
operation	-11.3395
▁manoeuvre	-11.3399
▁compliment	-11.3399
▁bond	-11.3399
▁objection	-11.3416
▁vigilant	-11.3424
▁complementary	-11.3427
call	-11.3429
▁season	-11.343
▁approving	-11.345
▁Nobel	-11.3455
▁mobilisation	-11.3463
▁Swoboda	-11.3476
▁College	-11.3476
▁prostitution	-11.3476
▁intent	-11.3482
▁cereal	-11.3489
▁embryo	-11.3489
▁smart	-11.349
▁proactive	-11.349
take	-11.3501
▁marriage	-11.3502
▁unusual	-11.3502
group	-11.3502
▁pave	-11.3505
▁profitable	-11.3513
▁Islamist	-11.3513
▁packaging	-11.3515
▁twelve	-11.3515
▁detrimental	-11.3518
▁panel	-11.3519
▁drag	-11.3521
▁DG	-11.3524
▁definite	-11.3525
▁censure	-11.3541
▁practise	-11.3554
▁unclear	-11.3554
▁swiftly	-11.3559
▁unsatisfactory	-11.3567
▁prize	-11.3567
▁crew	-11.3569
▁privileged	-11.357
▁traceability	-11.3581
▁boundaries	-11.3581
▁TV	-11.3588
▁Equality	-11.3589
▁Barnier	-11.3593
▁regain	-11.3593
▁fishery	-11.3593
▁rival	-11.3593
▁misuse	-11.36
▁Chernobyl	-11.3607
▁Jordan	-11.3607
▁explanatory	-11.3607
▁invasion	-11.3607
▁silent	-11.3607
▁unambiguous	-11.362
▁prohibition	-11.3634
cap	-11.3642
▁distress	-11.3646
▁Kremlin	-11.3659
▁Nuclear	-11.3659
▁virus	-11.3659
▁grasp	-11.3659
▁premise	-11.366
▁Working	-11.3662
%	-11.3664
RE	-11.3665
▁translate	-11.3666
▁duplicat	-11.3672
▁drought	-11.3672
▁nowadays	-11.3672
▁prosperous	-11.3672
▁deemed	-11.3673
▁hamper	-11.3673
▁sheep	-11.3676
▁Change	-11.3686
▁cofinancing	-11.3687
▁Merkel	-11.3699
▁mercury	-11.3699
▁tabling	-11.3699
160;	-11.3712
▁Azerbaijan	-11.3712
▁chaos	-11.3712
▁incapable	-11.3712
▁confronted	-11.3718
सी	-11.3724
▁Communities	-11.3725
▁Palacio	-11.3725
▁Paragraph	-11.3725
▁ultra	-11.3726
▁imbalance	-11.3729
▁noticed	-11.3733
▁ministerial	-11.3743
▁restoring	-11.3752
▁Tuesday	-11.3765
▁municipal	-11.3765
▁stabilisation	-11.3771
plan	-11.3773
▁2014	-11.3779
▁Surely	-11.3779
change	-11.3785
▁breaches	-11.379
▁administer	-11.3792
▁Together	-11.3806
▁gesture	-11.3806
4-01	-11.3806
▁wholly	-11.3806
▁lengthy	-11.3807
Russia	-11.3807
▁multiple	-11.3808
▁allocate	-11.3813
▁redundant	-11.3819
▁Spring	-11.3819
step	-11.3823
balanced	-11.3832
▁reunification	-11.3832
▁interrupt	-11.3832
▁Christmas	-11.3846
▁Unless	-11.3849
▁15%	-11.3857
▁departure	-11.3859
▁missile	-11.3859
▁clash	-11.386
▁teaching	-11.3867
▁install	-11.3872
▁surface	-11.3873
▁hatred	-11.3873
60	-11.3874
▁disrupt	-11.3884
▁Good	-11.3888
▁Vot	-11.3894
4-00	-11.3894
▁summary	-11.39
▁III	-11.3909
▁description	-11.3913
▁illusion	-11.3913
▁Natura	-11.3914
▁mistaken	-11.3914
▁Bolkestein	-11.3927
▁Gender	-11.3927
▁geo	-11.3927
▁missed	-11.3929
▁plenty	-11.394
▁opposing	-11.394
▁barely	-11.394
▁38	-11.3945
lessness	-11.3948
▁settled	-11.3952
▁REACH	-11.3954
▁explore	-11.3954
▁capture	-11.3954
product	-11.3956
80	-11.3964
minded	-11.3966
▁cigarette	-11.3968
▁redundancies	-11.3968
▁securities	-11.3968
account	-11.3971
▁University	-11.3981
▁loyal	-11.3981
▁incorrect	-11.3981
/2006	-11.3981
▁restriction	-11.3983
▁Sri	-11.3994
▁empower	-11.3995
▁legacy	-11.3995
▁insult	-11.4002
▁cure	-11.4005
▁incompatible	-11.4008
▁Lanka	-11.4009
▁politician	-11.4014
▁eradicate	-11.4022
▁olive	-11.4022
under	-11.4023
▁ECHO	-11.4036
▁alert	-11.4041
▁Poettering	-11.405
▁clothing	-11.405
▁rush	-11.405
▁confined	-11.4058
▁altogether	-11.4063
▁contamination	-11.4063
▁deepening	-11.4065
▁42	-11.4073
▁suicide	-11.4077
▁optimism	-11.4084
regulation	-11.409
▁attribute	-11.4091
▁leverage	-11.4091
first	-11.4095
▁Yugoslav	-11.4096
▁motivated	-11.4097
sighted	-11.4098
▁schedule	-11.4099
▁organising	-11.4107
▁geared	-11.4108
which	-11.4109
▁Small	-11.4119
▁fruitful	-11.4121
▁sick	-11.4121
▁alive	-11.4121
▁judgement	-11.4125
▁learnt	-11.4126
▁maxim	-11.4131
▁breakthrough	-11.4132
▁seriousness	-11.414
▁entities	-11.416
▁scandalous	-11.4163
American	-11.4164
▁ASEAN	-11.4174
▁curb	-11.4174
▁unrealistic	-11.4188
▁Pack	-11.4202
▁collected	-11.4204
▁continually	-11.4208
▁hitherto	-11.4216
▁impunity	-11.4216
▁75	-11.4218
▁awarded	-11.4218
▁Robert	-11.423
▁countryside	-11.4239
▁bargain	-11.4244
▁Danube	-11.4244
▁organisms	-11.4244
▁Berlusconi	-11.4258
▁apologise	-11.4258
▁relax	-11.4258
▁male	-11.426
08	-11.4267
▁hunt	-11.4274
regional	-11.4277
▁translated	-11.4278
▁judged	-11.4281
▁drink	-11.4282
▁Have	-11.4284
▁negotiator	-11.4286
▁Concerning	-11.4286
▁diversification	-11.4286
▁reinforcing	-11.4286
▁disorder	-11.4286
▁reception	-11.4286
▁VI	-11.4294
action	-11.4298
▁recourse	-11.43
4-02	-11.43
▁tunnel	-11.4314
▁deliberations	-11.4328
▁classification	-11.4329
▁wood	-11.4342
▁100%	-11.4344
▁strongest	-11.4346
lash	-11.4354
▁purchasing	-11.4356
▁expire	-11.437
▁discretion	-11.4385
▁liberties	-11.4385
▁inspired	-11.4385
▁Foundation	-11.4399
▁portfolio	-11.4399
2009	-11.4405
▁frame	-11.4413
▁ticket	-11.4427
▁Countries	-11.4442
▁proclaim	-11.4442
▁43	-11.4442
▁crop	-11.4446
intensive	-11.4448
▁Sahara	-11.445
▁Jerusalem	-11.4456
▁malaria	-11.4456
▁invention	-11.4458
▁guided	-11.4464
▁assent	-11.447
▁formulate	-11.4484
▁Mercosur	-11.4484
▁cooperating	-11.4484
▁viability	-11.4485
▁refund	-11.4488
▁affordable	-11.4495
incomprehensible	-11.4499
▁Cotonou	-11.4499
▁impartial	-11.4499
▁branch	-11.4499
▁homosexual	-11.4513
▁revise	-11.4523
▁Again	-11.4525
▁corporations	-11.4542
▁coverage	-11.455
▁Current	-11.4556
▁League	-11.4556
▁scourge	-11.4556
▁anticipate	-11.4566
ED	-11.4566
▁dismantling	-11.4571
▁offset	-11.4577
month	-11.4578
▁deployment	-11.4579
▁Reserve	-11.4585
▁Media	-11.4586
▁fairness	-11.4588
▁anybody	-11.46
▁likewise	-11.46
▁guiding	-11.4614
▁unification	-11.4616
meter	-11.4622
▁Support	-11.4629
▁certificate	-11.4629
▁uranium	-11.4629
▁simpler	-11.4631
▁challenging	-11.4643
▁redress	-11.4643
made	-11.4652
▁relevance	-11.4658
▁replacing	-11.4667
▁enemy	-11.4673
▁identical	-11.4673
▁entity	-11.4673
▁loan	-11.4675
ें	-11.4676
▁anticipated	-11.4678
▁pending	-11.4679
▁classes	-11.4687
▁certification	-11.4687
▁somewhere	-11.4687
▁Further	-11.4702
▁deliberate	-11.4715
▁ridiculous	-11.4717
▁imperialist	-11.4717
▁guardian	-11.4718
interoperability	-11.4731
▁prosecutor	-11.4731
▁rose	-11.4732
namo	-11.4735
▁cell	-11.4738
life	-11.4744
▁Turning	-11.4746
▁reluctant	-11.4746
▁injured	-11.4746
▁replacement	-11.476
▁perpetrators	-11.4762
2010	-11.4771
▁frustration	-11.4775
▁precarious	-11.4775
▁proportionality	-11.4775
▁nice	-11.4779
▁Church	-11.479
▁defect	-11.479
▁excise	-11.4805
▁abide	-11.4806
▁comprise	-11.4806
▁supplied	-11.482
▁unresolved	-11.482
▁camp	-11.4833
▁Initiative	-11.4849
▁Posselt	-11.4849
▁Seventh	-11.4849
▁maternity	-11.4849
▁excellence	-11.4864
▁steer	-11.4866
RC	-11.4869
▁hoc	-11.4875
▁perpetrat	-11.4878
range	-11.4878
▁livelihood	-11.4879
▁temperature	-11.4879
▁David	-11.4879
▁duration	-11.4879
▁accusations	-11.488
▁estimate	-11.488
▁frank	-11.4893
▁नहीं	-11.4894
▁subscribe	-11.4894
type	-11.4904
▁oppress	-11.4921
▁confused	-11.4921
▁extremism	-11.4924
▁populist	-11.4924
▁Title	-11.4924
party	-11.4926
▁modernise	-11.4932
▁nutrition	-11.4939
▁qualitative	-11.4939
▁stabilise	-11.4939
▁struggling	-11.4939
▁vaccination	-11.4939
▁competing	-11.4939
▁quiet	-11.4939
▁600	-11.494
▁phenomena	-11.4954
▁repressive	-11.4954
▁resume	-11.4965
▁Nothing	-11.4969
▁Anti	-11.4975
SE	-11.4979
▁hidden	-11.4984
▁fool	-11.4984
fish	-11.4986
▁passive	-11.5014
house	-11.5014
▁equipped	-11.5015
▁Catholic	-11.5029
▁Customs	-11.5045
▁laundering	-11.5045
▁walk	-11.5045
▁viewpoint	-11.5054
▁Whatever	-11.5063
जी	-11.507
▁Euratom	-11.5075
▁evolve	-11.5075
▁straightforward	-11.5075
▁welcoming	-11.5075
▁bloc	-11.5087
▁Sakharov	-11.509
▁prescribe	-11.509
▁Sometimes	-11.5106
▁Roth	-11.5109
▁airspace	-11.5121
▁unsustainable	-11.5121
▁Stalin	-11.5121
▁deepen	-11.5128
▁Caribbean	-11.5136
▁provoke	-11.5136
▁journalist	-11.5144
▁oblige	-11.5147
▁flee	-11.5147
▁additives	-11.5151
▁cosmetic	-11.5167
▁declining	-11.5167
▁Angola	-11.5167
▁dependency	-11.5168
paid	-11.5177
▁encompass	-11.5182
▁prerogative	-11.5182
▁SIS	-11.5182
▁installations	-11.5183
▁Ten	-11.5187
▁Personally	-11.5197
▁Sport	-11.52
▁mining	-11.5201
shop	-11.5206
▁surpluses	-11.5208
functional	-11.5212
▁giant	-11.5213
▁Erika	-11.5228
▁revive	-11.5228
▁MEDA	-11.5244
▁comparative	-11.5244
▁reasonably	-11.5246
▁announce	-11.5246
▁reopen	-11.5259
▁Water	-11.5263
▁entirety	-11.5267
▁Up	-11.5281
q	-11.5285
▁taxpayer	-11.5287
▁Business	-11.529
▁extradition	-11.529
▁music	-11.5294
▁arrival	-11.5306
▁assuming	-11.5306
▁Unlike	-11.5306
face	-11.5327
▁creditors	-11.5332
▁arrange	-11.5334
▁Administration	-11.5337
speed	-11.5338
▁unknown	-11.5342
▁mount	-11.5343
itarian	-11.5345
▁accommodate	-11.5353
▁radiation	-11.5353
▁hectare	-11.5368
▁precedence	-11.5368
▁pricing	-11.5368
▁bitter	-11.5374
fuel	-11.5382
book	-11.5383
▁Guant	-11.5388
▁stone	-11.5388
worthy	-11.5397
▁Jewish	-11.54
▁Yemen	-11.54
▁unconditional	-11.54
▁UEN	-11.5401
▁permission	-11.5403
flow	-11.5404
▁utterly	-11.541
▁Network	-11.5415
▁compound	-11.5415
▁democrats	-11.5415
▁pornography	-11.5415
▁preferential	-11.5415
▁pronounce	-11.5415
▁secretariat	-11.5415
▁distant	-11.5415
▁ILO	-11.5415
▁pool	-11.5427
income	-11.5429
▁sudden	-11.5431
▁outlook	-11.5431
▁talent	-11.5431
▁जो	-11.5432
▁Sixth	-11.5447
▁dubious	-11.5447
▁thrown	-11.5462
fire	-11.5468
▁contributor	-11.5478
▁thrust	-11.5478
▁CFP	-11.5478
entrepreneurship	-11.5479
word	-11.5479
▁vice	-11.5482
▁coincide	-11.5494
▁applause	-11.5494
▁coexistence	-11.5494
▁occurring	-11.5497
▁dying	-11.5499
▁Singapore	-11.551
▁harmonising	-11.551
▁imprisoned	-11.551
▁paramount	-11.551
▁brave	-11.5511
▁exit	-11.5526
▁Gothenburg	-11.5526
▁Galicia	-11.5526
▁deficiencies	-11.5542
▁timing	-11.5542
▁oppression	-11.5546
▁defer	-11.5547
▁strain	-11.5558
polluter	-11.5573
▁recruit	-11.5587
▁Front	-11.559
▁infection	-11.559
▁EDF	-11.559
▁salary	-11.559
▁Nobody	-11.5606
▁Watson	-11.5606
▁temptation	-11.5606
▁कम	-11.5613
▁restoration	-11.5622
▁horse	-11.5622
▁barrier	-11.5624
▁renew	-11.5626
▁Games	-11.5638
looking	-11.564
▁trick	-11.564
▁driver	-11.5654
▁incinerat	-11.5654
century	-11.567
▁discourage	-11.567
▁anxious	-11.567
▁Though	-11.5671
▁ethics	-11.5686
▁Kenya	-11.5687
▁Swiss	-11.5703
▁studied	-11.5703
▁Slovenian	-11.5706
▁attaches	-11.5713
▁slip	-11.5714
▁किया	-11.572
▁brand	-11.5723
▁volunteer	-11.5735
▁Besides	-11.5735
▁copy	-11.5751
▁loophole	-11.5751
▁Open	-11.5754
▁upheld	-11.5768
▁exemplary	-11.5784
▁exercising	-11.5784
▁ignoring	-11.5784
▁overseas	-11.5784
▁waiver	-11.5786
▁sanction	-11.5789
0%	-11.5793
▁Arafat	-11.58
▁accede	-11.58
▁racist	-11.58
Maritime	-11.5801
▁Somalia	-11.5817
▁creativity	-11.5817
▁eager	-11.5817
▁conversion	-11.5818
▁corridor	-11.5833
▁enthusiastic	-11.5833
▁cultivation	-11.5849
▁thirty	-11.5849
▁afterwards	-11.585
▁carries	-11.5854
employment	-11.5863
▁offend	-11.5864
▁aquaculture	-11.5866
▁window	-11.5867
▁trace	-11.5869
▁reciprocity	-11.5882
▁veterinary	-11.5882
▁interaction	-11.5884
▁legislate	-11.5899
▁repeal	-11.5899
▁deadlock	-11.59
▁shameful	-11.59
▁appearance	-11.5911
▁aggression	-11.5932
▁alleviate	-11.5932
▁arguing	-11.5932
▁dilemma	-11.5932
▁wound	-11.5932
Qaeda	-11.5949
▁symptom	-11.5949
▁Innovation	-11.5949
▁incidentally	-11.5951
▁advent	-11.5966
▁norms	-11.5967
▁Jacques	-11.5982
4-03	-11.5985
MI	-11.5987
▁industrialised	-11.5994
▁Sunday	-11.5999
▁overcoming	-11.5999
▁disappearance	-11.6004
▁landscape	-11.6015
▁transplant	-11.6015
water	-11.6023
▁Corbett	-11.6032
▁Johannesburg	-11.6032
▁restraint	-11.6032
▁colour	-11.6032
▁petrol	-11.6032
▁admission	-11.6033
▁chronic	-11.6049
▁submitting	-11.6056
▁Kurds	-11.6065
▁parameters	-11.6065
▁relaunch	-11.6065
▁pretend	-11.6066
▁offensive	-11.6082
▁theoretical	-11.6082
▁Suprem	-11.6083
▁Sharon	-11.6083
fusion	-11.6084
▁classic	-11.6089
▁YORK	-11.6099
▁pocket	-11.6099
▁contest	-11.6099
ique	-11.6099
▁Drug	-11.61
▁250	-11.6102
▁ball	-11.6102
▁constrain	-11.6115
▁Monitoring	-11.6116
▁contempt	-11.6116
▁rehabilitation	-11.6116
▁hang	-11.6122
▁rub	-11.6126
▁stipulates	-11.6126
▁vessel	-11.6126
▁transaction	-11.6127
▁advocating	-11.6133
▁hypocritical	-11.6133
स्त	-11.6137
▁Chirac	-11.615
▁Jarzembowski	-11.615
▁Malaysia	-11.615
/2004	-11.615
▁square	-11.615
▁machinery	-11.6151
▁Right	-11.6152
▁adjourned	-11.6184
annual	-11.6186
imperial	-11.62
▁bottle	-11.6201
▁dismantle	-11.6201
▁dynamism	-11.6201
▁generating	-11.6201
▁harassment	-11.6201
▁insofar	-11.6201
Schmid	-11.6202
▁Eurojust	-11.6218
▁drift	-11.6218
▁rigour	-11.6218
▁slogan	-11.6218
FTA	-11.6218
▁modify	-11.6218
▁Hezbollah	-11.6235
▁diagnosis	-11.6235
▁worries	-11.6235
▁विकास	-11.6235
▁stories	-11.6235
▁taught	-11.6235
▁ballot	-11.6236
▁forefront	-11.6252
▁blatant	-11.6252
▁Jews	-11.6252
▁spell	-11.6252
▁alien	-11.6255
▁Ministry	-11.6269
▁easing	-11.6269
bag	-11.6284
▁Bangladesh	-11.6286
▁Executive	-11.6303
▁Thailand	-11.6303
▁allegations	-11.6303
▁beautiful	-11.6303
▁infringe	-11.6304
▁downturn	-11.6309
▁countless	-11.631
▁eradication	-11.6321
▁evaluating	-11.6321
▁mortality	-11.6338
▁emphatically	-11.6338
▁legislators	-11.6339
▁navigation	-11.6355
▁corner	-11.6355
▁disruption	-11.6358
▁migratory	-11.6372
▁recruitment	-11.6376
▁unequal	-11.639
▁imminent	-11.6407
▁imprisonment	-11.6407
keeping	-11.6409
▁Chad	-11.6413
▁dogma	-11.6419
▁eleven	-11.6424
▁trialogue	-11.6442
▁surge	-11.6444
▁selective	-11.6447
▁routine	-11.6459
▁bankruptcy	-11.646
▁bought	-11.646
▁replied	-11.6477
▁Multi	-11.6477
▁tsunami	-11.6494
▁shaping	-11.6494
ography	-11.6494
▁Scientific	-11.6512
▁catastrophic	-11.6512
▁stimulating	-11.6512
▁horror	-11.6512
▁urging	-11.6513
▁novel	-11.6513
▁peacekeeping	-11.6514
kov	-11.6517
▁goodwill	-11.6529
▁volatility	-11.6547
▁insert	-11.6555
▁proportionate	-11.6557
▁poison	-11.6565
▁capability	-11.6566
terrorism	-11.657
▁Lomé	-11.6582
▁critics	-11.6582
▁Costa	-11.6583
▁verify	-11.6583
▁unrest	-11.6584
▁fabric	-11.66
▁ocean	-11.66
▁smuggling	-11.66
▁splendid	-11.66
▁completing	-11.66
▁pretty	-11.66
▁student	-11.6601
वास्	-11.6606
▁doctrine	-11.6618
▁gambling	-11.6618
▁incorporating	-11.6618
▁incurred	-11.6618
script	-11.6619
East	-11.662
▁prioritise	-11.6637
untuk	-11.6638
▁Burmese	-11.6653
▁obligatory	-11.6653
▁speculative	-11.6653
▁Annual	-11.6653
▁Oomen	-11.6671
▁Liikanen	-11.6671
▁flourish	-11.6671
▁inflict	-11.6671
▁Annan	-11.6671
2008	-11.6676
▁prudent	-11.6683
▁millennium	-11.6689
▁deflation	-11.6689
▁imposition	-11.669
▁Rwanda	-11.6707
▁legislature	-11.6707
▁subsidise	-11.6708
election	-11.6722
▁Lukashenko	-11.6725
▁incredibly	-11.6725
▁interview	-11.6725
▁dropped	-11.6726
▁Which	-11.6761
▁communism	-11.6761
▁slowdown	-11.6762
▁Scottish	-11.6779
▁architecture	-11.6779
▁Socrates	-11.6797
▁criticize	-11.6797
▁detained	-11.6797
▁Sadly	-11.6797
▁consolidating	-11.6815
bank	-11.682
सके	-11.6828
▁TACIS	-11.6833
▁mankind	-11.6833
▁presidencies	-11.6833
▁readiness	-11.6851
▁Peter	-11.6854
(3)	-11.6862
▁hygiene	-11.6869
▁liable	-11.687
▁curtail	-11.6888
▁salmon	-11.6888
▁aftermath	-11.6888
▁slavery	-11.6888
▁leak	-11.6906
▁forgive	-11.6912
Ruijten	-11.6924
▁herself	-11.6924
▁patience	-11.6924
▁prosecute	-11.6924
ocracy	-11.6927
▁engaging	-11.6942
▁manipulation	-11.6942
▁stretch	-11.6942
▁proving	-11.6943
▁striving	-11.6961
▁ancient	-11.6961
▁leap	-11.6961
▁breakdown	-11.6962
▁retention	-11.6979
member	-11.6982
▁committing	-11.6986
▁approximat	-11.6998
▁destructive	-11.6998
▁unjustified	-11.6998
▁invoke	-11.6998
AIDS	-11.7006
interest	-11.7006
▁PHARE	-11.7016
▁hormone	-11.7016
▁craft	-11.7016
▁inspect	-11.7031
▁unjust	-11.7034
▁Mauritania	-11.7035
▁Vitorino	-11.7035
▁drain	-11.7035
▁groundwater	-11.7035
terior	-11.7036
▁edge	-11.7038
▁gun	-11.7051
▁decentralised	-11.7053
▁superior	-11.7053
▁cyber	-11.7053
▁ceasefire	-11.7053
▁egg	-11.7067
▁choosing	-11.7072
▁eventual	-11.7074
▁postponement	-11.7078
credit	-11.7079
–	-11.7081
▁twentieth	-11.709
▁tune	-11.7092
▁Section	-11.7109
▁Lamy	-11.7109
▁lobbyists	-11.711
▁Agricultural	-11.7127
▁Chechen	-11.7127
▁GSP	-11.7127
▁deteriorate	-11.7128
▁1960	-11.713
social	-11.7137
bound	-11.714
▁Nepal	-11.7146
▁internet	-11.7146
▁Medic	-11.7161
▁ELDR	-11.7165
▁Ferrero	-11.7165
▁cotton	-11.7165
▁pollute	-11.7172
▁inspiration	-11.7184
▁Enlargement	-11.7221
▁contractual	-11.7221
▁shot	-11.7221
▁incredible	-11.724
▁spiral	-11.724
▁nominal	-11.7241
logical	-11.7255
▁reintegrat	-11.7259
cyclical	-11.7278
▁Refugee	-11.7278
▁enemies	-11.7278
▁milestone	-11.7278
▁poultry	-11.7278
Saharan	-11.7285
▁commence	-11.7297
▁artists	-11.73
▁handicap	-11.7317
▁cynical	-11.7335
▁commodities	-11.7354
▁gallery	-11.7354
▁temporarily	-11.7354
▁foreseeable	-11.7359
Waldner	-11.7373
▁Harbour	-11.7373
▁kilometres	-11.7373
▁tuberculosis	-11.7373
▁Sunni	-11.7373
financing	-11.7383
disciplinary	-11.7392
▁Treasury	-11.7392
▁controversy	-11.7392
▁empire	-11.7392
▁overview	-11.7392
▁secrecy	-11.7392
▁ambassador	-11.7412
▁equitable	-11.7412
▁replies	-11.7412
▁triumph	-11.7412
▁Alzheimer	-11.7431
▁tanker	-11.7431
▁unexpected	-11.7431
▁José	-11.7431
▁summarise	-11.7431
▁readily	-11.7433
▁liquid	-11.7447
bureaucrat	-11.745
▁Particular	-11.7469
▁Technology	-11.7469
▁पह	-11.7472
▁Tax	-11.7474
political	-11.7482
military	-11.7482
▁Professor	-11.7489
▁pandemic	-11.7489
▁stagnation	-11.7489
▁crash	-11.7489
▁stamp	-11.7497
▁Cross	-11.7508
▁unstable	-11.7508
▁quest	-11.7524
▁migrant	-11.7524
▁discard	-11.7528
lvency	-11.7528
▁Moroccan	-11.7547
▁college	-11.7547
▁Senate	-11.7547
▁expulsion	-11.7566
▁lagging	-11.7566
Bendit	-11.7566
▁Lehne	-11.7566
▁dominate	-11.7567
▁intolerance	-11.7586
▁wip	-11.7589
में	-11.76
▁ascertain	-11.7606
▁fragmentation	-11.7606
▁Cohn	-11.7606
▁discredit	-11.7608
▁equip	-11.7622
▁Kazakhstan	-11.7625
▁excluding	-11.7625
▁redistribution	-11.7625
▁lapse	-11.7625
▁Lebanese	-11.7645
▁explosion	-11.7645
▁submission	-11.7647
▁Poverty	-11.7664
▁eligibility	-11.7664
▁shipbuilding	-11.7665
▁classified	-11.7666
▁standpoint	-11.7667
phobia	-11.7684
▁Children	-11.7684
▁communautaire	-11.7684
▁visibility	-11.7684
▁inject	-11.7684
minute	-11.7698
▁Madeira	-11.7704
▁Society	-11.7704
▁indicating	-11.7704
▁Gonz	-11.7704
▁overlap	-11.7705
▁surround	-11.7712
▁accumulate	-11.7724
▁atrocities	-11.7724
▁advertise	-11.7724
▁तक	-11.7724
▁blackmail	-11.7724
▁virtual	-11.7728
▁dari	-11.7738
development	-11.7738
▁earliest	-11.7744
policy	-11.7758
▁phasing	-11.7764
▁Keynes	-11.7764
▁Crespo	-11.7783
▁tailor	-11.7783
▁assistants	-11.7787
tabilisation	-11.7795
▁hazard	-11.7802
▁Thessaloniki	-11.7803
▁compatibility	-11.7803
▁dreadful	-11.7803
▁lorries	-11.7803
▁Opportunities	-11.7823
▁responsibly	-11.7843
▁impede	-11.7845
▁employee	-11.7847
▁anxiety	-11.7864
▁inconsistent	-11.7864
▁mitigate	-11.7864
▁pioneer	-11.7864
▁levy	-11.7864
▁qualify	-11.7864
▁verdict	-11.7864
▁misery	-11.7864
existent	-11.7866
▁Quartet	-11.7884
▁entitlement	-11.7884
▁sophisticated	-11.7884
▁vacuum	-11.7884
▁CIA	-11.7884
▁neoliberal	-11.7884
start	-11.7885
growing	-11.7899
▁inspire	-11.7914
negara	-11.7924
▁Erasmus	-11.7924
▁Instrument	-11.7924
▁bulk	-11.7924
▁headquarters	-11.7924
▁hedge	-11.7924
▁hostile	-11.7926
Africa	-11.794
▁basin	-11.7943
▁Bangemann	-11.7944
▁GNP	-11.7944
▁Tribunal	-11.7944
▁broadband	-11.7944
▁implicit	-11.7944
▁incumbent	-11.7944
मिल	-11.7953
▁Sustainable	-11.7965
▁chocolate	-11.7965
▁occurrence	-11.7965
▁bankrupt	-11.7985
▁Ultimately	-11.7985
▁harvest	-11.7985
▁incorporation	-11.7985
▁motivation	-11.7985
▁surrender	-11.7985
▁impoverish	-11.8005
▁likelihood	-11.8026
▁roadmap	-11.8026
▁Kyi	-11.803
▁bailout	-11.8046
▁concentrating	-11.8046
▁harmony	-11.8046
▁hesitate	-11.8046
▁economist	-11.8051
service	-11.8063
▁Vladimir	-11.8067
▁जिस	-11.8075
version	-11.8084
▁nonsense	-11.8087
▁spill	-11.8087
▁assigned	-11.8088
▁tribunal	-11.8108
▁gift	-11.8108
▁ozone	-11.8108
▁reliability	-11.8108
▁vicious	-11.8108
Assad	-11.8121
▁unreasonable	-11.8128
▁assault	-11.8128
▁Rehn	-11.8128
▁jail	-11.8128
▁revising	-11.8129
▁rice	-11.8129
▁somebody	-11.8149
▁wheel	-11.8149
▁Official	-11.817
▁literally	-11.817
▁obsolete	-11.817
▁charging	-11.817
▁Abbas	-11.817
▁sceptical	-11.817
▁rotat	-11.8171
▁chamber	-11.819
▁district	-11.819
▁extraordinarily	-11.819
▁facilitation	-11.819
▁acquisition	-11.8192
▁analysing	-11.8211
▁frighten	-11.8211
▁measuring	-11.8211
▁varied	-11.8211
▁Product	-11.8213
itude	-11.8231
administrat	-11.8232
▁Philippines	-11.8232
▁nomination	-11.8232
▁anchor	-11.8233
▁gear	-11.8248
▁Belgrade	-11.8253
▁Guatemala	-11.8253
▁biomass	-11.8253
▁decree	-11.8255
▁align	-11.8272
▁WHO	-11.8274
▁influx	-11.8274
▁conversation	-11.8274
▁immigrant	-11.8283
Rapporteur	-11.8295
▁Competition	-11.8295
▁incomplete	-11.8295
▁investigating	-11.8295
▁unchanged	-11.8295
▁loose	-11.8295
▁seminar	-11.8295
▁privatiz	-11.8316
▁militia	-11.8316
▁equilibrium	-11.8316
▁tragedies	-11.8316
▁SME	-11.8326
close	-11.8334
▁142)	-11.8337
▁omission	-11.8338
मान	-11.8355
▁Management	-11.8358
▁contaminated	-11.8358
▁Delors	-11.8358
▁reintroduc	-11.8379
▁Wogau	-11.8379
▁abundant	-11.8379
▁mineral	-11.8381
▁aspire	-11.8389
▁explosive	-11.84
▁verification	-11.84
▁contemporary	-11.8422
▁sweep	-11.8422
▁readmission	-11.8424
▁Capital	-11.8443
▁Department	-11.8443
▁Malmst	-11.8443
▁automobile	-11.8443
▁dissemination	-11.8443
▁racial	-11.8443
▁brother	-11.8443
▁unlawful	-11.8464
crib	-11.8471
▁horizon	-11.8485
▁Scandinavia	-11.8485
lateral	-11.8494
producing	-11.8506
▁boycott	-11.8507
▁congestion	-11.8507
▁depression	-11.8507
▁Sierra	-11.8507
▁Florence	-11.8528
▁bolster	-11.8528
▁associate	-11.853
▁convene	-11.8535
hearted	-11.8538
▁steady	-11.855
▁allocating	-11.855
▁tiny	-11.855
▁erupt	-11.855
▁refuge	-11.8559
▁condolences	-11.8571
▁uncontrolled	-11.8571
▁paradox	-11.8591
▁Fontaine	-11.8593
▁demonstrators	-11.8593
▁rethink	-11.8593
▁generic	-11.8594
▁reciprocal	-11.8636
INI	-11.8637
▁IND	-11.8646
▁convenience	-11.8658
▁indicative	-11.8658
financial	-11.8658
▁Christ	-11.8679
▁Burundi	-11.868
▁Delegation	-11.868
▁combining	-11.868
▁cancellation	-11.868
▁Cairo	-11.868
▁Uzbekistan	-11.8702
▁relieve	-11.8702
▁celebration	-11.8724
▁regrettably	-11.8724
▁harmonize	-11.8724
graduate	-11.8724
▁subordinate	-11.8724
designate	-11.8742
▁arriving	-11.8746
▁frozen	-11.8746
▁piracy	-11.8746
▁supervise	-11.8748
decision	-11.8766
▁Erdo	-11.8767
▁influential	-11.8767
▁predominant	-11.879
▁referenda	-11.879
competitive	-11.8791
China	-11.8791
▁oversee	-11.8792
source	-11.8793
▁interconnection	-11.8812
▁sail	-11.8813
▁Garc	-11.8822
▁harmonious	-11.8834
▁retire	-11.8855
▁Juncker	-11.8856
▁redefin	-11.8874
▁Bonino	-11.8878
▁evasion	-11.8878
▁steadily	-11.8878
▁arose	-11.8879
▁LIFE	-11.89
▁fifty	-11.89
▁vulnerability	-11.89
▁indebted	-11.8901
▁Prosecutor	-11.8923
▁frequency	-11.8923
▁shake	-11.8924
▁Wallst	-11.8939
▁backdrop	-11.8945
▁infected	-11.8945
▁spectacular	-11.8945
▁stupid	-11.8945
▁utilise	-11.8945
▁flawed	-11.8945
▁fierce	-11.8945
▁paradoxical	-11.8947
▁expose	-11.8948
▁Something	-11.8968
▁glass	-11.8968
▁Basel	-11.8968
▁updating	-11.8968
conceived	-11.899
▁abstention	-11.899
▁timber	-11.899
▁indicator	-11.9012
▁Azores	-11.9012
▁entrusted	-11.9012
▁injuries	-11.9013
▁escalation	-11.9035
▁erode	-11.9036
ाहि	-11.9052
▁enlighten	-11.9058
▁miracle	-11.9058
▁coincidence	-11.9058
priorit	-11.9078
▁Canadian	-11.908
▁auspices	-11.908
▁imagination	-11.908
▁nurse	-11.908
▁Legislat	-11.9103
▁cohesive	-11.9103
▁intimidation	-11.9103
▁irrelevant	-11.9103
Myanmar	-11.9103
▁superpower	-11.9104
▁Rothley	-11.9126
▁149)	-11.9126
▁Holland	-11.9149
Ivoire	-11.9149
▁shrink	-11.9149
▁Seville	-11.9172
▁beneficiary	-11.9172
▁incidence	-11.9172
▁tissue	-11.9172
▁diesel	-11.9172
▁aggregate	-11.9195
▁contend	-11.9195
▁knock	-11.9218
▁Cologne	-11.9218
▁Mulder	-11.9218
▁dividing	-11.9218
▁husband	-11.9218
▁attentive	-11.9218
▁crowd	-11.9218
▁Wolf	-11.9218
▁overnight	-11.9218
▁feasibility	-11.9241
FOR	-11.9241
▁Byrne	-11.9241
▁slave	-11.9263
▁addiction	-11.9264
▁undergoing	-11.9264
▁optimis	-11.9276
▁Kashmir	-11.9287
▁indiscriminate	-11.9287
▁undesirable	-11.9287
▁Oostlander	-11.931
▁uncertainties	-11.931
▁Mandelson	-11.9333
▁ambiguous	-11.9333
▁diversify	-11.9333
▁magnitude	-11.9333
▁manipulate	-11.9333
▁shelter	-11.9333
▁tongue	-11.9333
▁Journal	-11.9357
▁Medina	-11.9357
▁Mexican	-11.9357
▁balancing	-11.9357
▁licensing	-11.9357
▁Barrot	-11.9357
▁operator	-11.9362
ethnic	-11.9362
▁precaution	-11.9378
▁Almost	-11.938
▁despair	-11.938
▁overhaul	-11.938
▁Dimension	-11.9403
▁landfill	-11.9403
▁troika	-11.9403
▁Prestige	-11.9427
▁destiny	-11.9427
▁Movement	-11.9427
▁blank	-11.945
▁obscure	-11.945
▁traffickers	-11.945
Community	-11.9456
crisis	-11.9456
respect	-11.9456
▁Ossetia	-11.9474
▁dioxin	-11.9474
▁Evans	-11.9474
▁Athens	-11.9474
▁Faced	-11.9474
▁Cardiff	-11.9498
▁circumvent	-11.9498
▁statutory	-11.9498
▁unavoidable	-11.9498
▁video	-11.9498
▁inhumane	-11.9498
▁utter	-11.9506
▁PNR	-11.9521
▁Velzen	-11.9521
▁convicted	-11.9521
▁confuse	-11.9526
compliance	-11.9527
▁Category	-11.9545
▁periphery	-11.9545
▁auction	-11.9545
▁Measures	-11.9569
▁UCLAF	-11.9569
▁derivatives	-11.9569
▁hesitation	-11.9569
▁chicken	-11.9569
▁overdue	-11.9569
▁rectify	-11.9569
▁acknowledging	-11.9593
▁divergence	-11.9593
▁intensified	-11.9593
▁taste	-11.9595
▁divorce	-11.9617
▁episode	-11.9617
▁potato	-11.9617
▁trauma	-11.9617
▁elaborate	-11.9641
▁hierarchy	-11.9641
▁juncture	-11.9641
▁Earth	-11.9641
Behrendt	-11.9665
▁illicit	-11.9665
▁Dalai	-11.9689
▁polluting	-11.9689
▁Abkhazia	-11.9713
▁History	-11.9713
▁Nielson	-11.9713
▁envoy	-11.9713
▁Lulling	-11.9713
▁Bourlanges	-11.9737
▁McCreevy	-11.9737
▁Ortega	-11.9761
▁mature	-11.9762
▁reluctance	-11.9786
▁upcoming	-11.9786
▁Oslo	-11.9786
▁Certain	-11.9794
▁Ankara	-11.981
▁unaware	-11.981
▁federation	-11.981
▁aforementioned	-11.9835
▁confusing	-11.9835
▁curious	-11.9835
▁enforcing	-11.9859
▁exciting	-11.9859
▁spark	-11.9859
▁preceded	-11.9884
▁Mubarak	-11.9933
▁Schreyer	-11.9933
▁Technological	-11.9933
▁turmoil	-11.9933
▁Aviation	-11.9933
▁strand	-11.9933
▁reservation	-11.9948
activate	-11.9951
▁Valencia	-11.9958
▁carcinogen	-11.9958
▁entrepreneurial	-11.9958
▁wife	-11.9958
▁Border	-11.9958
▁Gross	-11.9958
keeper	-11.9964
private	-11.9967
▁Admittedly	-11.9983
▁Chapter	-11.9983
▁Inquiry	-11.9983
▁mutilation	-11.9983
▁grain	-11.9983
▁ensu	-11.9984
committee	-11.9992
Israel	-11.9992
▁erosion	-12.0007
▁ignorance	-12.0007
▁superfluous	-12.0007
▁shoot	-12.0007
▁impasse	-12.0032
▁sulphur	-12.0032
Plath	-12.0032
▁segment	-12.0032
▁Universal	-12.0057
▁synergies	-12.0057
▁Staff	-12.0057
▁categorical	-12.0057
▁cluster	-12.0057
visual	-12.0058
▁Randzio	-12.0082
▁Depression	-12.0082
▁distribute	-12.0088
▁Tomorrow	-12.0108
▁irreversible	-12.0108
▁tempted	-12.0108
profit	-12.0118
▁Prague	-12.0133
▁confiscat	-12.0133
▁contravene	-12.0133
▁detainees	-12.0133
▁globe	-12.0133
▁confess	-12.0158
▁reimbursement	-12.0158
▁remuneration	-12.0158
▁unleash	-12.0158
▁intensity	-12.0158
▁Dialogue	-12.0183
▁crude	-12.0184
त्त	-12.0184
benefit	-12.0194
▁strip	-12.0198
▁depleted	-12.0209
▁degradation	-12.0209
▁11.30	-12.0209
▁perceive	-12.0215
7-0	-12.022
including	-12.022
▁Florenz	-12.0234
▁indifference	-12.0234
▁identities	-12.0234
specific	-12.0247
▁Uganda	-12.026
▁observance	-12.026
▁variation	-12.026
▁ECOFIN	-12.0285
▁Netanyahu	-12.0285
▁impair	-12.0285
▁unnecessarily	-12.0285
▁irregular	-12.031
▁Hitler	-12.0311
▁Alexander	-12.0311
▁defensive	-12.0311
▁deteriorating	-12.0311
▁signatories	-12.0311
▁vested	-12.0311
▁Bolivia	-12.0337
▁Future	-12.0337
▁catalyst	-12.0337
▁variable	-12.0337
▁spouse	-12.0337
▁Child	-12.0337
▁psycho	-12.0337
▁SWIFT	-12.0362
▁Supervisor	-12.0362
funded	-12.0368
field	-12.0379
ransatlantic	-12.0387
skeptic	-12.0388
▁calendar	-12.0388
▁exchanging	-12.0388
▁Radical	-12.0388
▁composed	-12.0388
▁honey	-12.0388
▁reinstate	-12.0388
▁ambiguity	-12.0414
▁comprehensible	-12.0414
▁cultivate	-12.0414
▁decoupling	-12.0414
▁pregnant	-12.0414
▁residue	-12.0414
▁synthetic	-12.0414
people	-12.0427
▁Amnesty	-12.044
▁Prevention	-12.044
▁indifferent	-12.044
▁pertain	-12.044
▁Daphne	-12.0466
▁Incidentally	-12.0466
▁asbestos	-12.0466
▁celebrating	-12.0466
▁fraudulent	-12.0466
▁luxury	-12.0466
▁taboo	-12.0466
▁unlimited	-12.0466
▁observing	-12.0466
▁admire	-12.0466
▁Baghdad	-12.0492
▁satisfactorily	-12.0492
▁intervening	-12.0492
▁Fifteen	-12.0518
▁Nabucco	-12.0518
▁justifiable	-12.0518
▁nineteenth	-12.0518
▁qualities	-12.0518
▁stabilize	-12.0518
▁synergy	-12.0518
▁undertook	-12.0518
▁resumption	-12.0545
▁laugh	-12.0545
▁Either	-12.0571
▁Seattle	-12.0571
▁notwithstanding	-12.0571
▁prescription	-12.0571
▁Street	-12.0571
▁famine	-12.0597
▁voluntarily	-12.0597
Explanation	-12.0598
▁Eritrea	-12.0624
▁exhibit	-12.0624
▁refine	-12.0648
▁Wynn	-12.065
▁barbaric	-12.065
▁discrepancies	-12.065
▁sleep	-12.065
▁indulge	-12.0651
▁pluralist	-12.0677
▁civic	-12.0677
▁drama	-12.0703
▁Cashman	-12.0704
▁accommodation	-12.0704
▁violating	-12.0704
▁yourselves	-12.0704
▁Coordinat	-12.0704
▁architect	-12.0729
▁Coelho	-12.073
▁Communism	-12.073
▁aggravate	-12.073
▁believing	-12.073
▁unhappy	-12.073
▁policing	-12.073
▁Temporary	-12.0757
▁Transparency	-12.0757
▁influenza	-12.0757
▁memorandum	-12.0757
▁peculiar	-12.0757
▁recipe	-12.0757
▁halv	-12.077
▁Presidencies	-12.0784
▁automotive	-12.0784
consuming	-12.0784
▁Sky	-12.0784
▁reign	-12.0785
▁suppose	-12.0792
▁Twenty	-12.0811
▁brilliant	-12.0811
▁conduc	-12.0814
▁Between	-12.0838
▁Secretariat	-12.0838
▁advancing	-12.0838
▁inclined	-12.0865
▁Verhofstadt	-12.0892
▁deforestation	-12.0892
▁intermediate	-12.0892
▁contemplate	-12.0919
increasing	-12.0936
driven	-12.0936
▁deplorable	-12.0947
▁afflict	-12.0947
efficiency	-12.0964
▁Beyond	-12.0974
▁CAMBRIDGE	-12.0974
▁advisable	-12.0974
▁destined	-12.0974
▁suffice	-12.0974
▁ECSC	-12.0974
▁लेकिन	-12.1002
onourable	-12.1002
▁remedies	-12.1002
▁revival	-12.1002
▁uprising	-12.1002
▁NGO	-12.1008
▁devastated	-12.1029
▁solemn	-12.1029
▁fortune	-12.103
▁generosity	-12.1057
▁joy	-12.1057
green	-12.1075
▁Trichet	-12.1085
▁deterrent	-12.1085
▁repatriation	-12.1085
▁pleasant	-12.1085
▁recast	-12.1085
▁relies	-12.1085
MDG	-12.1085
South	-12.1103
▁Cultural	-12.1112
▁presume	-12.1113
▁hint	-12.1113
debt	-12.1131
▁collaborate	-12.114
▁Fischer	-12.114
▁Senegal	-12.114
▁provocation	-12.114
▁impressed	-12.114
▁injury	-12.114
▁audience	-12.1168
▁comprising	-12.1168
parliamentary	-12.1187
▁Violence	-12.1196
▁editor	-12.1196
▁horrific	-12.1196
▁trivial	-12.1196
▁1979	-12.1196
▁Crime	-12.1196
▁Police	-12.1196
▁magic	-12.1198
▁waiv	-12.1201
examine	-12.1215
▁Medvedev	-12.1224
▁daughter	-12.1224
▁Additional	-12.1252
▁vigilance	-12.1252
government	-12.1264
▁Hautala	-12.1281
▁complies	-12.1281
▁transcend	-12.1281
▁brake	-12.1281
▁Leonardo	-12.1309
▁misguided	-12.1309
▁cloud	-12.1309
▁travellers	-12.1309
▁Kaliningrad	-12.1337
▁accumulation	-12.1337
▁infectious	-12.1337
▁unthinkable	-12.1337
▁abstract	-12.1337
judicial	-12.1358
▁shield	-12.1366
▁esteem	-12.1366
▁Animal	-12.1366
▁evade	-12.1366
▁concession	-12.1379
▁disseminate	-12.1394
▁Assistance	-12.1394
▁Rocard	-12.1394
▁undeniable	-12.1394
▁dispens	-12.1395
▁disguise	-12.1396
location	-12.1399
/21	-12.1413
defined	-12.1421
▁Aznar	-12.1423
▁batteries	-12.1423
▁shipowners	-12.1423
▁tanks	-12.1423
▁rebate	-12.1424
▁River	-12.143
▁Mitchell	-12.1452
▁meanwhile	-12.1452
▁rapprochement	-12.1452
▁volatile	-12.1452
industrial	-12.1473
▁Regrettably	-12.1481
▁crystal	-12.1481
▁relocate	-12.1481
▁Leader	-12.1481
▁FYROM	-12.151
▁illustration	-12.151
▁unfounded	-12.151
▁hiding	-12.151
▁domination	-12.151
▁Strip	-12.151
▁victor	-12.153
▁Jackson	-12.1539
▁proximity	-12.1539
▁modulation	-12.1539
▁flout	-12.1539
favoured	-12.1547
(5)	-12.155
▁LONDON	-12.1568
▁Lannoye	-12.1568
▁Speaking	-12.1568
▁describing	-12.1568
▁reconciling	-12.1568
▁Needles	-12.1569
▁enlarge	-12.1574
German	-12.159
▁Saturday	-12.1597
▁hegemon	-12.1597
▁irrational	-12.1597
▁Ocean	-12.1597
▁Standard	-12.1597
fascist	-12.1597
▁concede	-12.1597
▁greet	-12.1597
▁Ahmadinejad	-12.1626
▁achievable	-12.1626
▁gravity	-12.1626
9/2001	-12.1626
▁mafia	-12.1626
capital	-12.1649
general	-12.1649
▁Blokland	-12.1655
▁Broek	-12.1655
▁Experience	-12.1655
▁militant	-12.1655
▁pertinent	-12.1655
▁postponing	-12.1655
Burton	-12.1663
ographic	-12.1675
▁Duisenberg	-12.1685
▁Institutional	-12.1685
▁Recommendation	-12.1685
▁democratization	-12.1685
▁junta	-12.1685
▁compelling	-12.1685
▁plunge	-12.1685
construct	-12.1708
▁Baringdorf	-12.1714
▁catalogue	-12.1714
▁circulate	-12.1714
▁criticising	-12.1714
▁optimum	-12.1714
▁therapeutic	-12.1714
▁aeroplane	-12.1714
Nordic	-12.1738
▁Contrary	-12.1744
▁astonishing	-12.1744
▁emergencies	-12.1744
▁logistics	-12.1744
▁stabilising	-12.1744
▁Leinen	-12.1744
▁gangs	-12.1744
▁retreat	-12.1745
▁Rompuy	-12.1773
▁Sterckx	-12.1773
▁compelled	-12.1773
compensatory	-12.1774
▁Power	-12.1774
business	-12.1798
protect	-12.1798
▁Hopefully	-12.1803
▁presumably	-12.1803
▁tantamount	-12.1803
▁Science	-12.1803
decentralisation	-12.1803
▁franc	-12.1806
(4)	-12.1825
strategic	-12.1828
▁GATT	-12.1833
▁Guarantee	-12.1833
▁McKenna	-12.1833
▁dedication	-12.1833
▁reversal	-12.1833
▁supreme	-12.1833
▁tidak	-12.1833
▁ENP	-12.1833
▁blunt	-12.1863
▁professor	-12.1863
▁Lamfalussy	-12.1863
▁Lampedusa	-12.1863
▁declaring	-12.1863
▁Arrest	-12.1863
Various	-12.1864
alignment	-12.1869
▁Graefe	-12.1893
▁pupils	-12.1893
▁spiritual	-12.1893
sufficiency	-12.1923
▁consequent	-12.1937
▁Musharraf	-12.1953
▁magnificent	-12.1953
▁mirror	-12.1953
culture	-12.198
▁climatic	-12.1984
▁disclosure	-12.1984
▁Draft	-12.1984
▁wreck	-12.1984
▁qualification	-12.2008
resistant	-12.2009
▁arrogance	-12.2014
▁indignation	-12.2014
▁denominator	-12.2014
(2001)	-12.2045
▁California	-12.2045
▁maturity	-12.2045
▁Deputy	-12.2045
▁Experts	-12.2106
▁inadmissible	-12.2106
▁lecture	-12.2106
▁interfering	-12.2106
▁allotted	-12.2106
Palestinian	-12.2133
▁Asylum	-12.2137
▁Turks	-12.2137
▁apparatus	-12.2137
▁prestige	-12.2137
▁upheaval	-12.2137
▁sweet	-12.2137
pidla	-12.2137
▁cinema	-12.2137
▁coffee	-12.2167
▁evolving	-12.2167
▁heartfelt	-12.2167
▁lunch	-12.2168
▁Turkmenistan	-12.2198
▁absorption	-12.2198
▁correlation	-12.2198
▁laudable	-12.2198
▁scrutinise	-12.2198
▁unregulated	-12.2198
▁Brittan	-12.2198
▁identifies	-12.2198
▁1988	-12.2199
catch	-12.2227
▁geographic	-12.2228
fledged	-12.2229
▁liberation	-12.2229
▁unpopular	-12.2229
▁Ludford	-12.2261
▁harbour	-12.2261
▁misgivings	-12.2261
▁genital	-12.2261
▁mobilize	-12.2261
▁Maghreb	-12.2292
▁accelerating	-12.2292
▁expelled	-12.2292
▁1985	-12.2292
▁eminent	-12.2292
▁corpora	-12.2321
▁accompli	-12.2322
▁leisure	-12.2323
▁repetition	-12.2323
▁restaurant	-12.2323
▁1986	-12.2323
▁intrinsic	-12.2323
▁plague	-12.2323
▁deportation	-12.2323
▁Cameron	-12.2355
▁Reconstruction	-12.2355
▁Technical	-12.2355
▁dignified	-12.2355
▁Review	-12.2386
▁Ambassador	-12.2386
▁fantastic	-12.2386
▁mobilising	-12.2386
▁tahun	-12.2386
▁subsidiary	-12.2386
▁Competitiveness	-12.2418
▁Mozambique	-12.2418
▁populism	-12.2418
▁random	-12.2418
▁reassuring	-12.2418
▁mixture	-12.2418
capacity	-12.2448
▁acceding	-12.245
▁imperfect	-12.245
▁implied	-12.245
▁improper	-12.245
▁liabilities	-12.245
▁receipt	-12.245
▁Eurodac	-12.245
▁energetic	-12.2481
▁seafarers	-12.2481
▁backbone	-12.2482
denominat	-12.2483
▁abduction	-12.2513
▁renminbi	-12.2513
▁Angela	-12.2513
▁ESDP	-12.2513
Alba	-12.2526
technology	-12.2544
▁Recovery	-12.2545
▁hurricane	-12.2545
▁jeopardiz	-12.2545
▁School	-12.2545
▁overthrow	-12.2545
▁Helms	-12.2578
▁Mission	-12.2578
▁constituencies	-12.2578
▁pregnancy	-12.2578
▁embryonic	-12.2578
/2007	-12.2578
▁2000-2006	-12.261
▁Collins	-12.261
▁Mechanism	-12.261
▁timid	-12.2642
introductory	-12.2642
▁Google	-12.2642
▁collateral	-12.2642
▁tropical	-12.2642
▁overriding	-12.2642
▁deputy	-12.2642
▁underscore	-12.2642
▁Pirker	-12.2675
▁jeopardising	-12.2675
energy	-12.2675
▁Salafranca	-12.2707
▁Gibraltar	-12.2707
▁Nassauer	-12.2707
▁asymmetric	-12.2707
▁interdependence	-12.2707
▁unsafe	-12.2707
▁1967	-12.2707
▁Functioning	-12.274
▁Uruguay	-12.274
▁decreasing	-12.274
▁unpleasant	-12.274
▁GBP	-12.274
▁Klaus	-12.274
“	-13.1571
‘	-13.8704
