<unk>	0
<s>	0
</s>	0
,	-2.92485
.	-3.44537
▁die	-3.54693
▁der	-3.64094
▁und	-3.86662
en	-4.12827
▁	-4.29697
n	-4.31956
s	-4.34596
▁in	-4.42778
▁zu	-4.5416
e	-4.6658
▁den	-4.67104
▁von	-4.91093
▁für	-4.92962
▁ist	-4.9308
▁das	-5.10536
▁auf	-5.11171
▁dass	-5.14407
▁nicht	-5.15
▁des	-5.15614
▁eine	-5.22205
▁wir	-5.22294
▁werden	-5.33136
▁mit	-5.40016
▁es	-5.40973
▁im	-5.41905
-	-5.44784
▁ein	-5.47316
▁auch	-5.5457
▁ich	-5.54831
▁dem	-5.57113
▁sich	-5.61288
er	-5.61633
r	-5.68048
▁wird	-5.71295
▁Die	-5.71624
▁an	-5.77322
▁sind	-5.78304
▁haben	-5.79447
▁Ich	-5.80436
▁um	-5.85537
▁über	-5.85894
▁hat	-5.8895
t	-5.89389
▁Europäische	-5.91298
▁als	-5.94265
▁sie	-5.96571
▁wie	-5.98335
▁Kommission	-6.01011
▁-	-6.05118
▁zur	-6.09058
▁Herr	-6.10529
▁daß	-6.11845
▁einer	-6.13727
▁diese	-6.20535
▁bei	-6.22012
▁Wir	-6.22272
▁vor	-6.22328
▁aus	-6.22552
▁Sie	-6.27016
▁uns	-6.32388
▁Union	-6.32756
▁müssen	-6.3515
▁einen	-6.3647
▁dieser	-6.37987
▁nach	-6.45248
▁möchte	-6.45543
▁noch	-6.46855
ung	-6.47284
es	-6.47599
m	-6.4775
▁Es	-6.48654
▁Präsident	-6.49652
▁Das	-6.5023
▁können	-6.50379
:	-6.51824
▁nur	-6.52268
▁Bericht	-6.52627
▁durch	-6.52724
▁so	-6.53065
▁oder	-6.54512
▁kann	-6.54714
▁sein	-6.56387
▁wenn	-6.56776
▁aber	-6.57287
▁(	-6.5771
▁diesem	-6.57732
)	-6.5831
▁Parlament	-6.5939
▁zum	-6.60788
▁EU	-6.6384
▁er	-6.6793
▁sehr	-6.68197
!	-6.69192
▁einem	-6.73291
▁Mitgliedstaaten	-6.75308
▁In	-6.76185
▁Der	-6.78297
d	-6.83492
▁Europa	-6.8451
▁wurde	-6.84675
▁was	-6.84895
▁muss	-6.86145
▁–	-6.86765
▁ihre	-6.87985
▁mehr	-6.88692
▁Frau	-6.90362
▁ver	-6.906
▁dieses	-6.91097
?	-6.92494
▁unter	-6.94232
▁alle	-6.97814
▁Rat	-6.99375
▁man	-7.00392
▁be	-7.04474
▁zwischen	-7.05243
▁Entwicklung	-7.06231
▁war	-7.08951
▁hier	-7.0899
▁ge	-7.10995
▁gegen	-7.12955
▁keine	-7.13803
▁eines	-7.14003
▁habe	-7.14894
▁gibt	-7.15221
▁europäischen	-7.16117
l	-7.16152
st	-7.1639
▁diesen	-7.17111
de	-7.18202
▁damit	-7.18714
▁Frage	-7.19911
▁unsere	-7.20809
▁am	-7.22713
den	-7.23218
▁sondern	-7.23847
▁jedoch	-7.24266
▁Menschen	-7.25348
▁anderen	-7.26139
▁mich	-7.26499
▁sollte	-7.27546
k	-7.27748
ge	-7.30596
▁heute	-7.30899
▁Maßnahmen	-7.31115
▁sollten	-7.3199
▁immer	-7.33241
▁da	-7.34258
▁sowie	-7.35868
▁dann	-7.36259
▁Recht	-7.36264
z	-7.36372
▁"	-7.365
te	-7.36984
▁Ein	-7.37543
be	-7.37684
ten	-7.39431
▁bereits	-7.40084
▁Herrn	-7.4049
f	-7.40862
▁weil	-7.41286
y	-7.42293
▁Bürger	-7.425
▁wurden	-7.42833
▁Arbeit	-7.43518
w	-7.45028
▁Zeit	-7.46104
vom	-7.46324
▁darauf	-7.4642
;	-7.46917
h	-7.47335
▁ihrer	-7.47993
▁Parlaments	-7.48125
sch	-7.49314
▁ganz	-7.4992
▁Er	-7.50256
▁würde	-7.50602
▁meine	-7.50628
▁dafür	-7.50869
▁dazu	-7.51032
b	-7.51042
▁bin	-7.51267
▁Wenn	-7.51454
▁Länder	-7.52764
▁unserer	-7.53196
▁dies	-7.53302
▁Be	-7.53566
▁Vorschlag	-7.53877
▁Welt	-7.54189
in	-7.54262
▁geht	-7.54576
▁ab	-7.54821
▁jetzt	-7.54955
an	-7.55406
▁selbst	-7.56502
▁Jahr	-7.56536
▁Land	-7.56723
g	-7.56752
▁sagen	-7.57004
ä	-7.57731
▁seine	-7.59329
o	-7.59801
▁Aus	-7.60132
▁Diese	-7.60303
▁neuen	-7.61095
▁Im	-7.61509
▁Kommissar	-7.6157
ver	-7.61813
▁bis	-7.62842
▁neue	-7.63201
▁andere	-7.63261
lich	-7.63395
A	-7.63431
▁Ver	-7.6395
al	-7.64046
▁Regierung	-7.64273
▁Kollegen	-7.6431
▁ob	-7.64491
▁insbesondere	-7.6568
▁mir	-7.66276
▁Jahren	-7.66812
▁Rahmen	-7.6866
▁doch	-7.68745
▁zwei	-7.68868
▁einige	-7.69164
▁Bereich	-7.69491
▁Unterstützung	-7.69572
"	-7.69941
▁ohne	-7.69962
▁allem	-7.70428
▁B	-7.7075
▁muß	-7.70821
▁machen	-7.70886
▁wichtig	-7.71042
▁denn	-7.71081
▁Sicherheit	-7.72312
▁wäre	-7.72529
▁%	-7.72551
▁Zusammenarbeit	-7.7276
▁wollen	-7.73295
▁S	-7.73736
der	-7.74661
▁Ihnen	-7.75444
▁denen	-7.75558
▁Vor	-7.75634
▁Auf	-7.75956
▁un	-7.76168
▁Problem	-7.76608
▁wieder	-7.76778
▁Ländern	-7.77061
▁G	-7.77148
▁viel	-7.77802
▁viele	-7.78154
▁Gemeinschaft	-7.78405
▁allen	-7.79645
▁Mittel	-7.79773
▁Wie	-7.7979
▁F	-7.79945
▁Ziel	-7.8074
▁Fall	-7.8109
▁Politik	-7.81361
ischen	-7.81485
▁An	-7.81522
▁tun	-7.81567
ter	-7.82337
▁Dies	-7.82529
ar	-7.82605
▁Unternehmen	-7.82737
▁europäische	-7.82745
▁politischen	-7.83406
ur	-7.83421
▁schon	-7.84372
▁einmal	-7.84929
▁Richtlinie	-7.85402
le	-7.85453
ein	-7.85769
▁„	-7.8591
ungen	-7.85922
▁Grund	-7.86396
▁P	-7.86479
▁Meinung	-7.8659
▁wirtschaftliche	-7.86743
ö	-7.8714
▁Thema	-7.87737
▁soll	-7.87738
re	-7.87744
▁weiter	-7.87803
et	-7.87823
▁also	-7.88602
▁wissen	-7.88652
▁Staaten	-7.89087
▁ihren	-7.89429
▁A	-7.89691
▁nun	-7.89715
▁meiner	-7.90445
▁natürlich	-7.90884
▁Namen	-7.91467
▁könnte	-7.91606
▁Lage	-7.92175
▁etwas	-7.92339
▁seiner	-7.92457
▁Bedeutung	-7.92497
▁Ab	-7.92642
▁wirklich	-7.92834
▁Euro	-7.92919
▁besteht	-7.93117
▁T	-7.93185
▁Entschließung	-7.93476
▁Umwelt	-7.93794
▁Zukunft	-7.94306
▁Präsidentin	-7.94311
▁darüber	-7.94328
▁Frauen	-7.94809
lichen	-7.94969
▁Situation	-7.94997
ch	-7.95526
▁K	-7.96093
▁Probleme	-7.96166
▁worden	-7.96196
▁Aber	-7.96782
▁Teil	-7.97141
▁geben	-7.9716
▁unterstützen	-7.97384
▁Wirtschaft	-7.97552
▁Fragen	-7.97737
▁Was	-7.97882
▁letzten	-7.97889
▁daher	-7.98645
zu	-7.98949
▁E	-7.9905
em	-7.9917
ü	-7.99304
▁Rolle	-7.9942
▁Fraktion	-7.99976
▁Abstimmung	-8.0048
▁wo	-8.0088
a	-8.02717
▁zwar	-8.0283
▁Rates	-8.03169
ig	-8.03233
▁Und	-8.03327
▁möglich	-8.03476
▁gegenüber	-8.03493
▁Schutz	-8.03799
sten	-8.03934
▁ihr	-8.04261
▁Verbraucher	-8.04417
▁Da	-8.04656
▁große	-8.05294
ieren	-8.05637
▁Mit	-8.0611
▁Jahre	-8.06129
▁politische	-8.06297
iert	-8.06558
▁während	-8.07278
▁Zusammenhang	-8.07301
▁Aussprache	-8.07619
▁davon	-8.07826
Berichterstatter	-8.08473
i	-8.08483
▁seit	-8.08815
▁gesagt	-8.09157
▁drei	-8.0958
▁nämlich	-8.09711
▁Nach	-8.09752
▁Weise	-8.10785
S	-8.11407
▁Deshalb	-8.11537
▁Weg	-8.11908
liche	-8.12075
▁glaube	-8.12504
▁Menschenrechte	-8.12929
▁Energie	-8.13074
▁So	-8.13078
igen	-8.13168
▁Eine	-8.13219
▁waren	-8.13255
▁USA	-8.13434
▁deutlich	-8.13818
Änderungsanträge	-8.14623
ern	-8.14728
▁gut	-8.15092
▁Ge	-8.15117
▁Zu	-8.1512
▁kein	-8.15344
spolitik	-8.15514
ab	-8.16056
u	-8.16069
▁Demokratie	-8.16413
▁M	-8.16426
ische	-8.16442
▁stellen	-8.16527
▁dabei	-8.16733
▁führen	-8.16943
▁stehen	-8.17241
▁klar	-8.17965
▁daran	-8.1823
ut	-8.18416
▁W	-8.18919
▁Punkt	-8.19876
c	-8.20076
▁Europas	-8.20236
▁Art	-8.20273
▁Entscheidung	-8.20363
▁kommen	-8.20431
p	-8.20496
▁Lösung	-8.20638
▁lassen	-8.20707
▁unseren	-8.20873
▁betrifft	-8.21428
▁Wettbewerb	-8.21688
▁Sch	-8.21982
▁Ebene	-8.22113
▁ihnen	-8.22181
politik	-8.22483
1	-8.23162
el	-8.23349
ste	-8.24334
▁sowohl	-8.24605
▁nationalen	-8.24847
P	-8.24935
▁internationalen	-8.25011
▁zurück	-8.25327
▁H	-8.25533
▁Un	-8.25708
▁darin	-8.25713
▁steht	-8.25775
▁Möglichkeit	-8.258
▁ja	-8.25855
▁Beispiel	-8.2601
▁bringen	-8.26175
▁Artikel	-8.26434
▁Auch	-8.26484
▁Ansicht	-8.26658
▁hoffe	-8.26663
▁Bezug	-8.26852
▁aller	-8.26881
▁Millionen	-8.26955
▁Re	-8.26972
▁Ende	-8.27302
▁Hilfe	-8.27664
▁darf	-8.27819
▁großen	-8.27977
▁liegt	-8.28257
▁Um	-8.28303
il	-8.28606
▁gemeinsame	-8.28743
▁Rechte	-8.29067
▁zusammen	-8.29247
▁besonders	-8.2925
▁St	-8.29477
▁Vorschläge	-8.29514
▁Debatte	-8.29787
▁Umsetzung	-8.30393
▁einfach	-8.30418
is	-8.30695
se	-8.30825
▁brauchen	-8.31266
▁ent	-8.31936
it	-8.32244
▁Finanz	-8.32364
stand	-8.32379
▁Grundlage	-8.32735
▁Damen	-8.32744
▁Änderungsantrag	-8.32753
▁innerhalb	-8.32943
▁erhalten	-8.33095
or	-8.33155
5	-8.33383
▁Verordnung	-8.33547
▁weiterhin	-8.33781
▁sicher	-8.34763
▁Verantwortung	-8.35032
▁Wirtschafts	-8.35215
▁Markt	-8.35319
▁C	-8.35461
▁Kolleginnen	-8.35543
▁fest	-8.3565
2	-8.35698
▁weniger	-8.35976
li	-8.36463
▁Tatsache	-8.36548
▁welche	-8.36961
▁hinaus	-8.37029
▁gemeinsamen	-8.37158
▁Ihre	-8.37276
ro	-8.37479
▁hin	-8.37549
▁stellt	-8.37595
▁Abgeordneten	-8.37914
▁würden	-8.38005
▁Bevölkerung	-8.38151
▁dürfen	-8.38212
▁Bei	-8.38255
ri	-8.38263
recht	-8.38268
▁erreichen	-8.38323
▁handelt	-8.38366
at	-8.38404
▁ersten	-8.38634
▁Hinblick	-8.38697
▁Vereinigte	-8.38729
di	-8.38919
▁gerade	-8.38978
▁Ziele	-8.39675
la	-8.39789
▁sozialen	-8.39819
schaft	-8.40006
▁genau	-8.40165
um	-8.40651
zeit	-8.40663
▁beiden	-8.41137
on	-8.41176
▁Herren	-8.41199
▁deshalb	-8.41388
▁Strategie	-8.41652
▁solche	-8.41718
▁beim	-8.41891
▁weitere	-8.42023
▁danken	-8.42168
gen	-8.42221
▁wichtige	-8.42224
▁Verhandlungen	-8.42319
▁notwendig	-8.42438
B	-8.42459
ra	-8.4246
▁Auswirkungen	-8.42651
▁Daher	-8.42699
▁indem	-8.42716
▁finden	-8.42955
▁Institutionen	-8.43411
▁hatte	-8.43579
us	-8.43596
▁gemacht	-8.43634
▁Abkommen	-8.43667
▁schaffen	-8.43752
▁will	-8.43954
▁d	-8.44304
C	-8.44395
/	-8.44442
▁denke	-8.4454
kt	-8.44665
8	-8.44863
▁sollen	-8.44943
ul	-8.44957
▁alles	-8.45299
▁unterstützt	-8.45685
▁einigen	-8.4617
ag	-8.4625
▁China	-8.46364
▁Vertrag	-8.46892
▁Verfahren	-8.47118
▁weit	-8.47183
▁sogar	-8.47439
▁angenommen	-8.47444
▁gestimmt	-8.47491
ie	-8.47554
▁3	-8.47674
▁Kosten	-8.47682
D	-8.47793
▁Ausschuss	-8.47945
▁Dank	-8.48015
▁Ausschusses	-8.4824
▁eigenen	-8.48246
▁Als	-8.48322
▁besser	-8.48482
▁gilt	-8.48821
E	-8.49078
ige	-8.4919
▁Region	-8.49648
▁Haushalts	-8.49704
▁könnten	-8.49741
heit	-8.49939
isch	-8.50037
▁Zugang	-8.50111
▁beispielsweise	-8.50251
▁dort	-8.50294
▁werde	-8.5034
6	-8.50551
▁vielleicht	-8.50566
▁Doch	-8.50612
im	-8.50634
▁erforderlich	-8.50765
▁sei	-8.50837
▁Rechts	-8.50875
▁Interesse	-8.50933
▁kommt	-8.50962
▁Regionen	-8.50986
▁bedeutet	-8.51083
▁Erweiterung	-8.51412
0	-8.51453
ta	-8.51483
un	-8.51556
▁Türkei	-8.51568
▁Geld	-8.51594
T	-8.51641
▁dessen	-8.5167
▁sprechen	-8.51727
bar	-8.51811
▁Unter	-8.51843
▁k	-8.51945
▁aufgrund	-8.52123
aus	-8.52951
▁Krise	-8.53019
▁Beziehungen	-8.53285
▁hätte	-8.53464
und	-8.53582
▁System	-8.53629
me	-8.53633
ierung	-8.53675
▁sch	-8.53686
▁Beschäftigung	-8.53969
▁Ausdruck	-8.53986
▁ebenfalls	-8.54167
▁Kinder	-8.54665
▁tatsächlich	-8.54831
▁vielen	-8.54939
▁erreicht	-8.55132
▁Standpunkt	-8.55165
ing	-8.55232
▁Anwendung	-8.55417
▁allerdings	-8.55478
▁Interessen	-8.55581
▁Programm	-8.55786
▁Über	-8.55792
keit	-8.5624
▁Informationen	-8.5628
▁Haushalt	-8.563
▁Leben	-8.5631
zi	-8.56371
▁Förderung	-8.56417
▁öffentlichen	-8.56528
▁unser	-8.56644
sektor	-8.56803
▁darum	-8.5682
am	-8.57246
▁all	-8.57323
▁nehmen	-8.57458
▁sehen	-8.57529
4	-8.57645
▁4	-8.57684
ma	-8.58179
id	-8.5821
kommen	-8.58452
O	-8.58585
▁seinen	-8.58786
ation	-8.58837
3	-8.58839
▁keinen	-8.58885
▁Lissabon	-8.58995
7	-8.59307
F	-8.59391
▁O	-8.5959
▁Antwort	-8.59671
ren	-8.59706
▁Reform	-8.59772
▁Gebiet	-8.59919
▁bereit	-8.59931
▁Behörden	-8.60038
▁Industrie	-8.60236
▁Form	-8.60372
▁verschiedenen	-8.60375
▁Schaffung	-8.60673
min	-8.60915
▁Forschung	-8.60949
▁dar	-8.60984
▁soziale	-8.61112
▁nächsten	-8.61553
M	-8.6185
▁Schritt	-8.62387
▁erst	-8.62646
▁Erfolg	-8.62836
▁I	-8.63178
▁gute	-8.63187
▁5	-8.63487
▁Notwendigkeit	-8.63604
▁gehen	-8.63647
▁etwa	-8.63685
arbeit	-8.63979
▁Gesellschaft	-8.63994
▁Meine	-8.64127
▁Bildung	-8.64278
▁Reihe	-8.64334
teil	-8.64906
▁Für	-8.65066
▁Bedingungen	-8.65069
▁Herausforderung	-8.65077
ik	-8.65512
K	-8.65562
ß	-8.65893
▁Verfassung	-8.65925
▁Wahl	-8.65975
▁Kommissarin	-8.66052
end	-8.66054
▁Regierungen	-8.66072
▁schriftlich	-8.66172
om	-8.66248
▁Man	-8.66341
ungs	-8.66345
▁ihrem	-8.6644
▁Beitrag	-8.66481
▁Gesundheit	-8.66502
ende	-8.66782
▁Jahres	-8.66927
▁hinsichtlich	-8.67019
▁Russland	-8.67052
▁jeder	-8.67105
▁Gewalt	-8.67251
ben	-8.675
▁Richtung	-8.67758
▁Aufgabe	-8.67809
▁Haus	-8.67893
▁Erachtens	-8.6795
▁Dieser	-8.6804
▁Handel	-8.68075
▁Finanzierung	-8.68137
▁erste	-8.68163
▁Verbesserung	-8.68304
▁voll	-8.68464
▁Fortschritte	-8.68979
▁Fischerei	-8.69034
▁Mehrheit	-8.69048
mal	-8.69211
▁Präsidentschaft	-8.69278
ft	-8.69434
▁Bekämpfung	-8.69464
Fraktion	-8.6948
▁weiß	-8.69761
▁ihm	-8.69999
▁Gelegenheit	-8.70119
▁Kontrolle	-8.70302
▁Landwirtschaft	-8.70514
▁19	-8.70591
▁schnell	-8.70817
▁ihn	-8.71035
ir	-8.71413
▁Sozial	-8.71415
▁Ma	-8.71613
mer	-8.7162
ze	-8.71831
N	-8.72083
▁Kultur	-8.72188
to	-8.72307
▁gehört	-8.72309
ti	-8.72366
▁halten	-8.7281
lo	-8.7281
▁Text	-8.72817
▁D	-8.73096
▁völlig	-8.73124
▁2	-8.73161
▁gestellt	-8.73294
▁heißt	-8.73353
▁Steuer	-8.73849
▁bleiben	-8.73928
▁kurz	-8.73972
▁Wort	-8.7407
▁internationale	-8.74108
▁Ergebnis	-8.74149
▁Ergebnisse	-8.74176
pf	-8.742
▁macht	-8.74202
schutz	-8.74293
9	-8.74453
▁unterschiedlich	-8.74524
▁meisten	-8.74831
▁ebenso	-8.75354
▁Kampf	-8.75374
R	-8.7544
▁20	-8.7551
igkeit	-8.7555
▁geführt	-8.75606
▁gegeben	-8.7567
▁Pa	-8.75844
▁fördern	-8.75882
halten	-8.76232
▁gemeinsam	-8.76322
▁pro	-8.76353
▁Handels	-8.76496
▁Auffassung	-8.76885
ür	-8.77098
land	-8.77184
▁Rück	-8.77198
▁wenig	-8.77634
▁eigentlich	-8.77657
▁meinen	-8.77751
▁Landes	-8.77874
▁f	-8.78325
▁Mitglieder	-8.78386
vi	-8.78525
I	-8.78541
▁Tagesordnung	-8.78628
▁Haupt	-8.78878
enden	-8.7895
▁wohl	-8.78964
ne	-8.79023
ell	-8.79026
ismus	-8.79325
ol	-8.79388
är	-8.79955
▁Hier	-8.79977
▁Binnenmarkt	-8.80073
▁Wachstum	-8.80247
▁wichtigen	-8.80286
▁Arbeitnehmer	-8.80371
▁äußerst	-8.80546
her	-8.80728
▁Währung	-8.80754
sp	-8.80778
los	-8.80849
legen	-8.81131
▁Staats	-8.81224
ualität	-8.81485
▁Tat	-8.81652
▁richtig	-8.81688
▁leben	-8.817
▁Folgen	-8.82234
▁Diskussion	-8.82362
▁Bereichen	-8.82602
▁begrüße	-8.8261
▁Macht	-8.8266
▁meines	-8.82716
▁gleichzeitig	-8.82743
gleich	-8.82798
ör	-8.82927
verständlich	-8.83043
▁b	-8.83188
auf	-8.83268
▁Initiative	-8.8342
▁Erklärung	-8.83484
▁halte	-8.83708
▁einzelnen	-8.83859
▁Z	-8.83898
da	-8.83932
▁Personen	-8.84096
nd	-8.84266
▁Daten	-8.84702
▁lange	-8.84809
▁angesichts	-8.84895
▁Seite	-8.85363
▁hatten	-8.85382
▁Änderung	-8.8548
▁Verfügung	-8.8554
▁gesamten	-8.85705
▁derzeit	-8.85773
▁Dialog	-8.85803
▁Investitionen	-8.86022
▁L	-8.86265
▁dringend	-8.8627
tion	-8.86279
▁Integration	-8.86521
▁Einführung	-8.86546
sicherheit	-8.86617
▁10	-8.86734
▁nichts	-8.86918
▁Br	-8.87192
▁gewährleisten	-8.87227
▁statt	-8.87296
▁gebracht	-8.87332
▁schwer	-8.87391
lei	-8.87625
pp	-8.8768
sfähigkeit	-8.87723
▁seinem	-8.87778
▁Solidarität	-8.87836
▁Ansatz	-8.87926
▁bekannt	-8.87941
▁Transparenz	-8.88009
▁Minister	-8.88011
▁Beitritt	-8.88078
▁meinem	-8.88084
▁europäischer	-8.88548
▁bestehen	-8.88576
▁verbessern	-8.88716
▁Lebensmittel	-8.88861
G	-8.88895
▁Möglichkeiten	-8.88901
▁6	-8.88974
▁bisher	-8.89182
sverfahren	-8.89308
▁Sitzung	-8.89375
▁Neu	-8.89453
▁h	-8.89627
▁fünf	-8.89736
▁Entscheidungen	-8.8976
▁sagte	-8.89764
▁erwähnt	-8.89801
▁Gefahr	-8.89815
▁gleich	-8.89854
▁Stabilität	-8.90124
▁enthalten	-8.90131
▁Außerdem	-8.90144
▁Ha	-8.90346
he	-8.90431
▁Bemühungen	-8.90457
▁Le	-8.90608
▁Nicht	-8.90629
▁Bürgerinnen	-8.9065
▁Freiheit	-8.90691
svorschriften	-8.90784
lichkeit	-8.91333
▁US	-8.91415
W	-8.91662
▁Nationen	-8.91742
▁geschlossen	-8.92012
▁Opfer	-8.92017
▁nutzen	-8.92049
äh	-8.92307
fall	-8.92377
▁zeigt	-8.92411
▁Durch	-8.9252
▁setzen	-8.9276
▁bleibt	-8.92785
▁lediglich	-8.92827
▁heraus	-8.92918
rei	-8.93047
▁Preis	-8.93054
▁z	-8.9313
▁Vertrauen	-8.9316
▁arbeiten	-8.93165
ner	-8.93451
igt	-8.93535
ka	-8.93567
erstatterin	-8.93589
▁Sicherheits	-8.93591
▁Vorschriften	-8.93602
▁15	-8.93625
▁Mal	-8.93679
▁1	-8.9372
▁recht	-8.93737
▁wobei	-8.93884
▁Terrorismus	-8.94017
▁Themen	-8.94056
▁obwohl	-8.94314
EN	-8.94338
H	-8.94417
▁Staat	-8.94471
▁Zweitens	-8.94599
▁führt	-8.94612
sicht	-8.94637
L	-8.94758
▁liegen	-8.94846
▁Hinsicht	-8.94937
▁zunächst	-8.94981
and	-8.95063
▁Bürgern	-8.95068
ken	-8.95184
▁vier	-8.95205
▁Krieg	-8.95334
bi	-8.95639
▁Prozess	-8.9573
markt	-8.9574
00	-8.95744
▁Zahl	-8.95745
▁bitte	-8.95849
sehen	-8.96038
▁Armut	-8.96059
▁beitragen	-8.96159
▁jeden	-8.96361
v	-8.96435
▁Instrument	-8.96496
▁Israel	-8.96525
▁Berichts	-8.96553
▁Mitgliedstaat	-8.97025
▁Sache	-8.97034
▁vergangenen	-8.97048
gestellt	-8.97052
▁einzige	-8.97106
as	-8.97195
wert	-8.97295
▁vorgelegt	-8.97469
chen	-8.97491
▁V	-8.9755
gehen	-8.97573
▁morgen	-8.97856
▁Protokoll	-8.97907
▁eindeutig	-8.97927
▁allein	-8.98026
▁leisten	-8.98048
▁Zeitpunkt	-8.98243
▁größere	-8.98383
▁Aufmerksamkeit	-8.98499
▁La	-8.98521
▁unserem	-8.98621
▁oft	-8.98672
▁Angelegenheit	-8.98678
gel	-8.987
hin	-8.98822
▁Dinge	-8.98886
▁zweite	-8.98916
ert	-8.98965
▁erzielt	-8.98978
▁fordern	-8.99352
▁großer	-8.99355
▁R	-8.99457
▁Selbst	-8.99616
▁scheint	-8.99767
stellen	-8.99863
mo	-8.99935
▁sorgen	-9.00117
ard	-9.00295
▁getan	-9.00308
▁öffentliche	-9.00316
▁Druck	-9.00318
▁Aspekte	-9.00433
▁Frankreich	-9.00445
lage	-9.00467
▁Ratspräsident	-9.00471
▁ermöglichen	-9.00631
▁mein	-9.00866
ion	-9.00872
ko	-9.00954
▁helfen	-9.01172
▁ange	-9.01338
halt	-9.01385
▁erneut	-9.01455
bzw	-9.01604
▁Dienstleistung	-9.01847
▁findet	-9.01857
▁Arbeits	-9.01871
▁stimmen	-9.0191
▁Vertrags	-9.01987
handel	-9.02046
▁Vertreter	-9.0215
▁solchen	-9.02258
▁Bestimmungen	-9.02277
▁Ent	-9.02636
alt	-9.0267
geben	-9.02748
▁wichtiger	-9.02812
▁stärker	-9.02907
▁Frieden	-9.02923
▁hätten	-9.02985
▁Arbeitsplätze	-9.03023
▁Sp	-9.03107
▁Punkte	-9.03174
j	-9.03249
ffentlichkeit	-9.03261
▁8	-9.0343
ent	-9.03504
▁Ausschuß	-9.03745
▁re	-9.03887
▁Raum	-9.03889
▁bestimmte	-9.03893
▁Ro	-9.03996
▁Erstens	-9.0401
acht	-9.04028
ho	-9.04033
▁Informations	-9.04105
rat	-9.04237
▁Grenzen	-9.04339
▁gab	-9.04489
bau	-9.04555
▁vorgeschlagen	-9.04665
stellung	-9.0469
▁Kraft	-9.04706
▁bessere	-9.05052
▁de	-9.05158
▁Deutschland	-9.05495
ug	-9.0577
▁Präsidenten	-9.05971
▁Angelegenheiten	-9.06203
▁Damit	-9.06246
tag	-9.06284
▁Dieses	-9.06333
kosten	-9.06343
▁Mitglied	-9.06476
▁Kompromiss	-9.06477
▁erster	-9.06524
▁Ko	-9.06564
▁voran	-9.07207
▁verhindern	-9.07344
▁Gründen	-9.07352
po	-9.07369
▁tragen	-9.07472
▁Annahme	-9.07541
▁berücksichtigt	-9.07617
ank	-9.07668
▁2000	-9.07863
▁Irak	-9.07915
▁Darüber	-9.08028
▁stark	-9.08316
bereich	-9.08508
richt	-9.08648
ach	-9.08783
▁ausge	-9.08793
santrag	-9.08904
ck	-9.08964
▁leider	-9.09262
▁Chance	-9.09293
▁Wert	-9.09437
▁vertreten	-9.09505
isiert	-9.09552
▁Straf	-9.09788
greifen	-9.09821
mittel	-9.10027
▁Stellungnahme	-9.10073
ff	-9.1018
▁Anstrengungen	-9.10305
▁Regeln	-9.10343
▁eigene	-9.10424
▁zeigen	-9.10489
▁geschaffen	-9.10492
▁genommen	-9.1059
trag	-9.10597
zahl	-9.10602
▁schließlich	-9.10603
rau	-9.10712
nde	-9.10799
▁Werte	-9.10803
▁gelten	-9.10822
▁Tag	-9.10841
▁auszu	-9.10847
voll	-9.10856
rück	-9.10903
▁7	-9.10969
ssen	-9.11038
▁behandelt	-9.11181
▁versuchen	-9.11249
▁Projekt	-9.11265
wirtschaft	-9.11273
▁weiteren	-9.11309
▁Schwierigkeiten	-9.11327
ellen	-9.11472
▁Reformen	-9.11507
▁Konflikt	-9.11781
ere	-9.11826
schuld	-9.11836
stehen	-9.11922
▁fast	-9.11949
▁Partei	-9.12034
▁Verkehrs	-9.12095
▁bezüglich	-9.12176
▁m	-9.12316
fe	-9.12411
▁darstellt	-9.12551
▁folgt	-9.12593
▁getroffen	-9.12593
▁Parteien	-9.1267
va	-9.12709
▁Milliarden	-9.12712
▁hoch	-9.12724
▁konkrete	-9.12809
os	-9.12816
▁Zum	-9.13024
fi	-9.13097
weg	-9.13162
▁danke	-9.13247
▁Mitteilung	-9.13393
▁versucht	-9.13448
▁demokratischen	-9.13492
▁Unsere	-9.13532
kl	-9.13556
▁gar	-9.13575
▁wegen	-9.13719
▁durchgeführt	-9.1376
ler	-9.13787
äu	-9.1387
▁Wahlen	-9.13875
▁entwickeln	-9.13919
industrie	-9.13946
▁gerecht	-9.13986
▁nationale	-9.14021
▁zumindest	-9.14025
▁Rede	-9.14112
▁hinter	-9.14112
▁Verpflichtungen	-9.14121
▁Geschichte	-9.14171
▁p	-9.14181
ad	-9.14222
▁Co	-9.14242
igung	-9.14506
▁unseres	-9.146
▁gefordert	-9.14628
▁000	-9.14664
▁Ressourcen	-9.14684
haft	-9.14717
▁Uhr	-9.14809
▁Republik	-9.14836
weise	-9.14904
▁hinweisen	-9.14909
▁Gesundheits	-9.15032
gabe	-9.15059
ha	-9.15124
▁ergreifen	-9.1515
tritt	-9.15154
▁geleistet	-9.1525
▁begrüßen	-9.15254
system	-9.15309
▁Woche	-9.15349
▁Partnerschaft	-9.15427
reich	-9.15717
▁w	-9.15918
▁Natürlich	-9.15976
ien	-9.16023
▁Sicht	-9.16034
▁Position	-9.16097
ucht	-9.16119
▁frei	-9.16242
ist	-9.1625
▁spielen	-9.16321
do	-9.16355
▁finanzielle	-9.16364
▁Verteidigung	-9.16436
▁Haltung	-9.16464
lang	-9.16507
wei	-9.16612
▁erinnern	-9.16667
ob	-9.16679
▁anderer	-9.16764
▁angesprochen	-9.16918
werk	-9.17168
▁De	-9.17172
schen	-9.17213
▁diejenigen	-9.17231
▁Änderungen	-9.17239
▁Kon	-9.17387
führung	-9.17504
▁konnte	-9.17541
▁gemäß	-9.17566
▁dadurch	-9.17636
ia	-9.17798
ill	-9.17819
vor	-9.18026
▁Kapital	-9.18242
ität	-9.18444
▁berücksichtigen	-9.18463
▁überhaupt	-9.18503
▁abge	-9.1857
▁häufig	-9.18616
▁Hand	-9.18634
iv	-9.18686
▁Sa	-9.18851
01	-9.18878
▁ziehen	-9.18972
▁einschließlich	-9.18991
▁Ka	-9.19013
cken	-9.19023
▁wichtigsten	-9.19032
▁Konferenz	-9.19042
▁Programme	-9.19252
▁N	-9.19344
▁weder	-9.19437
▁Fortschritt	-9.19442
▁Sektor	-9.1945
▁einge	-9.1947
▁beschlossen	-9.19521
▁bekommen	-9.19542
▁Ausgaben	-9.19759
▁Abschließend	-9.19786
au	-9.20011
▁neuer	-9.20186
▁gesamte	-9.20216
▁Abgeordnete	-9.20225
▁stimme	-9.20336
▁Afrika	-9.20349
▁Einsatz	-9.20366
▁To	-9.20371
▁Sinne	-9.20374
▁treffen	-9.20378
▁aufgenommen	-9.20401
▁Innovation	-9.20434
▁Durchführung	-9.20532
▁Anerkennung	-9.2062
▁her	-9.20622
ster	-9.20825
ot	-9.2097
▁Nr	-9.20979
▁warum	-9.21042
▁Antrag	-9.2106
▁Monaten	-9.21071
▁vorgesehen	-9.21138
▁Al	-9.21171
▁verbessert	-9.21256
▁Einigung	-9.21294
▁Zunächst	-9.21412
▁Wasser	-9.21537
▁ermöglicht	-9.21555
kraft	-9.21701
na	-9.21768
▁gewesen	-9.21783
maßnahmen	-9.21959
nahme	-9.22066
op	-9.22076
▁Grundsatz	-9.22193
ett	-9.22363
U	-9.22392
▁festgelegt	-9.22394
▁Verwaltung	-9.22405
▁kleinen	-9.22411
▁12	-9.22423
isten	-9.2248
▁Verbindung	-9.22494
▁Lassen	-9.22515
rie	-9.22549
▁Gipfel	-9.22678
▁endlich	-9.22719
ant	-9.22809
▁positive	-9.22828
ber	-9.22845
▁vergessen	-9.22847
sk	-9.22922
▁zehn	-9.22925
gesellschaft	-9.22953
▁Vereinte	-9.23045
erweise	-9.23087
▁derartige	-9.23222
▁direkt	-9.23274
▁geworden	-9.2334
▁schützen	-9.23485
▁Kenntnis	-9.235
▁Ort	-9.23586
▁Zweifel	-9.23675
über	-9.23808
sam	-9.23932
▁gleichen	-9.23946
▁Am	-9.23969
gegangen	-9.24177
▁Iran	-9.24245
art	-9.24331
▁ständig	-9.24393
▁Gesetzgebung	-9.24406
▁9	-9.24446
pa	-9.2446
▁Dezember	-9.2448
gang	-9.24536
▁Gesamt	-9.24577
▁Europäer	-9.24671
ruf	-9.24755
▁Forderung	-9.24774
satz	-9.24924
▁jene	-9.24946
▁Stelle	-9.24956
▁betonen	-9.25067
pro	-9.25085
einander	-9.25244
bringen	-9.25444
all	-9.25568
▁klare	-9.25661
▁Griechenland	-9.25692
uß	-9.25698
▁25	-9.25774
▁Mi	-9.25819
sabkommen	-9.25912
▁Kriterien	-9.25955
▁Produkte	-9.25998
▁umgesetzt	-9.26036
▁Regelung	-9.26072
▁Risiko	-9.26084
spiel	-9.26179
▁Vereinbarung	-9.2618
▁Aspekt	-9.26229
no	-9.26398
▁Folge	-9.26437
▁Seiten	-9.26584
▁absolut	-9.26588
▁Gemeinschafts	-9.2663
▁offen	-9.26878
▁erwarten	-9.26881
▁besondere	-9.26893
▁Versuch	-9.26909
▁finanziellen	-9.27009
ehr	-9.27082
▁erklärt	-9.27095
ät	-9.27136
▁Überwachung	-9.27266
▁eben	-9.27323
▁UN	-9.27369
▁Allerdings	-9.27372
%	-9.27379
▁Se	-9.27392
bo	-9.27426
▁Klima	-9.27429
form	-9.27456
▁akzeptieren	-9.27556
▁sicherzustellen	-9.27675
▁Anfang	-9.27876
▁außerdem	-9.28014
▁Schließlich	-9.2807
▁überzeugt	-9.28086
▁bewusst	-9.28119
▁Fällen	-9.28143
▁Zweck	-9.28283
▁Kern	-9.28286
▁Verwendung	-9.28344
▁neu	-9.28347
▁erfolgreich	-9.2835
▁Linie	-9.28514
ünd	-9.28601
▁Bo	-9.28865
▁globalen	-9.28911
▁trotz	-9.28951
bei	-9.28978
teilung	-9.29047
isierung	-9.29062
▁nachhaltige	-9.29088
▁Vergangenheit	-9.29173
tra	-9.2927
▁jedem	-9.29387
▁Dokument	-9.29414
▁hohe	-9.29537
▁zweiten	-9.29541
ziel	-9.29764
▁letzte	-9.29765
▁Gemeinsamen	-9.29779
▁eher	-9.29863
▁Behandlung	-9.29931
▁Lesung	-9.2995
▁verstehen	-9.2996
▁30	-9.29984
▁jedes	-9.30152
▁größte	-9.30258
▁bevor	-9.30277
lu	-9.30395
▁aufzu	-9.30476
Geschäftsordnung	-9.30636
▁Mo	-9.30652
▁insgesamt	-9.3085
zen	-9.30891
▁Banken	-9.31028
▁Fa	-9.31034
▁sieht	-9.31237
▁freue	-9.31299
▁Familien	-9.31319
▁Prioritäten	-9.31368
▁Zustimmung	-9.31457
hl	-9.3151
ub	-9.3158
▁hervor	-9.31624
▁weltweit	-9.31652
▁Ja	-9.31654
▁bestimmten	-9.31727
▁gesprochen	-9.31845
▁guten	-9.31888
▁anzu	-9.31938
▁Führung	-9.3211
▁Dabei	-9.32159
▁Kl	-9.32176
▁Verkehr	-9.3221
▁wirtschaftlich	-9.32243
▁heutigen	-9.32354
uch	-9.32388
▁Medien	-9.32448
▁jede	-9.32629
cht	-9.3266
▁entschieden	-9.32731
leben	-9.32781
▁Grundsätze	-9.32998
▁Juni	-9.33083
Arbeitslosigkeit	-9.33093
▁enthält	-9.33161
▁Nord	-9.33191
▁Initiativen	-9.33239
▁genannten	-9.33405
ei	-9.33411
▁unbedingt	-9.33434
sicher	-9.33484
▁Hoffnung	-9.33522
▁Instrumente	-9.33703
weisen	-9.33788
▁Ho	-9.33832
▁14	-9.33869
▁eingehen	-9.33903
▁konnten	-9.33919
folge	-9.33977
▁offensichtlich	-9.33983
▁Li	-9.33988
▁Anfrage	-9.33996
▁unterstütze	-9.34002
oll	-9.34257
ht	-9.34415
fälle	-9.34443
▁Agrar	-9.34493
▁besten	-9.34617
▁Gericht	-9.34751
ger	-9.34907
▁Angesicht	-9.34958
ativ	-9.34998
▁Mai	-9.35005
▁Spiel	-9.35032
▁richtige	-9.35092
▁ändern	-9.35222
▁Italien	-9.35383
▁sechs	-9.35383
▁später	-9.35437
▁wesentlich	-9.3553
ex	-9.35556
str	-9.35637
V	-9.35645
▁Wochen	-9.35649
▁eingesetzt	-9.35725
▁Ihrer	-9.35785
▁Botschaft	-9.35826
▁Osten	-9.3586
▁Menschenrechts	-9.35861
▁Politiker	-9.35883
fallen	-9.3599
gi	-9.36015
▁nie	-9.36061
ständig	-9.36161
verfahren	-9.36175
▁Nutzung	-9.36223
▁Projekte	-9.36268
▁somit	-9.36275
▁Stärkung	-9.36288
▁beteiligt	-9.36338
▁entwickelt	-9.36396
▁allgemeine	-9.36613
▁Konzept	-9.36786
laufen	-9.36911
▁möchten	-9.3693
staat	-9.36935
üt	-9.37128
▁lösen	-9.37132
bt	-9.37184
▁J	-9.37218
▁Internet	-9.37275
eh	-9.37288
▁bieten	-9.37302
▁entscheiden	-9.37433
ru	-9.37436
▁erfüllen	-9.37537
(	-9.3759
ium	-9.37629
▁Koordinierung	-9.37637
▁verfolgt	-9.37687
▁bestehenden	-9.37696
▁Irland	-9.37704
▁Sorge	-9.37751
▁Heute	-9.37771
▁Organisationen	-9.37803
▁schwierig	-9.37817
▁verehrte	-9.37862
▁bitten	-9.37889
▁Diskriminierung	-9.37922
akt	-9.38004
▁Kosovo	-9.38023
▁verantwortlich	-9.3804
▁Gen	-9.38056
▁genug	-9.38059
rate	-9.38062
üh	-9.3818
▁gehören	-9.38214
▁Entwurf	-9.38242
▁gezeigt	-9.38276
▁Ba	-9.38289
▁Inhalt	-9.38341
▁Liberalisierung	-9.38394
▁beide	-9.38527
pr	-9.3856
▁einzu	-9.38594
träge	-9.38746
▁Alle	-9.38817
th	-9.38829
▁bietet	-9.38834
▁prüfen	-9.38857
▁Meiner	-9.38918
▁Reaktion	-9.38922
lle	-9.38927
rt	-9.3897
▁stärken	-9.38972
▁Einwanderung	-9.38979
ließ	-9.39067
▁hoffen	-9.39228
▁Beginn	-9.39242
raum	-9.39272
▁Zuständigkeit	-9.39276
fragen	-9.39281
▁Landwirte	-9.39378
fähig	-9.39394
wand	-9.39396
▁Globalisierung	-9.39431
▁Völker	-9.39489
▁Achtung	-9.39557
▁Höhe	-9.396
▁Übergang	-9.39605
▁Verpflichtung	-9.39613
▁Aufgaben	-9.39617
▁verpflichtet	-9.39634
▁Engagement	-9.39668
nimmt	-9.39835
▁ganze	-9.39942
gra	-9.39955
▁demokratische	-9.39966
wi	-9.40042
▁WTO	-9.40063
▁Ausbildung	-9.40148
▁Königreich	-9.40288
▁allgemeinen	-9.40356
▁liebe	-9.40506
▁Nun	-9.40535
ran	-9.40627
bel	-9.40638
▁erzielen	-9.40651
▁diskutieren	-9.40665
▁Bereiche	-9.4079
▁lässt	-9.40879
nis	-9.40983
▁Gerichtshof	-9.40994
▁möglicherweise	-9.40999
sche	-9.41002
▁Bewertung	-9.41029
änge	-9.41032
▁gegenwärtig	-9.41193
▁befinden	-9.41238
▁wären	-9.41255
▁Absicht	-9.41277
▁gewählt	-9.41282
▁sicherlich	-9.41296
▁Fonds	-9.41428
▁positiv	-9.41487
▁hingewiesen	-9.41718
▁Fehler	-9.41722
▁wahrscheinlich	-9.41813
▁Justiz	-9.41847
geht	-9.41869
▁handeln	-9.4195
▁Dollar	-9.41967
▁Vielen	-9.41971
▁Richtlinien	-9.4205
▁Absatz	-9.42082
▁Lösungen	-9.42148
▁verfügen	-9.42268
unternehmen	-9.42349
zug	-9.42536
▁ernst	-9.42551
▁Wa	-9.42563
▁Infrastruktur	-9.42602
▁Von	-9.42604
ah	-9.42632
ick	-9.42667
▁50	-9.42779
▁zahlreiche	-9.42804
ika	-9.42863
▁glauben	-9.42958
ierte	-9.42986
▁institutionelle	-9.42988
▁Praxis	-9.43007
problem	-9.4302
man	-9.43043
▁13	-9.43048
weit	-9.43089
wende	-9.43094
iger	-9.43102
▁übernehmen	-9.43109
ou	-9.43117
▁Mar	-9.43141
▁bald	-9.43143
▁aktiv	-9.43201
setzung	-9.43202
▁Na	-9.43267
▁Anpassung	-9.43468
mit	-9.43503
ak	-9.43571
▁durchaus	-9.43701
hne	-9.4372
▁Einfluss	-9.43771
▁Angriff	-9.43782
▁Dennoch	-9.43842
▁Drogen	-9.43915
▁Übereinkommen	-9.43967
▁Pflicht	-9.44074
ierten	-9.44098
▁Produktion	-9.44198
möglich	-9.44216
mi	-9.44241
▁Kredit	-9.44253
innen	-9.44264
▁ihres	-9.44294
▁Priorität	-9.44364
▁dagegen	-9.44445
▁Brüssel	-9.44504
▁verbunden	-9.44572
▁sämtliche	-9.44594
che	-9.44618
▁kommenden	-9.44636
▁Groß	-9.4472
co	-9.44822
▁Flug	-9.4483
▁Volk	-9.44875
anz	-9.44931
▁jährlich	-9.44936
fang	-9.44987
▁Grundrechte	-9.45076
wa	-9.4508
▁gesetzt	-9.45105
▁darstellen	-9.45199
elt	-9.45224
richtlinie	-9.45258
▁Tier	-9.45269
sa	-9.45286
hilfe	-9.45287
▁Beihilfen	-9.45289
hö	-9.4533
ba	-9.45332
▁Aufnahme	-9.45333
▁Aktivitäten	-9.4537
▁Regime	-9.45463
iz	-9.45546
▁Augen	-9.45567
▁konzentrieren	-9.45587
setzt	-9.45592
▁feststellen	-9.45606
▁Obwohl	-9.45644
▁hohen	-9.45651
▁Di	-9.457
▁gesehen	-9.45789
▁Rechnung	-9.45868
▁Lebens	-9.45995
▁Zentralbank	-9.46079
▁Schritte	-9.46127
dern	-9.46223
▁entgegen	-9.46291
▁beginnen	-9.46393
▁National	-9.46435
▁Abschluss	-9.46447
nden	-9.46488
▁U	-9.46522
▁Japan	-9.4654
sbereich	-9.46598
▁Ukraine	-9.46609
▁mehrere	-9.46621
▁größten	-9.46622
▁fordert	-9.46719
▁Verträge	-9.46734
pi	-9.46809
▁kleine	-9.4683
▁politischer	-9.46896
▁entsprechend	-9.47024
▁verwendet	-9.47051
tre	-9.47088
ssystem	-9.47193
schließen	-9.47237
▁verabschiedet	-9.47308
▁Denn	-9.4743
▁Waffen	-9.47549
les	-9.47655
▁Partner	-9.47659
bild	-9.47671
▁starke	-9.47752
▁Seit	-9.47795
▁Willen	-9.4784
▁geschehen	-9.47845
kr	-9.4785
▁Indien	-9.48132
tro	-9.48288
programm	-9.48299
▁gleiche	-9.48536
▁Beweis	-9.48542
▁Friedens	-9.48658
▁entsprechenden	-9.48679
steuer	-9.48701
ord	-9.48725
geb	-9.48779
▁Worte	-9.48795
▁Asyl	-9.48796
dienste	-9.48837
▁18	-9.48916
▁nimmt	-9.49063
▁Berichte	-9.49079
▁diskutiert	-9.49096
▁vollständig	-9.49181
▁braucht	-9.4919
du	-9.49226
sel	-9.49272
▁bringt	-9.4942
▁Beteiligung	-9.49473
elle	-9.49659
fr	-9.49732
▁Stimme	-9.49741
▁Januar	-9.49794
▁außerhalb	-9.49851
▁betrachtet	-9.49871
gew	-9.49904
▁gemeinschaft	-9.49934
▁Zeitraum	-9.49953
verkehr	-9.50008
▁gekommen	-9.50028
legt	-9.5003
▁Kritik	-9.50135
▁Arbeitsmarkt	-9.50138
▁verfolgen	-9.50232
▁Spanien	-9.50249
▁kaum	-9.50326
ga	-9.50328
▁Verbrechen	-9.50352
▁2008	-9.50362
▁lang	-9.50378
▁entsprechende	-9.50428
▁vorliegenden	-9.50477
▁sinnvoll	-9.50497
▁Einhaltung	-9.50507
▁Struktur	-9.50513
▁ausreichend	-9.50587
ang	-9.50637
▁Prinzip	-9.50656
▁Während	-9.50668
qu	-9.50763
▁betont	-9.50803
isieren	-9.50854
▁zusätzliche	-9.50864
▁Erklärungen	-9.50877
▁Anteil	-9.50918
plan	-9.50925
▁notwendigen	-9.51053
▁vermeiden	-9.51108
▁Gründe	-9.51115
▁Ex	-9.51147
nehmen	-9.51187
▁Schulden	-9.51187
▁Ereignisse	-9.51279
son	-9.51301
▁Falle	-9.51321
ment	-9.51325
▁Militär	-9.51339
▁Delegation	-9.5146
unter	-9.51477
▁echte	-9.51491
▁gegenwärtigen	-9.51534
▁Dazu	-9.51583
▁Realität	-9.51708
▁kam	-9.5183
▁fort	-9.51867
▁Minderheiten	-9.5188
▁unmittelbar	-9.52111
grund	-9.52148
▁Vorbereitung	-9.52208
x	-9.52224
▁erhöhen	-9.52266
sprozess	-9.52277
▁stattfinden	-9.52291
rechte	-9.52421
▁Pro	-9.52423
so	-9.52424
▁Prozent	-9.52426
▁September	-9.5246
äl	-9.5258
▁Einrichtung	-9.52715
▁Forderungen	-9.52868
dig	-9.52942
▁Gebieten	-9.52964
genommen	-9.52983
▁Zusammen	-9.53002
▁unternommen	-9.53045
▁2010	-9.53103
▁vorgeschlagenen	-9.53163
▁Ratsvorsitz	-9.53273
▁2004	-9.5329
▁g	-9.53337
▁stets	-9.53457
▁Tätigkeit	-9.5346
licher	-9.53479
▁globale	-9.53518
▁Gegen	-9.53576
▁2009	-9.53665
▁eingeführt	-9.53798
gegeben	-9.53853
▁betroffen	-9.53874
▁Fraktionen	-9.53957
the	-9.54156
punkt	-9.54181
▁zunehmend	-9.54251
for	-9.54287
▁jüngsten	-9.54303
▁Leider	-9.54357
▁gewisse	-9.54425
▁Maße	-9.54432
▁gefunden	-9.54462
▁Dem	-9.54497
reg	-9.54507
▁Veränderungen	-9.54648
▁März	-9.54681
▁Forschungs	-9.54711
▁je	-9.5474
▁unternehmen	-9.5476
▁fragen	-9.54762
mon	-9.54774
▁Strukturfonds	-9.54821
log	-9.54939
hol	-9.5495
▁Großbritannien	-9.54959
▁leicht	-9.5503
▁2007	-9.55104
ud	-9.55123
▁erfüllt	-9.55139
▁abzu	-9.55185
▁Regelungen	-9.55238
▁Gleichzeitig	-9.55259
▁außer	-9.55306
▁erkennen	-9.55319
▁intensiv	-9.55467
lassen	-9.55519
▁gerne	-9.55557
annt	-9.55676
vo	-9.55831
cher	-9.55901
▁verschiedene	-9.55936
▁Zwei	-9.55945
▁Vorteile	-9.55947
▁Wer	-9.5599
▁länger	-9.56042
ph	-9.56053
▁komme	-9.5606
▁Kollege	-9.56073
▁grenzüberschrei	-9.56102
▁anerkannt	-9.56163
macht	-9.5624
io	-9.56259
▁aufmerksam	-9.56284
frage	-9.56371
▁sagt	-9.5638
▁folgen	-9.5639
▁verstärkt	-9.56428
▁Bank	-9.56664
▁Natur	-9.567
ling	-9.56717
▁eingereicht	-9.56718
▁bedeuten	-9.56725
▁Klimawandel	-9.56778
go	-9.56814
länder	-9.56862
▁Überprüfung	-9.5694
▁Gas	-9.56979
▁Haushaltsplan	-9.57039
mäßig	-9.57042
▁freien	-9.57091
ow	-9.57163
preise	-9.57237
wesen	-9.57454
▁bedeutende	-9.57506
▁Agenda	-9.57625
▁Organisation	-9.57662
▁Nur	-9.57663
wie	-9.57722
ale	-9.57723
ku	-9.58003
ort	-9.58053
sländern	-9.58064
si	-9.581
pe	-9.58147
▁Dienst	-9.58256
▁Einige	-9.58362
▁Mu	-9.58411
ier	-9.58418
▁übrigen	-9.58442
▁ausdrücklich	-9.58489
▁Viele	-9.58599
▁Ob	-9.5867
itz	-9.58683
▁Sprache	-9.58785
FR	-9.58809
▁Liste	-9.58811
▁Modell	-9.5882
▁angeht	-9.58873
▁Information	-9.58933
gt	-9.58942
▁niemand	-9.59048
▁nationaler	-9.59062
▁Sanktionen	-9.59069
staaten	-9.59088
▁17	-9.59107
▁2006	-9.59128
zugehen	-9.59135
▁Idee	-9.59257
▁Überzeugung	-9.59277
icht	-9.5928
▁Gegenteil	-9.59316
▁zustimmen	-9.59529
ine	-9.59558
smaßnahmen	-9.5956
▁Ihr	-9.59573
▁Redner	-9.59652
▁festgestellt	-9.59674
▁1999	-9.59752
▁Dimension	-9.59861
▁streng	-9.59888
▁Wunsch	-9.59903
▁ging	-9.59912
▁Kooperation	-9.60136
▁anderem	-9.60222
schlag	-9.60296
▁wider	-9.6045
wachsen	-9.605
▁Ta	-9.60518
▁Untersuchung	-9.60632
▁einsetzen	-9.60676
▁Unabhängigkeit	-9.6075
▁ganzen	-9.60757
▁Dienste	-9.60795
▁ergriffen	-9.60936
leg	-9.61009
▁Verwaltungs	-9.61032
▁Nutzen	-9.61075
organisation	-9.61101
▁überein	-9.61103
▁All	-9.61109
▁umfassende	-9.61176
ring	-9.61246
▁erklären	-9.61336
fach	-9.61346
▁inter	-9.61533
▁entspricht	-9.61571
▁nächste	-9.61619
▁Ca	-9.6162
dem	-9.61961
▁2005	-9.61997
▁Bar	-9.62027
per	-9.62035
▁tief	-9.6204
▁Nahrungsmittel	-9.62041
▁Ist	-9.62109
▁Anzahl	-9.62133
▁Warum	-9.6219
▁ex	-9.62196
▁gern	-9.62249
▁Erhöhung	-9.62255
▁Verbot	-9.62319
▁Export	-9.6241
las	-9.62412
schau	-9.62427
▁amerikanischen	-9.62465
▁stimmt	-9.62512
▁nötig	-9.62641
▁1.	-9.62704
▁diesbezüglich	-9.62749
▁Worten	-9.62794
▁praktisch	-9.62907
▁rasch	-9.62948
▁Märkte	-9.6299
▁technische	-9.62997
▁Empfehlungen	-9.62999
▁Wege	-9.63164
▁Zivil	-9.63166
Beifall	-9.63229
kommt	-9.63342
▁nennen	-9.63355
▁Gruppe	-9.63359
▁regionalen	-9.63369
▁Leitlinien	-9.63397
▁erforderlichen	-9.63414
dienst	-9.6349
sländer	-9.63506
▁gewährleistet	-9.63506
lagen	-9.63575
▁betroffenen	-9.63631
hen	-9.63664
▁Bedenken	-9.63702
▁Erfahrungen	-9.63705
▁Basis	-9.6387
▁40	-9.64004
▁wollte	-9.64067
▁Gruppen	-9.64083
▁Ar	-9.64148
▁Nahe	-9.64218
▁Auto	-9.64224
▁Gesetze	-9.64315
▁Grunde	-9.64538
▁Regulierung	-9.64553
tet	-9.64561
▁geändert	-9.64663
▁einiger	-9.64686
aktion	-9.64712
▁Begriff	-9.64732
setzen	-9.64844
▁befassen	-9.64994
▁britischen	-9.6513
alität	-9.65138
▁Gesetz	-9.65299
▁Bau	-9.65311
▁Außen	-9.65364
▁Kräfte	-9.65413
▁versch	-9.65528
▁zudem	-9.65545
▁Agrarpolitik	-9.65558
▁derzeitigen	-9.65639
ca	-9.65661
istischen	-9.65681
arbeiten	-9.65683
▁16	-9.65693
arm	-9.65789
▁Harmonisierung	-9.65789
▁November	-9.65856
▁Tagung	-9.65916
ischer	-9.6592
▁amtierende	-9.65948
stellt	-9.66038
▁ländlichen	-9.66074
▁Sport	-9.66235
▁Mindest	-9.66301
▁sage	-9.66605
stände	-9.66617
▁Risiken	-9.66682
▁erhöht	-9.66682
politischen	-9.66703
skonferenz	-9.66779
▁Wachstums	-9.66795
▁Not	-9.66849
▁Ra	-9.66891
ich	-9.66943
▁Prüfung	-9.67091
▁Moment	-9.67142
▁Maßnahme	-9.67148
▁Erst	-9.67197
bare	-9.6722
▁außerordentlich	-9.67266
miss	-9.67295
▁Vergleich	-9.67309
▁persönlich	-9.67362
sätze	-9.67393
hi	-9.67439
fällig	-9.67492
▁unbe	-9.67628
▁Aufbau	-9.6764
▁Vielfalt	-9.67741
organisationen	-9.67811
▁politisch	-9.67929
▁sicherstellen	-9.67971
▁Bu	-9.67974
▁tätig	-9.6798
▁Umfang	-9.67999
▁falsch	-9.68021
▁wesentlichen	-9.68024
▁Schluss	-9.68128
▁anders	-9.68175
▁erfolgt	-9.68184
die	-9.6826
▁geehrte	-9.6828
▁Polizei	-9.68308
▁Entwicklungs	-9.68344
richtung	-9.68458
fisch	-9.68475
▁Zudem	-9.68498
▁Gebiete	-9.68579
lau	-9.68631
stelle	-9.68735
▁Flüchtlinge	-9.68742
▁wünschen	-9.68759
▁2003	-9.68775
▁Beschluss	-9.68805
▁manche	-9.68826
▁angemessene	-9.68851
▁wirksam	-9.68945
▁Do	-9.6896
alter	-9.68975
len	-9.68981
▁künftig	-9.69044
▁Polen	-9.69065
ki	-9.69121
▁grundlegende	-9.69213
▁2001	-9.69225
▁transparent	-9.69293
▁Wohlstand	-9.69308
▁Phase	-9.69339
▁Analyse	-9.69454
▁wahr	-9.69528
wahl	-9.69556
▁a	-9.69628
▁11	-9.69647
▁Mitteln	-9.69691
4-	-9.69872
▁wer	-9.70013
partei	-9.70083
pl	-9.70147
▁Jetzt	-9.70173
▁Wissen	-9.70211
▁Empfehlung	-9.70226
▁folgende	-9.70227
▁Schlüssel	-9.70238
▁bestätigt	-9.7024
▁setzt	-9.70243
▁Flexibilität	-9.70356
▁Gleichgewicht	-9.70357
legung	-9.70449
fa	-9.70507
▁genutzt	-9.70589
▁andererseits	-9.70597
▁Plenum	-9.70612
▁betrachten	-9.70635
▁verändert	-9.70636
▁offiziell	-9.70706
▁dienen	-9.70764
ordnung	-9.70845
▁Rumänien	-9.70892
entwicklung	-9.70916
▁Festlegung	-9.7092
▁Sinn	-9.70921
▁Kommunikation	-9.71009
mut	-9.71058
traf	-9.71226
frei	-9.71335
▁ausschließlich	-9.71384
▁niedrig	-9.71394
▁Reise	-9.71501
▁He	-9.71525
▁verursacht	-9.71525
▁Besorgnis	-9.71572
utz	-9.71678
des	-9.71716
tel	-9.71772
▁Produkt	-9.7178
▁Wettbewerbs	-9.71812
▁Sonder	-9.71836
▁Bedrohung	-9.71839
istische	-9.71877
fü	-9.71927
▁Drittländern	-9.71936
▁finde	-9.71958
▁BIP	-9.71967
res	-9.72029
▁Wähler	-9.72092
▁fordere	-9.72092
har	-9.72167
▁Plan	-9.72201
▁Tod	-9.72309
▁möglichst	-9.72389
▁Vorsitz	-9.72448
tum	-9.7247
▁Aktionen	-9.72505
▁2002	-9.72665
▁unabhängig	-9.72734
srecht	-9.7276
▁kon	-9.72788
▁aktuellen	-9.72824
Be	-9.72845
würdig	-9.72851
▁einverstanden	-9.72923
▁nochmals	-9.72976
▁Gespräche	-9.73049
▁beglückwünschen	-9.73085
ziehen	-9.73156
▁Oktober	-9.73162
▁wesentliche	-9.73216
▁Unterschiede	-9.73224
üb	-9.73322
uer	-9.73394
▁dritten	-9.73408
▁Tatsächlich	-9.73425
▁abgelehnt	-9.73449
▁Konsens	-9.73516
▁früher	-9.73524
fassung	-9.73606
▁betreffen	-9.73615
▁Vi	-9.73622
▁Signal	-9.73665
▁verloren	-9.73689
▁geschieht	-9.73713
eln	-9.73726
▁EUR	-9.73758
▁Fälle	-9.73767
▁Afghanistan	-9.73809
zig	-9.73821
▁gratulieren	-9.73846
▁Agentur	-9.73946
▁einig	-9.74001
▁Beschlüsse	-9.74004
▁reagieren	-9.7405
▁Me	-9.74075
▁Beschäftigungs	-9.74081
▁angemessen	-9.74161
▁Schul	-9.74176
▁Anspruch	-9.74197
▁Monate	-9.74252
märkte	-9.74293
▁nachdem	-9.74347
Ver	-9.74379
tat	-9.74439
▁gestern	-9.74439
▁erfordert	-9.74442
▁Eindruck	-9.74519
▁allgemein	-9.74549
▁Kontinent	-9.74558
fahren	-9.74571
▁Lehr	-9.74729
▁Transport	-9.74755
regelung	-9.74908
▁fallen	-9.74932
schrieb	-9.74945
▁See	-9.74999
▁seitens	-9.75087
▁Den	-9.75098
▁Drittens	-9.751
▁begrenzt	-9.75217
▁Treffen	-9.7541
▁höhere	-9.75412
▁akzeptiert	-9.75484
präsident	-9.75625
▁dennoch	-9.75631
▁Hauses	-9.75698
▁Waren	-9.75741
▁zentrale	-9.75776
▁näher	-9.75778
▁zweifellos	-9.75803
▁solcher	-9.75894
▁dürfte	-9.75901
▁vielmehr	-9.75901
▁gefördert	-9.75926
▁erfolgen	-9.75992
▁NATO	-9.76048
▁herzlich	-9.76147
▁einheitliche	-9.76168
▁Fl	-9.76175
▁hervorheben	-9.76252
lan	-9.76254
▁bekämpfen	-9.76295
fen	-9.76301
▁kritisch	-9.76418
struktur	-9.7648
▁Vorstellung	-9.76481
fass	-9.76521
▁Po	-9.76549
▁Fahr	-9.76636
▁Hintergrund	-9.76644
zeug	-9.76659
▁extrem	-9.76665
alen	-9.76678
ffnung	-9.76739
▁zufrieden	-9.76761
▁relativ	-9.76789
▁Weiter	-9.76802
▁Hause	-9.76839
▁Verständnis	-9.76864
▁Anforderungen	-9.76913
▁Amerika	-9.76929
zustellen	-9.7697
paket	-9.76982
▁Einklang	-9.77013
ott	-9.77022
▁sozial	-9.77028
haltung	-9.77054
schnitt	-9.77077
▁Kontroll	-9.77165
▁internationaler	-9.77217
eren	-9.7727
abkommen	-9.77317
▁Schwerpunkt	-9.77345
▁grundsätzlich	-9.77386
▁spielt	-9.7741
ven	-9.77529
▁parlamentarisch	-9.77536
▁benötigen	-9.77586
▁neben	-9.77587
▁Mehr	-9.77604
▁Kontakt	-9.77662
griff	-9.77681
▁weiterer	-9.77689
▁landwirtschaft	-9.77786
▁konkreten	-9.77812
▁Erzeugnisse	-9.77861
▁gelungen	-9.77938
▁Rechtsgrundlage	-9.78005
wer	-9.78031
▁Verhalten	-9.78034
▁Ordnung	-9.78037
▁technischen	-9.78098
wir	-9.78101
02	-9.78131
▁Definition	-9.78137
tik	-9.78139
▁Portugal	-9.78187
▁Anliegen	-9.78192
▁hart	-9.78212
minister	-9.78232
▁Blick	-9.78263
tragen	-9.78264
▁vollkommen	-9.78319
▁abgeschlossen	-9.78337
▁Bedürfnisse	-9.78381
▁entschlossen	-9.78389
krise	-9.78407
spar	-9.78428
▁Juli	-9.78455
kon	-9.78473
▁Erfahrung	-9.78511
▁Entlastung	-9.78515
▁Konvent	-9.78528
▁positiven	-9.78615
▁Ebenso	-9.78616
▁Ausmaß	-9.7866
▁leiden	-9.78701
▁Kindern	-9.78812
▁bilden	-9.78854
gr	-9.78878
▁betreffend	-9.78904
anten	-9.78924
ve	-9.78929
▁junge	-9.79003
▁entstehen	-9.79018
▁Zusammenhalt	-9.79037
▁UNO	-9.79052
▁Technologien	-9.79069
▁Arbeitsplätzen	-9.79117
▁jegliche	-9.7915
▁eng	-9.79159
▁Leute	-9.79166
führen	-9.79231
fer	-9.79242
politische	-9.79283
stoff	-9.79295
▁Ziffer	-9.793
▁Diskussionen	-9.79336
▁wichtigste	-9.79412
▁regionale	-9.79427
ce	-9.79458
▁erhebliche	-9.79466
▁daraus	-9.7957
greif	-9.796
▁Amsterdam	-9.79631
▁Ferner	-9.79659
▁größeren	-9.79729
▁CO	-9.79764
▁Grenz	-9.79768
ächt	-9.79801
▁Dann	-9.79861
gesetz	-9.79902
5-	-9.8001
▁verfügt	-9.80035
sagen	-9.80061
▁trägt	-9.80065
spräsident	-9.80072
▁Ni	-9.80074
Berücksichtigung	-9.80091
▁ergeben	-9.80099
▁Problemen	-9.80148
IT	-9.80176
tätigkeit	-9.80183
lö	-9.80192
▁KMU	-9.8027
▁Menge	-9.80307
▁mag	-9.80402
▁legen	-9.80423
▁kürzlich	-9.80476
bre	-9.80478
▁Verringerung	-9.80605
▁Aktionsplan	-9.80608
▁lautet	-9.80696
▁Zoll	-9.80733
▁miteinander	-9.80743
▁bedarf	-9.8077
▁umzusetzen	-9.80795
▁erwartet	-9.80833
bildung	-9.80951
▁geäußert	-9.80992
stoß	-9.81012
▁darunter	-9.81042
▁wirksame	-9.81104
▁beste	-9.81107
▁grundlegenden	-9.81153
▁Inflation	-9.81199
ckt	-9.81316
▁27	-9.81454
▁Bestandteil	-9.81484
▁Krisen	-9.81497
handlung	-9.81552
▁Vorgehen	-9.81686
ete	-9.81702
▁behandeln	-9.81722
▁freie	-9.81743
if	-9.81784
▁Außenpolitik	-9.81801
▁anderes	-9.81803
systeme	-9.81805
▁Subsidiarität	-9.81823
▁Verlust	-9.81876
statt	-9.81931
grenzen	-9.8197
▁Standards	-9.8201
denken	-9.82014
▁Tagen	-9.82039
last	-9.82096
ock	-9.82108
▁staatliche	-9.8212
jahr	-9.82176
gunsten	-9.82355
iß	-9.82437
▁Des	-9.82454
▁Mandat	-9.8267
▁bezug	-9.82739
▁Verletzung	-9.8274
▁Klein	-9.82753
▁verurteilt	-9.82872
▁kleiner	-9.82898
▁teilweise	-9.82899
▁Eigen	-9.82919
nach	-9.82958
tische	-9.83104
▁integriert	-9.83188
▁Vorschlägen	-9.83217
▁künftigen	-9.83248
▁Roma	-9.83324
▁interessant	-9.83346
▁Status	-9.83348
▁Handlung	-9.83348
barkeit	-9.83355
▁Schengen	-9.83375
stieg	-9.83409
met	-9.83441
▁Voraussetzungen	-9.83547
▁Jahrhundert	-9.8363
▁schwierigen	-9.83633
▁Effizienz	-9.83718
▁Welche	-9.83771
krieg	-9.83781
▁Internationalen	-9.83781
▁alten	-9.83784
▁Verhandlungs	-9.83796
Programm	-9.83817
▁besseren	-9.83822
▁Gewinn	-9.83904
▁hören	-9.83919
▁Schiff	-9.83967
Die	-9.8413
▁sehe	-9.84153
sprach	-9.84202
bund	-9.84224
▁keinerlei	-9.84263
hält	-9.84269
▁denken	-9.84282
gemeinschaft	-9.84449
▁Gut	-9.84561
▁entscheidend	-9.84585
▁Schweden	-9.84599
lose	-9.8463
▁rein	-9.84721
▁humanitäre	-9.8476
▁ernsthaft	-9.84844
machen	-9.8487
In	-9.84876
PL	-9.84919
▁Ausführungen	-9.84934
▁reden	-9.85009
▁jeweiligen	-9.85014
▁Einbeziehung	-9.85082
▁Insel	-9.85098
▁Strategien	-9.85126
▁militärische	-9.85133
▁tr	-9.85151
ES	-9.85155
▁Eisenbahn	-9.85163
▁Stellung	-9.8518
▁Ganz	-9.85231
▁vorlegen	-9.85289
▁Korruption	-9.85298
▁Gleichstellung	-9.85328
▁mittel	-9.85375
▁Einheit	-9.85404
▁100	-9.85469
▁groß	-9.85541
▁breite	-9.85563
▁Inter	-9.85564
▁Preise	-9.85579
▁Mio	-9.85692
isse	-9.85721
uelle	-9.85783
▁Rechnungshof	-9.85839
▁Ri	-9.85904
lt	-9.85906
alisierung	-9.85934
▁weshalb	-9.85948
age	-9.85953
▁Monat	-9.85953
▁französischen	-9.85975
lü	-9.85996
▁Defizit	-9.86002
▁Gedanken	-9.86018
Strategie	-9.86116
▁effektiv	-9.86138
ron	-9.86146
systems	-9.86201
▁ähnliche	-9.86216
spe	-9.86227
/20	-9.86242
att	-9.86285
▁Vielleicht	-9.86302
▁Zypern	-9.86383
▁aufgefordert	-9.86438
▁anwesend	-9.86442
▁britische	-9.86459
▁Renten	-9.865
▁schlecht	-9.86506
▁acht	-9.86508
▁2020	-9.86509
▁Unser	-9.86554
▁funktioniert	-9.86575
▁stärkere	-9.8659
▁Einzel	-9.86611
▁Institution	-9.86648
St	-9.86656
20	-9.86664
▁usw	-9.86688
▁Je	-9.86768
▁wichtiges	-9.86789
▁finanziert	-9.86795
▁sp	-9.8684
▁Wirkung	-9.86863
▁Geist	-9.87021
▁wiederholt	-9.87097
▁Ausnahme	-9.87113
▁zufolge	-9.87166
ai	-9.87182
▁Schaden	-9.87234
schreiben	-9.87248
▁palästinensisch	-9.8725
▁Tiere	-9.87346
▁Bemerkungen	-9.87366
▁Freiheiten	-9.87461
▁Jo	-9.87644
▁Aktion	-9.87662
▁Befugnisse	-9.8767
▁Vermittlung	-9.87731
▁Opposition	-9.87774
▁Voraussetzung	-9.87797
▁Eurozone	-9.87912
▁gefährlich	-9.87959
▁kompliziert	-9.88034
▁aussprechen	-9.88037
ack	-9.88049
bü	-9.88298
▁gelangen	-9.88343
heim	-9.88416
▁Programms	-9.8845
▁Handeln	-9.88484
▁Volkswirtschaft	-9.88487
▁verlieren	-9.88508
▁Hinweis	-9.88508
▁annehmen	-9.88649
pass	-9.88679
▁hält	-9.88801
mmen	-9.88891
streben	-9.88953
▁uneingeschränkt	-9.89038
▁Bemerkung	-9.89071
▁Bild	-9.89075
▁stand	-9.89252
ost	-9.89292
versorgung	-9.89313
wissenschaftlich	-9.89354
▁Umweltschutz	-9.89457
raten	-9.89562
▁Charta	-9.89798
▁zuletzt	-9.89854
▁gelöst	-9.89882
rahmen	-9.89895
▁Systems	-9.90048
▁seines	-9.90116
shilfe	-9.90136
▁Alter	-9.90186
▁entscheidende	-9.9028
war	-9.90299
▁Abkommens	-9.90338
▁Mitgliedern	-9.90347
▁April	-9.90364
ib	-9.90424
▁besonderen	-9.90428
▁profitieren	-9.90449
▁Chinas	-9.90619
svorschlag	-9.90647
▁gering	-9.90669
▁Zahlen	-9.90675
Ko	-9.90703
▁Intervention	-9.90705
maß	-9.90728
▁begrüßt	-9.90791
▁Entwicklungen	-9.90845
ke	-9.90865
▁Elemente	-9.90887
▁Technologie	-9.91079
▁geplant	-9.9108
▁AKP	-9.91105
▁voraus	-9.9125
▁Umständen	-9.91327
▁Balkan	-9.91392
▁dritte	-9.91444
reichen	-9.91453
▁Gefühl	-9.91478
▁Mein	-9.91516
kontrolle	-9.91521
▁äußern	-9.91621
▁Krankheiten	-9.91668
▁wodurch	-9.91779
▁Aussage	-9.9179
▁zahlreichen	-9.91809
▁nachhaltigen	-9.91856
▁Verhältnis	-9.91892
▁Her	-9.91902
▁erfahren	-9.91979
▁Vorschlags	-9.91988
▁erweitert	-9.91996
▁Mut	-9.92102
▁Gegensatz	-9.92183
▁benötigt	-9.92227
▁treten	-9.92239
▁regelmäßig	-9.92256
▁letztlich	-9.92285
▁laut	-9.92287
▁Atom	-9.92341
tu	-9.92366
▁zuständig	-9.9238
▁1998	-9.92476
ry	-9.92504
▁Religion	-9.92546
▁nachdrücklich	-9.92575
▁Normen	-9.92641
schätze	-9.92699
werte	-9.92702
▁gerichtet	-9.92722
▁ausgesprochen	-9.92747
▁Süd	-9.92825
kräfte	-9.9285
▁Fisch	-9.92853
▁Niveau	-9.92866
▁einerseits	-9.9292
▁amerikanische	-9.9292
▁Familie	-9.92931
ton	-9.9299
▁Zuge	-9.92999
▁60	-9.93001
▁Glaubwürdigkeit	-9.9304
▁mindestens	-9.9307
▁abgestimmt	-9.93106
up	-9.93118
geführt	-9.9315
▁bedauerlich	-9.93157
▁Güter	-9.93187
▁verringern	-9.93303
▁Mobilität	-9.93335
aff	-9.93338
wunder	-9.93418
▁gestalten	-9.93456
▁Kollegin	-9.93516
▁privaten	-9.93528
▁Besuch	-9.93539
▁1,	-9.93599
▁vorhanden	-9.93623
sterreich	-9.93709
red	-9.9371
▁11.	-9.93721
▁reichen	-9.93776
▁Übereinstimmung	-9.9386
▁Erwägung	-9.93919
▁abhängig	-9.93993
▁bestimmt	-9.93997
▁aufzunehmen	-9.94041
▁anbelangt	-9.94096
artig	-9.94113
▁menschliche	-9.94196
▁Regierungs	-9.94216
▁Leistung	-9.94217
▁eingegangen	-9.94287
▁unterzeichnet	-9.94333
▁tut	-9.94357
▁Mitarbeiter	-9.94422
▁Privat	-9.94441
hören	-9.94617
▁Wahrheit	-9.94658
▁genannt	-9.94676
▁Ne	-9.94708
preis	-9.94739
▁konkret	-9.94847
Länder	-9.94859
▁hervorragende	-9.94868
▁bezieht	-9.94895
▁eingebracht	-9.9492
akte	-9.94968
▁Kar	-9.94994
▁normal	-9.95006
▁Hohen	-9.95011
situation	-9.95014
▁volle	-9.95021
▁Trotz	-9.95037
▁Urteil	-9.95074
bruch	-9.95097
▁Männer	-9.95127
▁Deswegen	-9.95133
▁Maß	-9.95182
gl	-9.95187
▁ausgesetzt	-9.95219
▁Perspektive	-9.95222
▁erheblich	-9.95223
▁Ch	-9.95231
▁Prinzipien	-9.95241
▁zuständigen	-9.95301
▁Wirklichkeit	-9.95312
▁Straßen	-9.95322
98	-9.95334
betrieb	-9.95338
▁gewährt	-9.95342
▁paar	-9.95343
san	-9.95372
tri	-9.95373
swert	-9.95397
partner	-9.95543
Z	-9.95567
▁Versorgung	-9.95581
▁kulturellen	-9.95625
▁Städte	-9.95641
▁Platz	-9.95671
▁Schw	-9.95707
▁fällt	-9.95774
▁Personal	-9.95837
▁Dienstleistungs	-9.95843
▁Organe	-9.95865
zog	-9.95878
oni	-9.95928
▁erscheint	-9.95941
▁Luft	-9.95997
▁Charakter	-9.96031
▁jemand	-9.96031
▁Akt	-9.9609
▁bemüht	-9.96151
▁verstärken	-9.96151
kal	-9.96162
ic	-9.96193
▁gefährdet	-9.96211
▁Stadt	-9.96212
▁lokalen	-9.96263
▁betreffenden	-9.96303
ali	-9.96329
▁notwendige	-9.96338
▁Ihren	-9.96372
▁Schuld	-9.96414
▁Vorausschau	-9.96422
▁Westen	-9.96449
▁neues	-9.96496
eth	-9.96621
▁Tabak	-9.96658
▁ferner	-9.96699
▁kennen	-9.96708
▁bezeichnet	-9.96725
▁kulturelle	-9.96801
wechsel	-9.96876
▁anstatt	-9.96917
habe	-9.96954
▁entscheidender	-9.97003
eten	-9.97055
tschaftswachstum	-9.97081
▁Zeichen	-9.97149
▁befindet	-9.9724
port	-9.97273
▁Menschenrecht	-9.97291
▁seien	-9.97295
▁Sorgen	-9.97343
▁überall	-9.97349
▁Mittelmeer	-9.97401
▁Nachfrage	-9.97432
▁Bush	-9.97459
▁Konsultation	-9.97606
▁mündliche	-9.97606
▁suchen	-9.97622
▁Finanzkrise	-9.97635
tan	-9.97637
▁einheitlichen	-9.97649
ationen	-9.97717
▁Politiken	-9.97786
▁Verantwortlich	-9.97866
ehrt	-9.97905
▁verlangt	-9.97913
schwe	-9.98091
▁bewegen	-9.981
▁Patienten	-9.98126
▁Zur	-9.98197
▁Si	-9.98226
▁Einkommen	-9.98318
▁einzelne	-9.9832
▁langfristige	-9.9834
▁Hälfte	-9.98464
▁strategische	-9.98493
▁vereinbart	-9.98506
schluss	-9.98586
▁Funktion	-9.98648
▁verdient	-9.98649
▁Wei	-9.98682
zukommen	-9.98705
▁Freizügigkeit	-9.98773
▁hauptsächlich	-9.98773
schrift	-9.98921
▁legt	-9.98938
▁warten	-9.98943
▁Vereinbarungen	-9.98997
▁vieler	-9.99173
▁veröffentlicht	-9.99175
▁ausländische	-9.99199
etz	-9.99214
▁Boden	-9.99238
zent	-9.99239
treten	-9.99249
▁Wieder	-9.99265
▁informiert	-9.9927
▁illegale	-9.99404
▁übernommen	-9.99485
▁Sektoren	-9.99498
▁vorzulegen	-9.99542
▁Vorhaben	-9.99579
▁gezwungen	-9.99641
asse	-9.99649
sstrategie	-9.99655
▁verlangen	-9.99707
▁Fähigkeit	-9.99767
▁entsprechen	-9.99804
▁Stellen	-9.99817
▁kurzfristig	-9.99828
ziehung	-9.999
▁künftige	-9.99938
▁Fernseh	-9.99976
▁Erwartungen	-9.99982
▁teile	-10.0004
▁Paket	-10.0008
▁Produktions	-10.0013
▁zivil	-10.0023
▁damals	-10.0027
▁Verfahrens	-10.0027
▁staatlichen	-10.0028
▁möglichen	-10.0035
▁begonnen	-10.0042
▁Regierungschefs	-10.0045
▁schließen	-10.0046
▁vorher	-10.0051
ov	-10.0057
▁Volksgesundheit	-10.0058
DE	-10.0064
gänge	-10.0069
▁geringer	-10.0075
▁gezogen	-10.0075
sbedingungen	-10.0078
▁nahe	-10.008
▁keiner	-10.0084
▁herrscht	-10.009
produktion	-10.009
▁Tri	-10.0091
▁Fischer	-10.0091
▁El	-10.0098
leitet	-10.0101
▁übertragen	-10.0101
fahrt	-10.0103
▁EZB	-10.0105
▁halb	-10.0111
▁wiederholen	-10.0114
▁Jugend	-10.0119
▁1997	-10.012
taten	-10.0123
▁geschützt	-10.0127
▁Katastrophe	-10.0134
▁religiöse	-10.0137
▁nützlich	-10.0156
▁Arbeitsplatz	-10.0156
mb	-10.0158
sausschusses	-10.017
▁Frist	-10.017
▁vorgeschlagene	-10.017
▁Fehl	-10.0173
▁Bedarf	-10.0178
mann	-10.018
▁mehreren	-10.0181
▁Führer	-10.0181
▁Mangel	-10.0186
▁Betracht	-10.0188
wettbewerbsfähig	-10.0189
▁ausgewogene	-10.0195
▁Tr	-10.0199
▁nunmehr	-10.0201
bu	-10.0201
ländern	-10.0208
▁gesellschaft	-10.0212
▁Kopenhagen	-10.0213
▁Ausland	-10.0215
▁wenige	-10.022
stoffe	-10.0226
▁Wiederaufbau	-10.0229
org	-10.0231
▁Ga	-10.0232
▁Vorteil	-10.0233
▁richten	-10.0235
▁EG	-10.0241
▁Bulgarien	-10.0242
▁beruht	-10.0242
▁Va	-10.0247
▁Mann	-10.0248
gu	-10.0249
▁spricht	-10.025
seits	-10.0251
▁Würde	-10.0261
▁vorgenommen	-10.0271
▁höchst	-10.0273
▁weltweiten	-10.0276
zusammenarbeiten	-10.0279
▁enorme	-10.028
ßt	-10.0283
▁Fest	-10.0284
gesetzt	-10.0287
▁friedliche	-10.0289
▁Gemeinsame	-10.0289
▁Hilfs	-10.029
▁Problems	-10.0292
▁beziehen	-10.0293
▁ausführlich	-10.0294
▁Asien	-10.0294
▁vorrangig	-10.03
bindung	-10.0308
▁Überlegungen	-10.031
▁zuvor	-10.031
dauer	-10.0315
▁letztendlich	-10.0316
hy	-10.0318
treiben	-10.0322
▁richtigen	-10.033
technologie	-10.0335
essen	-10.0342
▁fehlt	-10.0346
▁einzigen	-10.0346
schied	-10.0347
▁bemühen	-10.0348
kapital	-10.0351
▁beschränkt	-10.0352
▁Stoffe	-10.0355
▁Kontrollen	-10.0359
▁Barroso	-10.0365
▁abstimmen	-10.0365
▁Binnenmarktes	-10.0367
▁kämpfen	-10.0369
blick	-10.037
▁eingehalten	-10.0375
▁Abschaffung	-10.0379
netz	-10.0379
sausschuss	-10.0386
net	-10.0389
▁umfassenden	-10.039
▁durchzuführen	-10.0395
gruppe	-10.0397
▁Studie	-10.0408
grenz	-10.0416
▁Ratifizierung	-10.0421
▁Ohne	-10.0423
▁Konsequenzen	-10.043
▁öffentlich	-10.0438
▁heutige	-10.0442
▁Pakistan	-10.0446
▁sprach	-10.0453
▁beschäftigt	-10.0456
▁Amerikaner	-10.0459
▁Lo	-10.0473
▁80	-10.048
▁zugleich	-10.048
▁unterstreichen	-10.0482
bin	-10.0488
▁Ablehnung	-10.0492
▁Post	-10.0504
eil	-10.0517
heben	-10.0519
▁genauso	-10.0523
▁Wohn	-10.0535
▁Konflikte	-10.0537
▁unmöglich	-10.0542
ja	-10.0553
▁achten	-10.0555
bank	-10.0558
verkehrs	-10.056
▁speziell	-10.0563
EG	-10.0564
▁aktive	-10.0565
▁übrigens	-10.0568
▁Abend	-10.0571
▁Vereinfachung	-10.0574
▁süd	-10.0578
▁Verbesserungen	-10.058
▁niemals	-10.0581
97	-10.0581
▁Argument	-10.0583
▁konstruktive	-10.0587
▁ordnungsgemäß	-10.0591
zeichne	-10.0593
2-	-10.0596
▁Amt	-10.0597
▁Austausch	-10.0599
▁Verfasser	-10.0604
tausend	-10.0613
▁Gefahren	-10.0626
▁Regel	-10.0632
▁gehalten	-10.0634
▁Kriminalität	-10.0634
Mitgliedstaaten	-10.0636
▁beigetragen	-10.0642
▁Reduzierung	-10.0647
günstig	-10.0648
▁wiederum	-10.066
▁gewissen	-10.0661
▁Steuern	-10.0661
orientiert	-10.0664
▁Anstieg	-10.0673
▁Angst	-10.0678
▁inzwischen	-10.0684
▁Jahrzehnt	-10.0685
▁Premierminister	-10.0688
▁Formen	-10.0689
ären	-10.0695
▁jungen	-10.07
ini	-10.0702
▁Währungsunion	-10.0704
▁generell	-10.0704
▁Ost	-10.0705
▁Systeme	-10.0708
Bericht	-10.071
▁Unterschied	-10.0714
▁aktuelle	-10.0721
▁Gelder	-10.0727
▁Miss	-10.0729
ausschuss	-10.073
▁Staates	-10.0734
▁verleihen	-10.0735
sfonds	-10.0742
▁entfernt	-10.0745
▁einbezogen	-10.0748
▁Marktes	-10.0751
▁hervorgehoben	-10.0752
▁Katastrophen	-10.0754
▁chinesischen	-10.0762
▁Organ	-10.0763
▁bestehende	-10.0769
sprogramm	-10.0773
zt	-10.0781
▁weitgehend	-10.0782
sy	-10.0785
▁Laufe	-10.079
▁II	-10.0792
▁verlassen	-10.0792
▁Februar	-10.0792
schreiten	-10.0794
gesellschaften	-10.0796
▁Frei	-10.0802
▁Bis	-10.0808
▁gewinnen	-10.0814
leb	-10.0822
Staaten	-10.0828
▁End	-10.0831
▁Arzneimittel	-10.0833
antwort	-10.0836
30	-10.0841
▁Männern	-10.0847
Vertrag	-10.0849
▁weiteres	-10.0856
▁fr	-10.0859
▁Tage	-10.0865
tenden	-10.0865
seite	-10.0866
▁geprüft	-10.0867
▁verhindert	-10.0874
▁Ausschüsse	-10.0874
▁Gang	-10.0877
▁Einstellung	-10.0881
liegen	-10.0882
▁bereitgestellt	-10.0886
▁kurzem	-10.0887
▁illegalen	-10.0893
zunehmen	-10.0896
wirken	-10.0897
▁Leid	-10.0901
▁Unternehmens	-10.0909
▁Akteure	-10.0913
▁Widerspruch	-10.0915
▁Palästinenser	-10.0918
▁Bewegung	-10.0918
▁Antworten	-10.0924
PT	-10.0928
räumen	-10.0931
▁jenen	-10.0932
▁geltenden	-10.0935
▁beteiligen	-10.0935
brechen	-10.0936
▁Element	-10.094
▁geeignete	-10.094
▁verteidigen	-10.0942
▁Mittelpunkt	-10.0949
RO	-10.0949
▁Patent	-10.0953
▁verb	-10.097
▁Bereitschaft	-10.0973
▁vernünftige	-10.0974
▁letzter	-10.0975
iere	-10.0976
sentwurf	-10.0981
baren	-10.0987
▁Tradition	-10.099
▁manchmal	-10.0994
▁Presse	-10.0997
▁starken	-10.0997
austausch	-10.0998
▁Wandel	-10.1004
welt	-10.1007
▁technologische	-10.1008
▁sozialer	-10.1008
▁Berufs	-10.1011
▁schafft	-10.1014
▁ethnische	-10.1018
▁verstanden	-10.1019
▁rechtlichen	-10.1019
▁Erzeuger	-10.1021
chten	-10.1025
▁sorgfältig	-10.1035
▁enger	-10.1041
▁Obama	-10.1046
▁Zeiten	-10.1047
▁wenigen	-10.105
▁Kurz	-10.1054
spräsidentschaft	-10.1054
▁konfrontiert	-10.1056
▁Straßburg	-10.1066
▁großes	-10.1068
sprinzip	-10.1068
▁freiwillig	-10.1074
▁Einrichtungen	-10.1076
eck	-10.108
▁unzureichend	-10.1084
▁verfügbar	-10.1084
▁ländliche	-10.1088
▁Punkten	-10.1095
▁eingeleitet	-10.1099
▁ausgezeichneten	-10.1108
sive	-10.1115
▁Genehmigung	-10.1115
▁versichern	-10.1119
iti	-10.1125
▁anschließen	-10.1128
▁PPE	-10.1129
50	-10.1133
quote	-10.1134
pflicht	-10.1138
fertig	-10.1138
▁Faktoren	-10.114
wirkung	-10.1141
gebracht	-10.1148
▁allzu	-10.1149
▁ausgerichtet	-10.115
ssysteme	-10.1164
▁Pläne	-10.1168
▁schneller	-10.1171
leiten	-10.1173
▁vernünftig	-10.1174
▁russischen	-10.1176
werfen	-10.1181
▁Respekt	-10.1185
▁bestimmter	-10.1186
▁Herzen	-10.1189
▁erlebt	-10.1193
▁vorliegende	-10.1193
▁rechtliche	-10.1204
▁jetzigen	-10.1206
leistung	-10.1207
lohn	-10.1213
ausschusses	-10.1213
▁Beiträge	-10.1215
ahn	-10.1215
▁folgenden	-10.1233
▁dank	-10.1236
▁Praktiken	-10.1242
▁ursprünglich	-10.1244
▁welcher	-10.1244
▁gestärkt	-10.1249
▁deutschen	-10.125
▁Belarus	-10.1253
▁Wohl	-10.1265
▁Stand	-10.1269
ey	-10.1274
▁Wissenschaft	-10.1277
▁realistisch	-10.1277
Re	-10.1279
▁wonach	-10.1286
▁danach	-10.129
▁Todesstrafe	-10.1295
pel	-10.1299
▁Übrigen	-10.1302
mus	-10.1308
))	-10.1309
▁konsequent	-10.132
▁potenziell	-10.1324
fonds	-10.1337
▁bestand	-10.1351
▁sofort	-10.1353
▁Teilen	-10.136
gezogen	-10.1366
mel	-10.1367
▁effektive	-10.1367
▁spanischen	-10.1368
▁Gerechtigkeit	-10.137
▁Außenminister	-10.1375
sfreiheit	-10.1384
▁spezifische	-10.1385
▁erinnert	-10.1388
zugeben	-10.1392
▁langfristig	-10.1392
lock	-10.1395
▁menschlichen	-10.1401
▁23	-10.1404
▁Finanzielle	-10.1404
▁vollständige	-10.1404
▁entweder	-10.1406
kauf	-10.1416
ermaßen	-10.1418
lief	-10.1422
wo	-10.1424
wohn	-10.1424
▁sichern	-10.1427
▁ehemaligen	-10.1428
pul	-10.1431
äre	-10.1437
fern	-10.144
▁garantieren	-10.1442
▁festzulegen	-10.1444
▁praktische	-10.1448
▁investieren	-10.1449
▁Versammlung	-10.1454
pol	-10.1454
bericht	-10.1457
smöglichkeiten	-10.1459
gruppen	-10.1467
▁Hindernisse	-10.1484
scht	-10.1486
▁Wo	-10.1486
sinn	-10.1496
▁unverzüglich	-10.1497
▁schlägt	-10.15
treffen	-10.1505
uf	-10.1505
▁Umweltfragen	-10.1508
züge	-10.1513
▁direkte	-10.1513
▁dankbar	-10.1513
▁Person	-10.1514
▁Zwischen	-10.1516
▁Abfall	-10.1517
gelegt	-10.1518
lit	-10.1518
▁legitim	-10.1529
▁Geschäfts	-10.153
gekommen	-10.1534
▁offenbar	-10.1534
▁elektronische	-10.1537
▁Putin	-10.1537
▁mögliche	-10.1537
sstaatlichkeit	-10.1546
hebung	-10.1547
Kohäsionspolitik	-10.1556
▁Neben	-10.1557
▁Fremdenverkehr	-10.1559
▁einzusetzen	-10.1559
▁französische	-10.1566
▁Chancen	-10.1578
▁Krankheit	-10.1581
EL	-10.1584
wasser	-10.1588
▁einzuführen	-10.1589
▁beschäftigen	-10.1591
▁schwach	-10.1594
europa	-10.1596
▁besorgt	-10.1599
führt	-10.16
zweck	-10.1602
▁informieren	-10.1603
▁erleichtern	-10.1606
schein	-10.1607
▁gelegt	-10.1607
▁langsam	-10.1608
▁sexuelle	-10.161
▁ziemlich	-10.161
▁zahlen	-10.1611
▁Identität	-10.1617
▁hoffentlich	-10.1617
▁garantiert	-10.1624
ausgaben	-10.1625
▁Arten	-10.1628
lösung	-10.1629
▁irgendeine	-10.163
▁echten	-10.1631
▁Milch	-10.1643
▁Denk	-10.1653
▁Kandidaten	-10.1654
ari	-10.1655
▁reale	-10.1664
▁interessiert	-10.1665
▁sonst	-10.1668
▁Mitentscheidung	-10.1671
beauftragten	-10.1675
▁solange	-10.1676
▁erleben	-10.1685
▁24	-10.1687
▁wollten	-10.1688
▁Ideen	-10.1688
▁Stimmen	-10.1692
▁größer	-10.1696
▁auffordern	-10.1702
▁korrekt	-10.1706
reform	-10.1712
▁Mir	-10.1713
kan	-10.1724
▁innere	-10.1727
▁Genau	-10.1729
▁Nachbarn	-10.1732
▁22	-10.1733
▁sieben	-10.1734
▁Zins	-10.1735
arten	-10.1735
glich	-10.1737
▁überzeugen	-10.174
▁abschließend	-10.1743
hand	-10.1744
▁Einwanderer	-10.1762
▁Gewährleistung	-10.1762
▁Angebot	-10.1769
▁zugrunde	-10.1775
gewiesen	-10.1777
Sicherheitsrat	-10.178
▁geraten	-10.1784
▁funktionieren	-10.1785
▁angewandt	-10.1788
▁unver	-10.1791
chi	-10.1791
▁schlechte	-10.1792
ci	-10.1794
▁trifft	-10.1795
▁Mon	-10.1797
▁spreche	-10.1797
ance	-10.18
▁stehenden	-10.1815
▁21.	-10.1818
fahr	-10.1819
▁Schiffe	-10.1824
▁Petition	-10.1825
▁Wein	-10.1838
spruch	-10.1842
▁formuliert	-10.1848
▁Lang	-10.1848
▁beabsichtigt	-10.1851
▁erwähnen	-10.1851
▁Hoch	-10.1857
zer	-10.1858
▁Ju	-10.1859
▁Serbien	-10.1859
▁Angaben	-10.1859
▁derzeitige	-10.186
tive	-10.1862
▁wünsche	-10.1863
▁gesetzlich	-10.1863
lieb	-10.1863
▁behaupten	-10.187
erklärung	-10.1877
▁Strukturen	-10.1877
initiative	-10.1878
▁Sprachen	-10.188
▁Gesetzes	-10.1886
sprech	-10.1888
mat	-10.189
▁früh	-10.1891
▁Stimm	-10.1891
▁Aussicht	-10.1899
energie	-10.1899
test	-10.19
▁Terror	-10.1902
▁Anhörung	-10.1908
losen	-10.1914
▁Verzögerung	-10.1916
▁früheren	-10.1918
ox	-10.1918
▁Anti	-10.1921
Ge	-10.1922
ori	-10.1924
▁welchen	-10.1931
▁verwenden	-10.1931
▁erneuerbare	-10.1937
▁gefährliche	-10.1941
Ä	-10.1942
punkte	-10.1955
▁private	-10.1975
▁ausgezeichnete	-10.1979
▁dramatisch	-10.1984
▁Ihrem	-10.199
▁gutes	-10.1991
▁teilnehmen	-10.1992
▁schwierige	-10.2001
▁wenigsten	-10.2003
▁Senkung	-10.2007
▁täglich	-10.2007
▁ehrgeizige	-10.2011
▁teilen	-10.2012
▁1996	-10.2012
gegen	-10.2017
▁einzelstaatlich	-10.2018
▁militärischen	-10.2024
▁bislang	-10.2025
▁laufen	-10.2031
▁Tür	-10.2037
▁Formulierung	-10.2038
▁vorgesehenen	-10.204
▁Auftrag	-10.2047
▁ursprünglichen	-10.2051
lli	-10.2054
▁Nachricht	-10.2055
▁Methode	-10.2055
reu	-10.2056
▁Noch	-10.2056
▁guter	-10.2063
▁frage	-10.2066
▁zweitens	-10.2082
▁Grenze	-10.2083
institutionelle	-10.2084
▁höchste	-10.2085
▁Zusatz	-10.2091
▁medizinische	-10.2092
▁spezielle	-10.2093
▁Beispiele	-10.2096
▁Migration	-10.2103
▁Vorsitzende	-10.2105
▁Strom	-10.2107
▁fand	-10.2109
▁geeignet	-10.2109
▁Einschränkung	-10.211
▁Zustand	-10.211
Das	-10.2118
▁bestätigen	-10.2118
▁ermutigen	-10.2118
Wirtschaftskrise	-10.212
viel	-10.2121
▁gründlich	-10.2126
lat	-10.2127
▁Spar	-10.2128
▁erhält	-10.213
▁strategischen	-10.2134
▁passiert	-10.2134
Energieeffizienz	-10.2137
▁mittleren	-10.2138
▁Methoden	-10.2139
▁Fang	-10.2139
ogen	-10.2141
▁bewältigen	-10.2142
region	-10.2144
▁Georgien	-10.2145
▁führende	-10.215
▁Beschluß	-10.2152
▁Bereitstellung	-10.2153
▁Grünen	-10.2153
▁einstimmig	-10.2153
▁Freude	-10.2153
▁beträchtliche	-10.2162
rang	-10.2162
▁solches	-10.2163
▁Nein	-10.2171
▁Ungleichheit	-10.2173
▁entwickelten	-10.2176
▁reicht	-10.2182
▁definiert	-10.2184
▁geboten	-10.2184
▁spät	-10.2192
nehmer	-10.2193
▁Licht	-10.2199
schreck	-10.2201
▁Studien	-10.2203
▁höher	-10.221
▁komplexe	-10.2219
▁Komm	-10.2223
▁Sollte	-10.2223
▁beschränken	-10.2231
▁müßte	-10.2243
▁Darum	-10.2243
▁gesunde	-10.2243
gericht	-10.2245
▁Netze	-10.2246
▁Ansichten	-10.2246
▁schön	-10.2247
▁Widerstand	-10.2259
ator	-10.2264
gelassen	-10.2266
▁gegenwärtige	-10.2273
▁Insbesondere	-10.2274
▁dient	-10.2278
ologische	-10.2281
▁Beruf	-10.2284
▁beinhaltet	-10.2286
streit	-10.2288
▁West	-10.2289
▁Option	-10.229
▁zukünftige	-10.229
▁Steuerzahler	-10.2294
▁Experten	-10.2298
svertrag	-10.2298
gier	-10.2304
▁westlichen	-10.2307
frist	-10.2309
jährigen	-10.2309
▁geregelt	-10.231
▁Prodi	-10.2311
▁entstanden	-10.2314
▁Teilnahme	-10.2315
▁IWF	-10.2321
▁Kroatien	-10.2321
▁Referendum	-10.2329
fähigkeit	-10.2333
weich	-10.2333
position	-10.2333
▁Dringlichkeit	-10.2333
▁angesehen	-10.2339
▁ECU	-10.2345
▁GAP	-10.2345
pläne	-10.2353
▁vorschlagen	-10.2357
▁umfangreiche	-10.2357
▁Anfragen	-10.2359
▁Du	-10.2366
▁Souveränität	-10.2369
sorge	-10.2372
feld	-10.2373
▁Debatten	-10.2375
▁umsetzen	-10.2376
ül	-10.2376
suche	-10.238
räg	-10.238
tieren	-10.2381
▁Volkspartei	-10.2381
▁zer	-10.239
▁Import	-10.2391
▁Dialogs	-10.2395
▁Wichtig	-10.2403
produkt	-10.2407
▁Gewerkschaft	-10.2409
▁konzentriert	-10.2412
▁Fünf	-10.2416
▁Umgang	-10.2419
▁effizienter	-10.242
▁ernsthafte	-10.2422
▁Potenzial	-10.2428
▁Schlussfolger	-10.2429
▁effiziente	-10.2442
▁gesch	-10.2444
kultur	-10.2444
▁Demokraten	-10.2444
▁Beteiligten	-10.2448
▁multilaterale	-10.2448
▁überprüfen	-10.2453
drücken	-10.2457
kenntnis	-10.2457
bekämpfung	-10.2465
▁zusätzlichen	-10.2465
▁organisierte	-10.2468
▁Pol	-10.2472
amp	-10.2481
▁Volks	-10.2487
▁üblich	-10.2487
▁überwinden	-10.2493
▁Betrug	-10.2496
▁Rest	-10.2497
sträger	-10.251
▁Zielen	-10.2521
▁systematisch	-10.2525
▁unterbreitet	-10.2525
▁70	-10.2526
▁Pi	-10.2537
▁faire	-10.2547
▁humanitären	-10.2549
tätig	-10.2554
▁mangelnde	-10.2557
▁ehrlich	-10.2564
▁Beseitigung	-10.2569
sache	-10.2573
rit	-10.2576
ast	-10.258
▁Ungarn	-10.2585
▁koordiniert	-10.2605
▁Lateinamerika	-10.2613
▁froh	-10.2618
▁Ru	-10.2634
▁Nachbarschaft	-10.2634
▁klaren	-10.2636
▁u	-10.2637
▁durchführen	-10.2637
▁90	-10.2637
▁Gesellschaften	-10.2639
fried	-10.264
▁niedriger	-10.2644
▁Andererseits	-10.2654
▁eventuell	-10.2654
▁Gegenstand	-10.2659
▁italienischen	-10.2662
▁Mensch	-10.2665
▁Leistungen	-10.2666
▁sodass	-10.2666
pan	-10.2668
netze	-10.2668
▁bildet	-10.2671
▁Allgemeinen	-10.2671
▁Trotzdem	-10.2671
▁Herkunft	-10.2675
▁berufliche	-10.2681
ngleichheit	-10.2683
schüsse	-10.2686
willig	-10.2688
freiheit	-10.2692
programme	-10.2697
▁legislative	-10.2699
▁2011	-10.2703
beruf	-10.271
▁Teile	-10.2711
▁Gefängnis	-10.2716
▁kontrolliert	-10.2716
▁finanzieren	-10.272
▁trotzdem	-10.273
▁Vorrang	-10.2737
▁Untersuchungen	-10.2741
▁jener	-10.2744
▁Revolution	-10.2744
▁Meeres	-10.2747
▁ähnlich	-10.2749
▁diplomatische	-10.2769
▁Netz	-10.277
▁zurückzuführen	-10.2775
▁Abhängigkeit	-10.2777
▁Gebäude	-10.2786
gegriffen	-10.2786
zwingen	-10.2786
▁Durchsetzung	-10.2789
▁lernen	-10.2794
▁denjenigen	-10.2794
▁beraten	-10.2797
▁bedroht	-10.2798
ink	-10.2801
▁Ursachen	-10.2802
▁soeben	-10.2803
▁Rand	-10.2803
▁Energien	-10.2804
▁Syrien	-10.2806
▁vorbereitet	-10.2806
▁Verbreitung	-10.2814
▁zulassen	-10.2821
▁Emissions	-10.2821
▁rund	-10.2821
▁reduzieren	-10.2823
ult	-10.2825
▁Ausweitung	-10.2827
▁befürwortet	-10.283
▁Islam	-10.2831
▁Weltwirtschaft	-10.2832
strategie	-10.2833
▁Mechanismen	-10.2835
▁dargelegt	-10.2837
▁zunehmende	-10.2839
▁Ausgleich	-10.284
▁Hu	-10.284
linie	-10.284
▁Arbeitnehmern	-10.2841
hu	-10.2845
▁wirkliche	-10.2849
▁legal	-10.2853
not	-10.2856
star	-10.2857
▁Kontext	-10.2857
▁Volkes	-10.2857
▁Dokumente	-10.2861
▁jüngste	-10.2862
▁Bürokratie	-10.2873
▁gebeten	-10.2877
▁Erhaltung	-10.2882
▁müsste	-10.2883
▁irischen	-10.2884
▁türkischen	-10.2888
liste	-10.2889
atur	-10.289
▁erfolgreiche	-10.2896
schaftliche	-10.2906
leistungen	-10.2908
▁Faktor	-10.2911
▁umfassend	-10.2918
▁spezifischen	-10.2922
ana	-10.2924
sinstrument	-10.293
▁Allianz	-10.2931
▁Tausende	-10.2931
▁ansprechen	-10.2932
▁qualifizierte	-10.2935
geworfen	-10.2935
gesch	-10.294
▁ernste	-10.2941
▁Umfeld	-10.2942
▁genannte	-10.2945
steht	-10.2946
Abkommen	-10.2951
▁Wesentlichen	-10.2952
▁Beschwerde	-10.2952
▁erfreut	-10.2956
▁portugiesische	-10.2956
▁verurteilen	-10.2957
▁historische	-10.296
▁flexible	-10.2961
▁effizient	-10.2964
▁Berg	-10.2964
Entschlossenheit	-10.2965
▁Meer	-10.2966
uk	-10.2972
▁Küsten	-10.2972
▁Hohe	-10.2977
▁hinweg	-10.2985
▁Hersteller	-10.2986
sagt	-10.2986
▁fehlende	-10.2991
▁infolge	-10.2992
▁alte	-10.2998
▁anzunehmen	-10.3001
Mitglied	-10.3003
▁Belastung	-10.3007
▁deutsche	-10.3015
▁zukünftigen	-10.3015
▁zählen	-10.3017
▁scheinen	-10.3018
änderung	-10.3022
stimmt	-10.3023
▁Anbetracht	-10.3024
▁Lohn	-10.3024
ap	-10.303
96	-10.3031
▁Ursprung	-10.3032
▁befürworten	-10.3033
staatliche	-10.3045
alismus	-10.3046
▁bedanken	-10.3046
▁offene	-10.3049
▁irgend	-10.306
produkte	-10.3061
regionen	-10.3061
▁Argumente	-10.3064
▁führte	-10.3065
▁Garantie	-10.3068
▁Glauben	-10.307
▁offenen	-10.3075
▁aufnehmen	-10.3075
▁Ausarbeitung	-10.3075
ani	-10.3078
▁falls	-10.3082
▁Vision	-10.3088
▁vorgelegten	-10.3088
▁Jahrhunderts	-10.3094
reiche	-10.3094
finden	-10.3096
pu	-10.3096
▁Verwirklichung	-10.3096
▁empfehle	-10.3096
▁beruhen	-10.3109
▁Kapazität	-10.3113
▁Anlass	-10.3113
▁unabhängige	-10.3116
Umstrukturierung	-10.3117
▁Grünbuch	-10.3126
▁Geschlechter	-10.3133
▁verstehe	-10.3138
▁Universität	-10.3152
▁Bitte	-10.3152
▁höheren	-10.3153
lauf	-10.3154
haus	-10.3155
urteil	-10.316
funktion	-10.316
▁schwere	-10.3163
▁reagiert	-10.3177
hört	-10.3184
▁Beziehung	-10.3188
erzeugnisse	-10.3192
▁ältere	-10.3195
▁Modernisierung	-10.3203
▁verstärkte	-10.3207
▁befürchte	-10.3207
▁hinzu	-10.3208
▁Kennzeichnung	-10.3225
▁deswegen	-10.3228
▁gewähren	-10.3229
▁Menschenhandel	-10.3229
▁erlaubt	-10.3233
▁Unternehmer	-10.3235
▁Mitgliedschaft	-10.3237
▁Zeitplan	-10.3238
▁Arbeitskräfte	-10.324
konferenz	-10.3241
▁Sektors	-10.3241
▁Sta	-10.3247
ktor	-10.325
ok	-10.3255
▁Leit	-10.326
▁Fort	-10.3267
▁geistige	-10.3273
▁eindeutige	-10.3275
▁genügend	-10.3275
▁Ernährung	-10.3281
kunft	-10.3282
▁Lu	-10.3284
schaftlichen	-10.3287
▁ergänzen	-10.329
▁negativen	-10.3291
wehr	-10.3293
▁Vorredner	-10.3294
uoten	-10.3295
▁müssten	-10.3296
▁Kyoto	-10.3303
▁Alternative	-10.3305
par	-10.3306
▁Betriebe	-10.3306
je	-10.331
▁Ägypten	-10.3311
▁Massen	-10.3321
person	-10.3323
▁befasst	-10.3329
03	-10.3331
vorschlag	-10.3335
nahm	-10.3338
▁Generation	-10.334
laden	-10.3341
▁Reserve	-10.3342
▁stelle	-10.3345
▁chinesische	-10.3346
▁solide	-10.3358
schuss	-10.3358
klausel	-10.3359
▁hängt	-10.3361
▁Nachhaltigkeit	-10.3373
▁angebracht	-10.3376
▁umfasst	-10.3382
öpfe	-10.3382
▁Jeder	-10.3385
forschung	-10.3386
üchte	-10.3392
▁Anreize	-10.3394
▁Luxemburg	-10.3394
▁rechtzeitig	-10.3395
smittel	-10.3396
transport	-10.3399
▁ablehnen	-10.3399
▁Emissionen	-10.3403
▁anerkennen	-10.3403
▁alternative	-10.3421
▁Verlauf	-10.3422
▁Vorgehensweise	-10.3426
sverletzungen	-10.3428
▁Prozeß	-10.343
▁Finanzmärkte	-10.343
▁festzustellen	-10.3434
▁sichergestellt	-10.3435
▁gewünscht	-10.3438
▁hinzufügen	-10.3438
▁Verbrauch	-10.3442
svorschläge	-10.3442
▁Existenz	-10.3443
▁erwiesen	-10.3443
▁erscheinen	-10.3443
▁negative	-10.3443
izi	-10.3444
▁Herstellung	-10.3445
▁Ehre	-10.3448
NL	-10.3452
▁festgelegten	-10.3452
▁Welthandels	-10.3455
▁falsche	-10.3455
▁Hände	-10.3456
▁Liberalen	-10.3468
getragen	-10.3468
kor	-10.3471
160;	-10.3474
▁Einfuhr	-10.3477
▁Arbeitszeit	-10.3481
schicht	-10.3484
▁Zahlungs	-10.3485
wächst	-10.3487
bedarf	-10.349
▁erarbeitet	-10.3492
▁Tisch	-10.3492
▁Verteilung	-10.3493
▁innovative	-10.3496
ac	-10.3499
▁Konvention	-10.3502
sbericht	-10.3502
▁Anträge	-10.3502
▁Sitz	-10.3506
▁Brasilien	-10.3509
▁Kategorie	-10.3509
▁angekündigt	-10.3509
▁ausreichende	-10.3511
hal	-10.3514
ian	-10.3516
▁mitteilen	-10.3518
▁Gewicht	-10.3518
99	-10.3521
▁zusätzlich	-10.353
▁dauerhafte	-10.353
▁Wissenschaftler	-10.3533
▁Revision	-10.354
▁Armen	-10.3545
▁Textil	-10.3558
Ma	-10.356
sebene	-10.356
gar	-10.3564
▁Spitze	-10.3564
▁Dadurch	-10.3569
▁langfristigen	-10.3571
▁Kuba	-10.3577
IS	-10.3579
▁politisches	-10.3579
▁Konjunktur	-10.3581
▁antworten	-10.3583
▁Betrifft	-10.3585
▁auftreten	-10.3588
J	-10.359
▁Rückkehr	-10.3594
▁Armee	-10.3594
rüstung	-10.3599
SV	-10.3605
text	-10.3606
▁Tra	-10.3607
verbot	-10.3607
▁senken	-10.3608
▁Linke	-10.3616
▁Mrd	-10.3617
▁organisiert	-10.3617
liberal	-10.3624
▁Planung	-10.3624
läuft	-10.3625
▁gegenseitige	-10.3625
▁einseitig	-10.3627
verbrauch	-10.3628
▁Finanzmittel	-10.3629
führer	-10.3637
▁gewaltige	-10.364
▁Vorlage	-10.3643
▁Eigentum	-10.3644
▁getragen	-10.3646
▁Rahmenprogramm	-10.3646
▁Ministerrat	-10.3647
▁Christ	-10.3648
▁Mechanismus	-10.3652
präsent	-10.3657
▁behauptet	-10.3661
▁ausgeschlossen	-10.3663
▁Zucker	-10.3666
▁Bi	-10.3667
▁Papier	-10.3684
heil	-10.3685
stimmung	-10.3685
druck	-10.3697
▁günstig	-10.3697
berg	-10.3699
▁Auge	-10.3702
▁Finnland	-10.3702
▁appelliere	-10.3702
▁steigende	-10.3705
▁Geschäft	-10.3707
▁verweisen	-10.3708
▁Investitions	-10.3712
▁Nachteil	-10.3719
▁Sommer	-10.3729
▁gelingt	-10.3729
▁Minderheit	-10.3738
▁BSE	-10.3738
wandel	-10.3741
vorschriften	-10.3743
ressourcen	-10.3743
▁strikt	-10.3743
förder	-10.3758
fällt	-10.3759
gebieten	-10.3761
▁Sicherung	-10.3766
▁speziellen	-10.3766
▁sofern	-10.3776
uh	-10.3779
▁Beitritts	-10.378
sprachen	-10.3783
▁Kapitel	-10.3784
▁behindert	-10.3789
▁No	-10.3794
▁Kürzung	-10.3798
▁kontrollieren	-10.3798
▁Nachdruck	-10.3801
▁500	-10.3804
▁Gerade	-10.3811
▁Prozesses	-10.3813
▁Unsicherheit	-10.3823
▁stabil	-10.3825
freundlich	-10.3825
▁fair	-10.3827
▁Fach	-10.3828
▁Rußland	-10.383
schreibung	-10.3835
schlagen	-10.3836
tende	-10.3838
▁wann	-10.3839
▁1995	-10.3844
▁biologische	-10.3857
mission	-10.3858
projekte	-10.3859
▁läßt	-10.3862
▁weg	-10.3862
▁gestatten	-10.3867
▁Ausgrenzung	-10.3871
▁Donnerstag	-10.3876
▁verabschieden	-10.3876
zubringen	-10.3881
▁existieren	-10.3885
regel	-10.389
▁überlassen	-10.389
▁Su	-10.3891
▁Gründung	-10.3894
lement	-10.3898
bleiben	-10.3899
▁Beamten	-10.3907
▁jedenfalls	-10.3908
bahn	-10.3912
▁angeblich	-10.3914
▁erörtert	-10.3917
▁welches	-10.3922
▁Inkrafttreten	-10.3922
quelle	-10.3922
ied	-10.3924
▁Erfüllung	-10.3927
▁gerechtfertigt	-10.3927
▁Konvergenz	-10.3931
schl	-10.3932
steuern	-10.3933
billig	-10.3934
institut	-10.3936
▁Errichtung	-10.3938
▁griechischen	-10.3938
▁Feststellung	-10.3942
sverhandlungen	-10.3943
▁momentan	-10.3945
fordern	-10.3955
▁anti	-10.3957
▁NRO	-10.396
▁Bio	-10.3963
▁verbundenen	-10.3965
▁russische	-10.3971
▁bewußt	-10.3978
ritt	-10.3981
▁benachteiligt	-10.3982
▁Freund	-10.3987
▁verletzt	-10.3994
▁ausüben	-10.4006
▁überaus	-10.401
▁Tourismus	-10.401
▁Stunden	-10.4011
▁General	-10.402
▁0,	-10.4023
▁Drittel	-10.4026
▁Kal	-10.4027
national	-10.4028
▁Vizepräsident	-10.4033
▁Büro	-10.4034
hundert	-10.4039
▁Kein	-10.4043
▁Nutz	-10.4046
▁territoriale	-10.4048
▁vorstellen	-10.4053
▁Erreichung	-10.4057
▁Aufhebung	-10.4058
ziele	-10.4064
▁schade	-10.4067
8/	-10.4073
zahlungen	-10.408
▁vorsieht	-10.4085
▁strukturelle	-10.4091
fä	-10.4096
▁wachsende	-10.4097
▁Positionen	-10.41
▁Protest	-10.41
▁heran	-10.4103
kontroll	-10.4106
▁verdienen	-10.4109
▁Ad	-10.4109
▁Letzte	-10.4109
▁betreiben	-10.4112
konvention	-10.4113
▁Tragödie	-10.4113
▁riesige	-10.4114
▁persönliche	-10.4117
▁hergestellt	-10.4118
▁keineswegs	-10.4118
▁Augenblick	-10.4119
▁verständlich	-10.4127
▁berechtigt	-10.4134
▁verboten	-10.4135
▁Dauer	-10.4139
▁Terroristen	-10.4143
▁doppelt	-10.4147
▁beantworten	-10.4147
▁gearbeitet	-10.4149
▁Visa	-10.4153
▁Funktionieren	-10.4156
öl	-10.4162
▁Kurs	-10.4165
▁Abbau	-10.4166
▁Gipfeltreffen	-10.4167
räu	-10.4169
▁bestimmen	-10.417
▁Eltern	-10.417
▁niederländische	-10.417
▁verbreitet	-10.417
▁entscheidenden	-10.4172
▁Rezession	-10.4175
▁Flugzeug	-10.4177
▁26	-10.4179
▁Gu	-10.4181
Gipfel	-10.4191
▁28	-10.4192
amt	-10.4192
▁Vertretern	-10.4193
interesse	-10.4193
▁Gra	-10.4196
▁Großteil	-10.4199
▁unnötig	-10.4199
▁basieren	-10.4208
▁historischen	-10.4209
▁Branche	-10.4213
▁moralische	-10.4215
▁erlassen	-10.4215
▁Belgien	-10.4227
▁Statut	-10.4227
▁Rohstoff	-10.4227
istisch	-10.4229
▁Drittstaaten	-10.4232
▁anzuwenden	-10.4232
▁Jede	-10.4235
▁Verabschiedung	-10.4237
▁objektiv	-10.4237
▁verändern	-10.4237
kop	-10.4238
04	-10.424
▁Besteuerung	-10.4242
▁Osteuropa	-10.4242
▁Mitgliedsländer	-10.4247
▁Beobachter	-10.4251
▁Bundes	-10.4258
▁Zielsetzungen	-10.426
splan	-10.4261
▁angewendet	-10.4266
▁fortgesetzt	-10.4267
▁Arbeitgeber	-10.4267
finanz	-10.4268
▁Mängel	-10.428
▁Mittelmeerraum	-10.4281
spflicht	-10.4287
▁stolz	-10.4294
▁Beachtung	-10.4294
▁Schäden	-10.4294
▁besitzt	-10.4295
▁schrittweise	-10.4299
komp	-10.4313
▁Summe	-10.4314
ump	-10.4318
▁31	-10.4323
▁New	-10.4324
▁Grad	-10.4336
▁Abgeordneter	-10.4338
▁geringe	-10.4347
▁nächster	-10.4347
▁eingerichtet	-10.4347
▁fassen	-10.4348
▁21	-10.435
▁beseitigen	-10.4352
▁gebilligt	-10.4352
▁fehl	-10.4356
▁Garantien	-10.4362
▁Budget	-10.4362
▁fördert	-10.4363
▁Vorsitzenden	-10.4364
▁vereinbar	-10.4367
▁lenken	-10.4368
▁vorliegen	-10.437
int	-10.437
▁Dafür	-10.4375
▁mussten	-10.4377
▁langen	-10.4378
KOM	-10.4381
▁vertraue	-10.4381
bewegung	-10.4382
geber	-10.4384
▁moderne	-10.4385
▁Detail	-10.4391
▁Ostsee	-10.4391
▁Russlands	-10.4391
▁selten	-10.4391
▁sobald	-10.4392
gründe	-10.4397
▁Flüchtlings	-10.4405
▁Klarheit	-10.4405
▁Resolution	-10.4409
▁Journalisten	-10.4413
▁Wird	-10.4418
▁Front	-10.4421
qui	-10.4423
off	-10.4426
gebiete	-10.443
cha	-10.4432
zusehen	-10.4435
▁Test	-10.4438
▁Behinderung	-10.444
jährige	-10.444
▁Zusage	-10.4444
sbehörden	-10.4445
▁Prävention	-10.4449
▁eingeschränkt	-10.4449
▁erstens	-10.4452
ris	-10.4455
▁auswirken	-10.4458
verwaltung	-10.4464
▁wesentlicher	-10.4465
▁gewiss	-10.4466
▁Dingen	-10.4469
▁zuerst	-10.447
▁Nizza	-10.4474
▁verringert	-10.4474
▁Ki	-10.4475
▁besonderer	-10.4476
▁erfordern	-10.4478
▁Buch	-10.4478
▁Phänomen	-10.4479
▁wertvolle	-10.4484
Der	-10.4487
▁Gefangene	-10.4489
sausschuß	-10.4499
▁van	-10.45
ausschuß	-10.4502
▁2013	-10.4513
▁Legislativ	-10.4513
▁zugänglich	-10.4513
▁umfassender	-10.452
▁Hafen	-10.4521
▁Titel	-10.4523
▁Schl	-10.4524
▁armen	-10.4528
▁Amts	-10.453
▁Begründung	-10.4533
▁erteilt	-10.4534
▁Minuten	-10.4534
▁begründet	-10.4538
▁Trans	-10.4538
▁ausgewogen	-10.4541
2000	-10.4543
gebiet	-10.4543
dienstleistungen	-10.4543
vertreter	-10.4547
▁geprägt	-10.4547
▁Kann	-10.455
▁Wahrung	-10.4553
▁ungarische	-10.4554
▁Veränderung	-10.4556
▁Tages	-10.4558
▁Einkommens	-10.4562
▁Tätigkeiten	-10.4566
▁Stärke	-10.4567
ork	-10.4573
▁hierbei	-10.4574
demokratischen	-10.4577
▁Bosnien	-10.4582
▁wahren	-10.4582
▁endgültige	-10.4584
▁Dr	-10.4586
▁Binnen	-10.4593
▁Weiteren	-10.4597
prüfung	-10.46
▁bedeutsam	-10.4602
▁Mitte	-10.4602
läs	-10.4603
▁Aufsicht	-10.4604
menge	-10.4606
▁Mehrwertsteuer	-10.4613
▁effektiver	-10.4615
▁Klimawandels	-10.4621
behörde	-10.4622
tän	-10.4623
▁Betrag	-10.4624
▁auswärtige	-10.4631
effekt	-10.4632
▁Bestimmung	-10.4632
schlüsse	-10.4637
zuhalten	-10.4641
▁untersuchen	-10.4647
▁wenden	-10.4648
niveau	-10.4654
▁zugestimmt	-10.4661
▁ergibt	-10.4662
▁abgegeben	-10.4664
▁Reich	-10.4665
▁Rad	-10.4666
▁Förder	-10.4667
▁bekräftigt	-10.4671
▁Termin	-10.4671
▁Also	-10.4675
▁knapp	-10.4676
▁weist	-10.4677
▁Schicksal	-10.4681
▁schlagen	-10.4683
▁Hunger	-10.4687
schrei	-10.4687
▁freuen	-10.4688
▁demokratischer	-10.4694
geschlagen	-10.4698
schloss	-10.4701
▁nieder	-10.4704
▁ersetzen	-10.4716
▁Sach	-10.472
▁Jahrzehnten	-10.4726
▁Zahlungen	-10.4729
▁Freunde	-10.4736
▁Süden	-10.4737
▁Vielzahl	-10.4737
Schlussfolgerung	-10.474
▁verankert	-10.4741
▁200	-10.4743
▁Freihandel	-10.4743
▁weltweite	-10.4744
ession	-10.4749
wendung	-10.4749
▁erklärte	-10.4758
▁stattfindet	-10.4762
kel	-10.4766
▁Barcelona	-10.4767
▁erlauben	-10.4767
▁Versprechen	-10.4767
▁mittlere	-10.4771
▁ausgehen	-10.4781
▁Vertrages	-10.4786
del	-10.4788
Runde	-10.4788
▁durchzusetzen	-10.479
▁Einschätzung	-10.4792
▁respektieren	-10.4792
▁Offenheit	-10.4798
ivität	-10.4801
▁einführen	-10.4808
▁stattgefunden	-10.4812
Richtlinie	-10.4818
▁vertritt	-10.482
▁Regional	-10.4825
▁Regionalpolitik	-10.483
emissionen	-10.4831
▁ehemalige	-10.4832
durchschnittlich	-10.4832
sprozesses	-10.4835
▁schwedischen	-10.4836
▁Kranken	-10.4837
▁Sozialpartner	-10.485
regierung	-10.485
▁bezahlen	-10.4853
▁musste	-10.4857
▁Mark	-10.4861
▁rasche	-10.4863
▁erteilen	-10.4864
union	-10.4868
▁basiert	-10.4868
▁unabhängigen	-10.4869
▁inakzeptabel	-10.4873
▁Bauern	-10.4876
▁Behörde	-10.4878
mechanismen	-10.4883
▁welchem	-10.4884
▁belgische	-10.4888
▁Problematik	-10.4893
▁Europol	-10.4893
▁Rückgang	-10.4894
▁enormen	-10.4899
zutreten	-10.49
kapazität	-10.4909
▁Wirksamkeit	-10.4909
▁Märkten	-10.4913
▁Gewiss	-10.4914
▁Kohle	-10.4915
▁Para	-10.4915
▁1990	-10.4919
▁läuft	-10.4919
▁besitzen	-10.492
▁Wichtigkeit	-10.4921
▁dahin	-10.4923
▁Heimat	-10.4933
▁bezeichnen	-10.4935
▁Berlin	-10.4938
▁Mutter	-10.4941
▁Zwar	-10.4942
mark	-10.4945
▁Werk	-10.4946
1/	-10.4949
▁Ber	-10.4953
▁Anmerkungen	-10.4957
▁Ausbeutung	-10.496
▁Abfälle	-10.4961
▁Kampagne	-10.4965
▁Firmen	-10.4975
▁angemessenen	-10.4978
▁Streit	-10.498
rechnen	-10.4981
Politik	-10.4984
▁Partnern	-10.4987
läufig	-10.4996
▁Energiequellen	-10.4996
▁ratifiziert	-10.5001
▁Fleisch	-10.5001
▁einzig	-10.5002
fiziert	-10.5002
▁...	-10.5006
arch	-10.5007
mechanismus	-10.5011
▁bedauere	-10.5011
▁Dänemark	-10.5016
▁Investoren	-10.5016
▁bewerten	-10.5017
▁indirekt	-10.5022
einheit	-10.5022
▁fortsetzen	-10.5023
▁Niederlanden	-10.5025
▁zurückzu	-10.5029
▁internen	-10.503
▁traditionell	-10.503
▁Schwäche	-10.5053
▁Zunahme	-10.5053
▁Arbeitsgruppe	-10.5068
transatlantische	-10.5068
▁Produktivität	-10.5069
▁zugute	-10.5069
gewinn	-10.5072
export	-10.5082
▁sensible	-10.5084
▁beibehalten	-10.5084
fähr	-10.5087
▁zerstört	-10.5089
▁eingeräumt	-10.5089
▁arbeitet	-10.509
▁außen	-10.5091
▁ärmsten	-10.5099
▁Erarbeitung	-10.5099
erstattung	-10.5106
▁bloß	-10.511
▁überwachen	-10.511
trieb	-10.5111
behörden	-10.5115
schiff	-10.5115
ruhe	-10.5117
Fischereipolitik	-10.5127
▁erweisen	-10.5128
▁werte	-10.5132
▁of	-10.5136
▁Bilanz	-10.5141
▁beschließen	-10.5145
▁Betriebs	-10.5164
▁polnische	-10.5167
▁Ausführung	-10.5168
organ	-10.5176
▁Präsidium	-10.5178
▁oftmals	-10.5178
anlagen	-10.5178
▁gefasst	-10.5189
▁Amerikas	-10.5201
entwurf	-10.5204
▁nukleare	-10.5204
▁dänische	-10.5204
▁Andere	-10.5208
ielle	-10.5208
▁London	-10.5209
▁Agenturen	-10.5211
▁Erinnerung	-10.5215
▁glaubwürdig	-10.5215
▁österreichische	-10.5215
▁enge	-10.523
5/	-10.5231
▁Lager	-10.5235
▁ausgegeben	-10.5241
▁untersucht	-10.5241
ili	-10.5246
smitglieder	-10.5246
▁Verfolgung	-10.5246
▁Gestaltung	-10.5254
xi	-10.5255
ark	-10.5256
▁lieber	-10.5256
▁Weißbuch	-10.5257
▁terroristische	-10.5257
▁beendet	-10.5257
▁bezahlt	-10.5258
opfer	-10.5259
System	-10.5264
sbeziehungen	-10.5267
▁anwenden	-10.5269
▁iranische	-10.5273
sprogramme	-10.5277
2/	-10.5284
▁wirksamer	-10.5292
▁The	-10.5295
▁höchsten	-10.5305
AR	-10.5307
▁dynamisch	-10.531
▁automatisch	-10.5315
▁Impuls	-10.5321
planung	-10.5325
losigkeit	-10.5326
▁bereitet	-10.5329
▁irische	-10.5334
qualität	-10.5338
ust	-10.5339
▁Generationen	-10.5339
▁festlegen	-10.5344
▁Kohäsion	-10.5345
schutzes	-10.535
▁Steigerung	-10.5353
reif	-10.5361
-20	-10.5362
▁fürchte	-10.537
▁Energiepolitik	-10.537
▁beenden	-10.5375
lla	-10.5379
▁Jahresbericht	-10.5386
▁29	-10.5389
▁Tendenz	-10.539
▁begangen	-10.539
verständnis	-10.5393
zulegen	-10.5409
▁steigen	-10.5411
▁arabischen	-10.5411
▁Direkt	-10.5414
▁auseinander	-10.5415
ühl	-10.5417
unk	-10.5418
ütze	-10.5421
▁öffentlicher	-10.5427
▁hilfreich	-10.5428
▁gelingen	-10.5428
▁gegenseitigen	-10.5432
▁modernen	-10.5434
▁Häfen	-10.5438
▁anhaltende	-10.5441
▁bilaterale	-10.5441
▁Beratungen	-10.5454
▁regionaler	-10.5456
bilanz	-10.546
▁vorzunehmen	-10.5464
▁reduziert	-10.5465
▁unerlässlich	-10.5465
▁stabile	-10.5469
Sch	-10.5471
▁nahezu	-10.5471
▁demokratisch	-10.5472
▁bilateralen	-10.5473
▁Wechselkurs	-10.5475
kredit	-10.5487
▁Suche	-10.5491
▁mehrfach	-10.5491
▁willkommen	-10.5492
▁genauer	-10.5497
srechts	-10.5498
stuf	-10.55
▁stärksten	-10.5504
▁persönlichen	-10.5508
Bürger	-10.5508
▁Stabilisierung	-10.5509
▁genetisch	-10.5509
▁Straßenverkehr	-10.5511
▁vorgehen	-10.5512
▁ökonomisch	-10.5519
▁2012	-10.5519
zusetzen	-10.5524
tal	-10.5525
▁gemeinsamer	-10.5528
▁hingegen	-10.5528
▁Jugendlichen	-10.5529
▁Erholung	-10.553
▁qualitativ	-10.5536
ergebnis	-10.5541
▁Visum	-10.5547
▁einfacher	-10.5552
übergreifende	-10.5556
▁Beschränkungen	-10.5563
▁Entschädigung	-10.5563
▁laufenden	-10.5563
▁beobachten	-10.5568
förderung	-10.5569
▁Datenschutz	-10.5572
▁Monopol	-10.5574
▁Hamas	-10.5574
▁umso	-10.5576
▁Nachdem	-10.5576
▁ungefähr	-10.5579
▁Auseinandersetz	-10.5585
▁hoher	-10.5589
▁Rassismus	-10.559
▁Kopf	-10.5592
For	-10.5593
▁per	-10.5594
▁Fassung	-10.5596
bezogene	-10.5597
ina	-10.5602
▁neun	-10.5607
▁Morgen	-10.5607
▁Vertretung	-10.5612
▁Chi	-10.5616
▁Schutzes	-10.5618
▁Kauf	-10.5626
▁mögen	-10.5629
▁Maastricht	-10.5634
▁Medikamente	-10.5634
Ebene	-10.5642
▁12.00	-10.5644
▁zustande	-10.5655
▁Fähigkeiten	-10.5656
▁Stabilitätspakt	-10.5656
▁Verkauf	-10.5658
gipfel	-10.5662
entscheidung	-10.5664
3/	-10.5666
▁Assoziierung	-10.5667
hor	-10.5674
▁Kompromiß	-10.5678
▁gleichermaßen	-10.568
4/	-10.5682
▁Dritte	-10.5682
▁Körper	-10.5689
▁Ku	-10.5689
▁gehe	-10.5692
erfolg	-10.5693
▁kritisiert	-10.5695
▁vorhin	-10.5698
▁Per	-10.5699
▁Heimatland	-10.5708
▁schädlich	-10.5709
▁Gesichtspunkt	-10.5711
▁erörtern	-10.5711
fügt	-10.5714
▁35	-10.5715
▁Abschluß	-10.572
thema	-10.5724
schritt	-10.573
Rechtsvorschrift	-10.5733
stein	-10.5733
▁erhoben	-10.5734
besch	-10.5737
▁PSE	-10.5739
eign	-10.574
▁eintreten	-10.5741
kriterien	-10.5745
steigen	-10.5745
▁Größe	-10.575
▁Einnahmen	-10.5751
fahrzeuge	-10.5751
▁Gestatte	-10.5757
▁Schulen	-10.5758
▁Gebrauch	-10.5761
▁verpflichten	-10.5762
▁Ausbau	-10.5762
füll	-10.5765
▁Weltbank	-10.5765
▁gewonnen	-10.5767
▁Schweiz	-10.5767
gehoben	-10.5772
▁Erbe	-10.5772
▁Material	-10.5772
szusammenarbeit	-10.5778
▁erkannt	-10.5784
▁lag	-10.5791
▁islamische	-10.5795
▁Beurteilung	-10.5795
santräge	-10.5798
▁Mission	-10.5798
▁drastisch	-10.58
▁Bewältigung	-10.5806
▁vorhandenen	-10.5812
▁Herz	-10.5816
▁Konsum	-10.5823
▁Geheim	-10.5823
▁keinem	-10.5824
▁Subventionen	-10.5825
▁sogenannten	-10.5827
▁existiert	-10.5834
6/	-10.5834
▁Äußerungen	-10.5843
bri	-10.5843
▁Einwohner	-10.5845
Demokratisierung	-10.5851
▁umwelt	-10.5855
äumt	-10.5855
▁zweiter	-10.5858
▁präzise	-10.5862
▁Säule	-10.5873
▁aufzubauen	-10.5879
▁Betrieb	-10.5884
bereit	-10.5887
▁grundlegender	-10.5897
▁umgehen	-10.5898
lösen	-10.5898
▁Europarat	-10.5901
kampagne	-10.5901
▁Zentrum	-10.5901
europäischen	-10.5907
dokument	-10.5907
▁Palästina	-10.5913
▁Treibhausgas	-10.5918
▁bedauern	-10.5919
atisch	-10.5921
instrumente	-10.5922
▁Kompetenz	-10.5923
geld	-10.5929
▁respektiert	-10.593
anstalt	-10.593
▁herrschen	-10.5941
▁Voll	-10.5943
▁Libanon	-10.5947
▁gefährden	-10.5947
haushalt	-10.5947
7/	-10.5947
▁bisherigen	-10.5952
▁sub	-10.5959
▁ersetzt	-10.5959
▁erneuerbaren	-10.596
▁Glück	-10.5963
▁wählen	-10.5964
bedingungen	-10.5964
zeichnung	-10.5968
▁Automobil	-10.5969
▁Lasten	-10.597
▁aufbauen	-10.5972
seitig	-10.5973
▁traditionellen	-10.5977
▁ökologischen	-10.5978
▁unterbrochen	-10.5981
EF	-10.5988
▁Spannungen	-10.5996
▁Pflanzen	-10.5998
▁Blut	-10.5998
▁Ehe	-10.6003
▁israelischen	-10.6009
Ein	-10.601
▁industrielle	-10.6015
▁anschließend	-10.6022
▁nachdenken	-10.6026
▁fühlen	-10.6026
▁vergleichbar	-10.6026
▁teilt	-10.6028
▁Mazedonien	-10.6032
▁Truppen	-10.6032
▁leistet	-10.6032
ER	-10.6034
sgruppen	-10.6035
▁engagiert	-10.6038
▁Rom	-10.6048
▁schwieriger	-10.6055
prozess	-10.6063
▁erheblichen	-10.6063
defizit	-10.6063
Prä	-10.6071
▁schließe	-10.6088
▁Weltkrieg	-10.6089
▁wirtschafts	-10.6091
▁Sehr	-10.6094
fläche	-10.6095
▁eröffnet	-10.6095
IN	-10.6095
hei	-10.6101
▁Zulassung	-10.6101
▁verzeichnen	-10.6101
ju	-10.6103
▁Weil	-10.6104
shaushalt	-10.6107
▁behalten	-10.6109
▁Alkohol	-10.6112
▁unterscheiden	-10.6118
▁Tonnen	-10.6118
▁Randlage	-10.6121
geschlossen	-10.6123
▁Substanz	-10.6124
▁nehme	-10.6128
▁Scheitern	-10.613
▁vermitteln	-10.613
▁Human	-10.6131
9/	-10.6141
▁Studenten	-10.6141
▁soweit	-10.6143
▁Marokko	-10.6153
2002	-10.6155
▁leichter	-10.6156
▁Mexiko	-10.6159
▁vornehmen	-10.616
▁derjenigen	-10.6161
zehn	-10.6161
▁solch	-10.6162
▁abzielen	-10.6165
▁lokale	-10.6166
ualifikation	-10.6178
gestaltung	-10.6181
▁Ausnahmen	-10.6183
▁leiten	-10.6185
▁Höchst	-10.6187
▁obligatorisch	-10.6187
▁eingehend	-10.6192
Haushalt	-10.6194
ua	-10.6198
▁Kanada	-10.6199
▁dieselben	-10.6202
gefühl	-10.6205
▁endgültigen	-10.6217
wagen	-10.6218
▁Ratsvorsitzes	-10.622
Generalsekretär	-10.6222
▁Richter	-10.6222
▁ökologische	-10.6223
▁funktionierende	-10.6227
▁Mitbürger	-10.6237
▁Rettung	-10.624
▁rechtfertigen	-10.624
▁klein	-10.6241
▁Car	-10.6244
▁Schluß	-10.6247
▁Versicherungs	-10.6248
▁Schwarz	-10.6252
▁befürworte	-10.6253
▁zugelassen	-10.6256
▁beizutragen	-10.6257
reib	-10.6261
▁beantwortet	-10.6263
Euro	-10.6264
▁verantwortungs	-10.6265
kol	-10.6267
elekommunikation	-10.6277
wahr	-10.6278
▁begann	-10.6281
▁Slowakei	-10.6287
▁Unterdrückung	-10.6293
▁Unterzeichnung	-10.6295
▁Schlußfolgerung	-10.6298
▁spanische	-10.6302
▁Gewässer	-10.6306
▁bürgerliche	-10.6311
utsch	-10.6313
drückt	-10.6313
güter	-10.6316
fordert	-10.6318
▁davor	-10.632
▁brachte	-10.633
▁Ausfuhr	-10.6332
▁Pfeiler	-10.6334
▁juristische	-10.6334
rad	-10.634
▁Fragestunde	-10.634
▁außergewöhnlich	-10.634
meister	-10.634
▁überprüft	-10.6346
▁unterbreiten	-10.6351
▁drängen	-10.6356
▁Jugoslawien	-10.6357
▁Missbrauch	-10.6357
Regierung	-10.6357
▁entsteht	-10.6361
▁irakische	-10.6369
▁afrikanischen	-10.6371
gas	-10.6378
▁massive	-10.6378
▁zentralen	-10.6387
▁langem	-10.6389
▁Libyen	-10.6393
▁offenkundig	-10.6393
▁gefragt	-10.6399
▁gekennzeichnet	-10.6399
Sozialdemokraten	-10.6405
daten	-10.6409
▁Marktwirtschaft	-10.6411
▁Kohärenz	-10.6422
▁beeinflussen	-10.6422
▁gestattet	-10.6422
▁Alternativen	-10.6425
management	-10.6427
▁erstellt	-10.6428
grad	-10.6438
▁liberale	-10.6439
▁wünschenswert	-10.6442
▁Rechenschaft	-10.6446
▁gelangt	-10.6447
▁zitiere	-10.6448
kräftig	-10.6452
▁angestrebt	-10.6452
▁vorliegt	-10.6452
▁Kompromisse	-10.6454
Rat	-10.6456
gesehen	-10.646
▁abgesehen	-10.6463
▁Kompetenzen	-10.6465
▁Ungleichgewicht	-10.647
▁bürokratische	-10.647
▁Pri	-10.6474
▁Simbabwe	-10.6476
▁Verhandlung	-10.6477
▁Wünsche	-10.6494
▁Folter	-10.6494
▁untergraben	-10.65
▁Auswahl	-10.6501
▁Übernahme	-10.6502
grenze	-10.6504
▁wachsenden	-10.6506
▁Besonders	-10.6506
▁verteilt	-10.6506
▁nahm	-10.6507
EU	-10.6508
▁Rechtsrahmen	-10.651
▁Diktatur	-10.6518
▁beschleunigen	-10.6518
▁verwiesen	-10.6518
▁erarbeiten	-10.652
gewicht	-10.6521
▁Überarbeitung	-10.6524
projekt	-10.6528
▁getrennt	-10.653
▁gestaltet	-10.653
▁abzielt	-10.653
▁Werbung	-10.6536
▁italienische	-10.6537
▁Luftfahrt	-10.6537
▁Anreiz	-10.6542
▁hierfür	-10.6542
▁Mehrwert	-10.6544
▁öffnen	-10.6554
▁Drei	-10.656
▁klarer	-10.6562
▁sichtbar	-10.6568
▁Seine	-10.6577
▁mutig	-10.6577
zone	-10.658
▁abgeben	-10.6583
▁Zerstörung	-10.6584
▁Frühjahr	-10.6585
▁zählt	-10.6589
agentur	-10.6591
▁Straße	-10.6592
oli	-10.6592
▁erinnere	-10.6596
wachstum	-10.6604
kette	-10.6605
▁Verlängerung	-10.6608
▁Fed	-10.6609
▁äußerster	-10.6611
IP	-10.6618
▁schwerwiegende	-10.662
▁Fahrzeuge	-10.6624
▁unterliegen	-10.6626
▁verbindliche	-10.663
▁Haushaltsjahr	-10.6631
▁voller	-10.665
▁hochwertige	-10.6651
Gleichbehandlung	-10.6663
▁Krieges	-10.6665
▁Übertragung	-10.6675
▁gestiegen	-10.6676
zuführen	-10.6676
schul	-10.6677
▁könne	-10.6677
▁bevorstehenden	-10.6681
▁Beschäftigten	-10.6686
▁geschätzt	-10.6689
finanzierung	-10.6692
▁interne	-10.6695
▁dasselbe	-10.67
wohl	-10.6703
▁besagt	-10.6706
▁Hinter	-10.6711
▁Feind	-10.6714
▁Satz	-10.6718
▁international	-10.672
▁Behauptung	-10.6724
investition	-10.673
▁Management	-10.673
▁insofern	-10.673
▁Nuklear	-10.6736
▁Fortsetzung	-10.6744
▁aufrichtig	-10.6745
währung	-10.6746
waffen	-10.6748
▁Albanien	-10.6749
▁Beitrittsländer	-10.6749
▁betrieben	-10.6753
▁Bananen	-10.6755
Christdemokraten	-10.6761
▁vermieden	-10.6773
▁Aufenthalt	-10.6773
periode	-10.6773
▁gebe	-10.6778
schaffen	-10.6786
getrieben	-10.6791
▁Konzentration	-10.6792
▁Beratung	-10.6793
treibung	-10.6804
gibt	-10.6807
▁Stück	-10.681
▁benutzt	-10.681
▁Netzwerk	-10.6812
▁Anlagen	-10.6819
Vor	-10.6821
▁multinationale	-10.6823
▁sah	-10.6829
stück	-10.6829
AS	-10.6836
deutet	-10.6839
▁Früh	-10.6841
▁liefern	-10.6841
norm	-10.6843
▁Völkerrecht	-10.6857
▁Technik	-10.686
▁Schreiben	-10.686
▁bewirken	-10.6863
▁widmen	-10.6866
▁breiter	-10.6868
▁globaler	-10.6872
▁stützen	-10.6878
▁Kürze	-10.6878
▁Fakten	-10.6879
▁Acht	-10.6882
▁kaufen	-10.6883
▁ausgearbeitet	-10.6884
afrikanische	-10.6888
▁Arbeitslosen	-10.6893
▁Tibet	-10.6897
▁Krebs	-10.6897
▁Zwangs	-10.6902
▁Dynamik	-10.6903
▁Rindfleisch	-10.691
▁angeführt	-10.6921
Kongress	-10.6922
stabilität	-10.6926
▁Finanzminister	-10.6928
▁Legitimität	-10.6928
▁Nordkorea	-10.6928
▁glaubt	-10.6928
▁beginnt	-10.6928
▁Ausrichtung	-10.6936
▁Überleben	-10.6936
tzt	-10.694
▁Indikator	-10.6941
ässig	-10.6946
▁EVP	-10.6947
▁bewährt	-10.6947
▁Ruhe	-10.695
val	-10.6953
▁beweisen	-10.6956
▁gewisser	-10.6962
smodell	-10.6964
▁Van	-10.6965
▁beiträgt	-10.6966
ual	-10.6966
gemein	-10.6971
▁erheben	-10.6972
▁finanziell	-10.6974
▁Trend	-10.6976
umweltfreundlich	-10.6985
IC	-10.6987
▁Pakt	-10.6987
fest	-10.6988
able	-10.699
stadt	-10.6991
gewalt	-10.6994
▁Haushaltslinie	-10.6994
smitglied	-10.6996
▁Friedensprozess	-10.7
schätzt	-10.7002
▁einzubeziehen	-10.7004
dra	-10.7011
▁konstruktiv	-10.7011
▁externen	-10.7015
▁enttäuscht	-10.7016
▁Südafrika	-10.7025
▁einzugehen	-10.7026
▁Schi	-10.7028
amerikanischen	-10.7031
Prozess	-10.7039
▁strengere	-10.704
▁Grundfreiheiten	-10.7042
▁Mord	-10.7044
▁hohem	-10.7047
▁begegnen	-10.7054
▁genehmigt	-10.7054
▁Zusammenbruch	-10.7056
05	-10.7059
▁bewiesen	-10.7061
▁Schatten	-10.7062
▁einhalten	-10.7066
▁übermäßige	-10.7069
▁regeln	-10.7076
▁Bewusstsein	-10.708
▁Wiederherstell	-10.708
▁Statistiken	-10.7082
▁Beide	-10.7085
▁Seeverkehr	-10.7085
▁Präsenz	-10.7086
▁kollektiv	-10.7086
▁Umstände	-10.7088
▁Erzeugung	-10.7099
▁Profit	-10.7099
▁Wille	-10.7101
▁zielt	-10.7103
▁allmählich	-10.7105
▁gegebenenfalls	-10.7118
ifizierung	-10.7121
▁schlimmer	-10.7124
▁Erwerb	-10.7125
senkung	-10.7125
▁Litauen	-10.713
▁Amtszeit	-10.7133
EA	-10.7134
▁Ausgang	-10.7139
▁schlage	-10.7147
▁Befürchtung	-10.7156
buch	-10.7157
vertrag	-10.7162
▁Geburt	-10.7162
▁übrig	-10.7163
▁schlechter	-10.7164
▁ohnehin	-10.7169
▁verschiedener	-10.7174
▁erhielt	-10.7175
sregeln	-10.7189
▁Kat	-10.719
▁bewahren	-10.7201
▁Vorbehalte	-10.7201
▁Internationale	-10.7204
▁grüne	-10.7204
▁verhandeln	-10.7208
▁Anwesenheit	-10.7214
▁rufen	-10.7217
▁Sind	-10.7217
▁akzeptabel	-10.722
▁verschärft	-10.722
▁Gegner	-10.722
Naturkatastrophe	-10.7225
▁Inneres	-10.7227
gut	-10.7232
geschäft	-10.7233
erzeugung	-10.7246
▁Liefer	-10.7246
▁Beihilfe	-10.7251
▁erläutern	-10.7252
europäisch	-10.7262
bewertung	-10.7266
▁Aktien	-10.7268
▁August	-10.7272
Emissionen	-10.7272
▁erachte	-10.7276
ble	-10.7288
▁Erfordernisse	-10.729
sniveau	-10.7297
fremd	-10.7297
▁Lernen	-10.7305
▁Za	-10.7305
▁Ermittlung	-10.7311
▁Zinssätze	-10.7312
▁Ernennung	-10.7317
▁jeweils	-10.7317
▁1994	-10.7324
schläge	-10.7327
plo	-10.7329
▁negativ	-10.7334
▁Aktionsprogramm	-10.7339
▁übermitteln	-10.7339
▁Kreis	-10.7351
zweifel	-10.7361
▁europaweit	-10.7376
▁Fußball	-10.7382
▁beschrieben	-10.7389
EWG	-10.7396
erstattern	-10.7397
▁investiert	-10.7402
▁Kind	-10.7407
aß	-10.7414
▁Tschetschenien	-10.7422
▁hielt	-10.7422
▁Flughäfen	-10.7429
▁ignoriert	-10.7435
▁Operation	-10.7435
arischen	-10.7435
▁vorsichtig	-10.7436
▁Ursache	-10.7441
schätzung	-10.7446
▁Kluft	-10.7448
▁gehandelt	-10.7448
konsum	-10.7449
▁relevant	-10.7455
▁verursachen	-10.7455
subvention	-10.7455
▁Nation	-10.746
▁verheerend	-10.7461
▁oberste	-10.7463
Besitzstand	-10.7466
▁überrascht	-10.7468
bsp	-10.747
▁Vorwand	-10.7471
▁plötzlich	-10.7474
brach	-10.7479
▁vierte	-10.7486
▁angeboten	-10.7489
▁logisch	-10.7493
▁zurzeit	-10.7498
Ausnahmeregelung	-10.7499
▁Wachstumspakt	-10.7501
▁Investition	-10.7518
▁Demonstration	-10.7521
▁saubere	-10.7521
fluss	-10.7521
aufgabe	-10.7525
▁Geber	-10.7528
▁Menschheit	-10.7531
angehörige	-10.7544
▁angehören	-10.755
risiko	-10.7554
▁Motor	-10.7554
▁folglich	-10.7561
▁makroökonomisch	-10.7561
▁sterben	-10.7561
▁Standort	-10.7562
wort	-10.7563
▁vorgebracht	-10.7565
▁richtet	-10.7568
▁Unfälle	-10.7571
ept	-10.7574
▁transeuropäisch	-10.7581
gemäß	-10.7587
▁digitale	-10.7587
▁droht	-10.7594
▁zeitlich	-10.7595
kreis	-10.7596
▁Darin	-10.7601
▁Logik	-10.7607
▁strafrechtlich	-10.7614
▁japanische	-10.7614
▁Nichtregierungs	-10.7617
▁Verstöße	-10.7621
▁Aufforderung	-10.7624
▁Har	-10.7626
▁illegal	-10.7627
▁genießen	-10.7641
▁türkische	-10.7643
▁Forum	-10.7648
▁Luftverkehrs	-10.7649
.000	-10.7649
▁Kernenergie	-10.7649
sieht	-10.7654
▁Gaza	-10.7655
▁Rechtsstaat	-10.7655
zeichen	-10.7657
▁Somit	-10.7659
räume	-10.7659
missbrauch	-10.7661
aufrechterhalten	-10.7661
▁Parlamentarier	-10.7661
▁verschaffen	-10.7665
▁Nähe	-10.7668
▁heißen	-10.767
▁kümmern	-10.7674
▁zutiefst	-10.7674
Zone	-10.7676
▁Beste	-10.7679
▁stammen	-10.7681
▁Flotte	-10.7682
▁Tunesien	-10.7688
bevölkerung	-10.7694
▁freut	-10.7695
itär	-10.77
▁administrative	-10.7708
▁Lücke	-10.7708
ologie	-10.7709
▁Industrieländer	-10.7712
▁Erkenntnisse	-10.7715
▁Angehörige	-10.7722
▁Gespräch	-10.7726
▁vereinfacht	-10.7729
▁Vermögen	-10.7735
faktor	-10.7736
▁dieselbe	-10.7742
▁bedenken	-10.7744
▁eigen	-10.775
▁gehabt	-10.7756
▁Auslegung	-10.7757
▁ausgelöst	-10.7762
▁hierzu	-10.7775
▁informelle	-10.7779
▁außenpolitische	-10.7787
kämpft	-10.7788
▁steigern	-10.779
sammenzuarbeiten	-10.779
bestand	-10.7795
▁Ausübung	-10.7803
durch	-10.7809
debatte	-10.7817
▁retten	-10.7817
▁Allgemein	-10.7826
▁einzuhalten	-10.7829
▁Merkmal	-10.7831
▁Elektro	-10.7837
▁Zusammensetzung	-10.784
▁definieren	-10.7851
▁Anhang	-10.7851
▁problematisch	-10.7851
▁Bevor	-10.7857
▁vorschlägt	-10.7858
▁Doha	-10.7862
▁prä	-10.7864
▁brutal	-10.7865
PA	-10.7869
▁Zahlung	-10.7869
wieweit	-10.7869
▁beitreten	-10.7881
▁klären	-10.7886
prüf	-10.7903
▁Appell	-10.7906
▁Liebe	-10.7908
▁inhaltlich	-10.7916
▁erleichtert	-10.792
▁ungeachtet	-10.792
▁Gib	-10.7925
▁Niemand	-10.7927
▁Soldaten	-10.7934
▁zügig	-10.7941
wind	-10.7944
5-00	-10.7945
▁lokaler	-10.7947
▁Sozialpolitik	-10.7947
▁hinein	-10.795
prinzip	-10.7951
▁Lobby	-10.7955
▁zuverlässig	-10.7955
▁Redezeit	-10.7959
▁Einwände	-10.7961
▁Jedoch	-10.7961
wärts	-10.7962
▁ausgeführt	-10.7968
▁harmonisiert	-10.7975
▁chemische	-10.7975
▁schlicht	-10.7976
▁erzeugt	-10.7983
▁Dafürhalten	-10.7985
▁Zentral	-10.7996
▁maßgeblich	-10.7996
▁zulässig	-10.7996
breite	-10.8005
▁Steuerung	-10.8007
sphase	-10.8015
nutzung	-10.8019
▁bekräftigen	-10.8024
ED	-10.8024
▁beurteilen	-10.8031
▁bemerkenswert	-10.8032
▁ausgehend	-10.8034
▁auszuüben	-10.8045
▁gesichert	-10.8046
▁Bla	-10.8048
▁300	-10.8053
Artikel	-10.8064
Veröffentlichung	-10.8066
▁kontinuierlich	-10.8066
07	-10.8068
▁sonstige	-10.8069
▁beträgt	-10.8073
▁gescheitert	-10.8073
▁Schiene	-10.8076
methoden	-10.8076
▁beglückwünsche	-10.8082
▁Teilnehmer	-10.8086
truppe	-10.8087
▁dauerhaft	-10.809
zieren	-10.8092
beihilfen	-10.8101
▁herzustellen	-10.8104
▁Rechtsetzung	-10.8105
▁beantragt	-10.8115
▁breit	-10.8118
▁Wahrscheinlich	-10.8129
▁Rahmenbedingung	-10.8129
rain	-10.8139
▁Abänderung	-10.8143
rührt	-10.8143
▁Hauptziel	-10.8144
schreibt	-10.8145
▁Saddam	-10.815
▁Anders	-10.8151
aut	-10.8151
siehe	-10.8152
▁schwedische	-10.8153
▁Atomwaffen	-10.8158
▁Super	-10.8159
▁tot	-10.8167
▁durchsetzen	-10.8169
▁Eigenschaft	-10.8177
▁GVO	-10.8179
▁Vordergrund	-10.8179
weitaus	-10.8179
zuziehen	-10.8185
▁Millennium	-10.8186
▁Konkurrenz	-10.8186
sitzung	-10.8188
▁rechtlich	-10.819
▁Kraftstoff	-10.8193
SA	-10.8197
aufsicht	-10.8203
▁Mitwirkung	-10.8214
▁Bürgerrechte	-10.8216
▁angewiesen	-10.8217
▁angelegt	-10.8217
▁heikle	-10.8221
▁Hel	-10.8226
▁Differenz	-10.8228
▁Symbol	-10.8228
▁optimal	-10.8228
▁griechische	-10.8232
▁ausgestattet	-10.8236
▁besetzt	-10.8241
▁Ergänzung	-10.8243
▁nachhaltig	-10.8246
▁gäbe	-10.825
messe	-10.8251
▁enorm	-10.8252
▁vorherige	-10.8254
▁wiederhole	-10.8258
infrastruktur	-10.8264
▁Immunität	-10.8264
▁blieb	-10.8267
▁Tschechische	-10.8271
▁Politikbereiche	-10.8275
▁produzieren	-10.8278
▁verwirklichen	-10.8278
▁Film	-10.8279
▁Euroraum	-10.8279
strecke	-10.8283
▁umfassen	-10.8285
▁Einzelheiten	-10.8286
▁übermittelt	-10.8288
▁individuelle	-10.8289
▁Löhne	-10.8293
▁anzupassen	-10.8293
▁zwangsläufig	-10.8307
▁finnische	-10.8307
▁Schwellenländer	-10.8307
▁sorgt	-10.8307
▁hilft	-10.8314
▁geteilt	-10.8316
▁müsse	-10.8319
▁Finanzrahmen	-10.832
▁Verhältnisse	-10.8325
Gesundheitswesen	-10.8329
FI	-10.8331
▁gleichberechtig	-10.8333
vereinbarung	-10.8334
▁Gleiche	-10.8335
▁anstreben	-10.8337
technische	-10.8343
hrung	-10.8347
▁Zi	-10.8347
▁grundlegend	-10.835
▁Vorfeld	-10.8372
▁Fern	-10.8376
▁Gott	-10.8377
ländisch	-10.8381
▁Paris	-10.8382
bürger	-10.8387
▁durchgesetzt	-10.8391
▁sofortige	-10.8392
▁Verstärkung	-10.8394
▁geblieben	-10.8394
▁Stunde	-10.84
ial	-10.84
komm	-10.84
EC	-10.8405
▁Saal	-10.8406
▁Außengrenzen	-10.841
▁Malta	-10.8414
▁schenken	-10.8416
hängt	-10.8419
▁Effekt	-10.8422
▁Schwer	-10.8422
▁Wor	-10.8425
▁Annäherung	-10.843
▁Evaluierung	-10.843
▁Privatisierung	-10.8432
▁unverzichtbar	-10.8437
ierbar	-10.8439
▁Deutsch	-10.8444
▁massiv	-10.8448
▁Folglich	-10.8452
ordnete	-10.8453
gerecht	-10.8456
▁vorbereiten	-10.8461
▁verstoßen	-10.8467
za	-10.847
▁Demokratische	-10.8474
▁vorübergehend	-10.8474
schluß	-10.8474
▁Werden	-10.848
west	-10.8489
▁absurd	-10.8503
▁Schlacht	-10.8505
▁Hochschul	-10.8514
uropäische	-10.8514
▁Orientierung	-10.8517
▁israelische	-10.8518
▁steuerliche	-10.8518
▁geklärt	-10.8532
▁intelligente	-10.8532
▁Fläche	-10.8532
anforderungen	-10.8532
skandidaten	-10.8534
▁Unfall	-10.8543
▁vorangegangenen	-10.8547
1999	-10.8551
schaffung	-10.8551
▁Doppel	-10.8554
▁vermutlich	-10.8561
▁Laut	-10.8566
▁beinhalten	-10.8571
verschmutzung	-10.8571
▁sitzen	-10.8576
▁Standard	-10.8577
▁Wahlkreis	-10.8578
▁großzügig	-10.8584
▁Million	-10.8594
▁detaillierte	-10.8609
▁gegenseitig	-10.8611
▁zwölf	-10.8613
konomie	-10.8613
▁berichtet	-10.8614
▁Gleichheit	-10.8615
▁Spielraum	-10.8617
ging	-10.8619
▁Migranten	-10.8621
2006	-10.8623
Meinungsäußerung	-10.8628
▁organisieren	-10.8628
▁beinahe	-10.8628
disziplin	-10.8635
▁Computer	-10.8635
▁namentlich	-10.8635
▁Solche	-10.8635
▁Wälder	-10.8643
▁hinzuweisen	-10.8644
▁ignorieren	-10.865
▁einzurichten	-10.865
▁Einzelnen	-10.8656
▁ausgeübt	-10.8658
▁anbieten	-10.8665
▁Birma	-10.8665
▁Dort	-10.8674
▁Eis	-10.8679
ET	-10.8683
▁verbieten	-10.8687
▁Jugendliche	-10.8693
▁ehrgeizig	-10.8694
kommission	-10.8695
▁traurig	-10.8695
bringung	-10.8702
▁abend	-10.8703
▁Kunden	-10.8704
▁Cha	-10.8705
part	-10.8708
▁Zuwanderung	-10.8712
▁75	-10.8718
▁ändert	-10.8718
▁Brief	-10.8725
▁bewertet	-10.8725
CS	-10.8725
konflikt	-10.8732
▁Verurteilung	-10.874
lenk	-10.874
wettbewerb	-10.8751
▁Territorium	-10.8755
▁wofür	-10.8755
▁lebt	-10.876
▁keinesfalls	-10.8762
▁berichten	-10.8768
▁Erdöl	-10.877
▁gratuliere	-10.8788
▁Zugleich	-10.8799
Strafgerichtshof	-10.88
▁vereinfachen	-10.88
▁Sowjetunion	-10.88
kunde	-10.8802
▁weitergehen	-10.8803
anteil	-10.8804
▁Vertrieb	-10.8807
▁unabdingbar	-10.8807
fuhr	-10.8811
▁Einfluß	-10.8815
aktivität	-10.882
▁koordinieren	-10.8822
▁tschechische	-10.8822
schwäche	-10.8828
▁gesundheitliche	-10.8831
▁Bewerber	-10.8838
▁großartige	-10.8839
▁Können	-10.8853
▁Haushaltsmittel	-10.8853
▁Koordination	-10.886
lagerung	-10.8866
▁vorzuschlagen	-10.8868
▁schlimm	-10.8872
schiebe	-10.8873
▁versprochen	-10.8883
▁Minute	-10.8888
▁mittlerweile	-10.8891
▁Stufe	-10.8892
vorsitzende	-10.8897
▁Sitzungsperiode	-10.8898
räte	-10.8899
▁vergangen	-10.8907
II	-10.8913
LT	-10.8913
▁verkauft	-10.8914
▁Aufrechterhalt	-10.8921
▁Arbeitsweise	-10.8922
▁hervorragend	-10.8928
▁wozu	-10.8929
▁zwanzig	-10.8929
▁erweitern	-10.8929
▁stattdessen	-10.8936
▁kohärente	-10.8947
▁ersuchen	-10.8952
▁Sozialisten	-10.8953
▁Besitz	-10.8955
▁energisch	-10.8967
▁anderswo	-10.8968
antwortungsvolle	-10.8973
qua	-10.8977
bro	-10.898
büro	-10.8982
▁Darlehen	-10.8998
Abstimmung	-10.9001
▁Folgendes	-10.9004
▁Mädchen	-10.9013
sprobleme	-10.9023
gefaßt	-10.9029
▁überwacht	-10.9029
▁Effektivität	-10.9029
▁formal	-10.9031
▁Errungenschaft	-10.9036
heiß	-10.9039
smethode	-10.9042
▁Taiwan	-10.9044
▁verhandelt	-10.9045
sbestimmungen	-10.905
▁dahingehend	-10.9052
szeitraum	-10.9055
verlust	-10.9061
band	-10.9066
verordnung	-10.9071
▁Ausgangspunkt	-10.9075
Aussprache	-10.9079
cu	-10.908
▁womit	-10.9082
▁bekämpft	-10.9085
▁herum	-10.9089
versammlung	-10.9089
▁multi	-10.909
▁Allein	-10.9096
sieg	-10.9097
▁beträchtlich	-10.9104
▁klug	-10.9106
▁Futtermittel	-10.9114
▁Nachmittag	-10.9114
studie	-10.9114
▁Fahrzeug	-10.9119
pack	-10.9122
ica	-10.9126
▁Gemäß	-10.9126
▁klarstellen	-10.9133
versicherung	-10.9134
▁bemerkt	-10.9137
▁Montag	-10.914
▁Wald	-10.9144
▁Rubrik	-10.9153
▁aufgebaut	-10.9153
ira	-10.9158
▁Bewirtschaftung	-10.9161
rechnung	-10.9162
▁einzuleiten	-10.9162
▁Lärm	-10.9169
▁Aufklärung	-10.9176
information	-10.9177
▁eröffnen	-10.9184
▁1992	-10.9184
▁Haft	-10.9186
▁Dossier	-10.9192
▁Tempo	-10.92
▁Wesen	-10.9205
▁Stattdessen	-10.9208
▁verzichten	-10.9208
▁nachzudenken	-10.9208
▁externe	-10.921
▁Besonderheit	-10.9215
▁GUE	-10.9223
AIDS	-10.9223
▁katastrophal	-10.9223
▁Dienststellen	-10.9236
lässlich	-10.9241
▁vereint	-10.9252
▁Beförderung	-10.9255
▁Washington	-10.9255
▁Oder	-10.9261
institutionen	-10.9263
▁Patten	-10.9263
käufe	-10.9264
▁Instabilität	-10.9269
▁Lebensqualität	-10.9272
ati	-10.9278
▁Offen	-10.9285
▁begreifen	-10.9302
▁Nigeria	-10.9302
▁beeinträchtigt	-10.9302
händler	-10.931
▁Leitung	-10.9311
▁Niederlande	-10.9313
▁abgeschafft	-10.9318
▁Wind	-10.9319
▁formell	-10.9321
▁dauern	-10.9323
▁gebraucht	-10.9326
▁besucht	-10.9327
EM	-10.9329
▁Gleichwohl	-10.9342
▁ausgedrückt	-10.9343
▁verbindlich	-10.9346
▁wünscht	-10.935
▁bewegt	-10.935
▁Ganzes	-10.9352
lamm	-10.9354
▁gedacht	-10.9358
▁dargestellt	-10.9363
▁äußert	-10.9366
▁Schließung	-10.9366
▁Gold	-10.9366
HU	-10.9372
▁Indonesien	-10.9374
▁statistische	-10.9374
▁auferlegt	-10.9375
▁bereitzustellen	-10.938
▁erläutert	-10.9382
▁getötet	-10.9382
▁derselben	-10.9382
▁Übersetzung	-10.9383
▁Luftraum	-10.9384
▁verkaufen	-10.939
spezifische	-10.9393
▁Anlage	-10.9398
▁Anzeichen	-10.9403
▁Mittwoch	-10.9406
NGL	-10.9406
▁Blair	-10.9416
▁verhängt	-10.9425
▁jemals	-10.943
ALE	-10.9431
▁beachten	-10.9439
ffentlich	-10.9444
Norm	-10.9444
▁unterstrichen	-10.9446
▁Hongkong	-10.9454
konzept	-10.9454
▁Obergrenze	-10.9454
▁Ersatz	-10.946
kürzung	-10.9462
▁produziert	-10.9462
helfen	-10.9464
abschätzung	-10.9466
▁Kindes	-10.9467
▁Geldpolitik	-10.9467
▁Gemein	-10.9468
▁Dublin	-10.947
▁technisch	-10.947
Rechtssicherheit	-10.9474
▁Fischereisektor	-10.948
▁Sowohl	-10.9482
▁getreten	-10.9483
▁passieren	-10.9486
▁sozusagen	-10.9502
▁Kirche	-10.9503
▁glücklich	-10.951
▁Herbst	-10.9511
▁Gewährung	-10.9511
▁Zielsetzung	-10.9523
aspekt	-10.9527
▁fundamental	-10.9527
▁45	-10.953
▁beschleunigt	-10.9535
▁meist	-10.9547
üchtig	-10.955
▁Jahrestag	-10.9555
▁Sha	-10.9574
▁Einstimmigkeit	-10.9575
▁Insofern	-10.9575
▁Kraftfahrzeug	-10.9583
▁empfohlen	-10.9584
▁maximal	-10.9584
▁bedaure	-10.96
▁sinken	-10.96
diskriminierung	-10.9608
▁überwiegend	-10.9608
▁Nachbarländer	-10.9608
▁Anleihe	-10.9608
▁Besatzung	-10.9608
zentren	-10.9615
▁OLAF	-10.9616
▁bescheiden	-10.9616
▁geschafft	-10.9616
▁Anschluss	-10.9619
▁Energieversorg	-10.9622
▁Fundament	-10.9625
betrug	-10.9633
geschickt	-10.9635
▁versteht	-10.9636
schneiden	-10.9641
▁normalerweise	-10.9644
▁Arbeitsprogramm	-10.9649
status	-10.9651
▁ordentlich	-10.9657
▁Gesetzgeber	-10.9658
▁Pilot	-10.9666
▁umgehend	-10.9666
▁Resultat	-10.9674
reserve	-10.9674
▁Stahl	-10.9676
▁erwarte	-10.9679
▁Koalition	-10.9682
▁attraktiv	-10.9682
▁Schlag	-10.9684
▁Nordirland	-10.969
▁voranzutreiben	-10.969
▁fünfzehn	-10.9692
▁abzulehnen	-10.9698
▁fortzusetzen	-10.97
wache	-10.9704
▁Ruf	-10.9713
▁HIV	-10.9715
▁christlich	-10.9715
▁Tierschutz	-10.9717
▁bekanntlich	-10.972
▁Freitag	-10.9726
▁festhalten	-10.9728
▁Aufstockung	-10.9731
▁37	-10.9734
▁beseitigt	-10.974
▁Sprach	-10.9741
▁ergänzt	-10.9748
▁irgendwelche	-10.9748
▁Konsolidierung	-10.9756
▁denselben	-10.9756
▁Nahrung	-10.9757
▁Klasse	-10.9757
▁Sei	-10.9762
▁beunruhigt	-10.9765
lässt	-10.9767
▁rechtmäßig	-10.977
bewusst	-10.977
▁ALDE	-10.9781
▁mittelfristig	-10.9781
verhältnismäßig	-10.9788
▁Streitkräfte	-10.979
Recht	-10.9793
▁Weiterbildung	-10.98
mütig	-10.9801
aktiv	-10.9802
chef	-10.9803
▁unterstreicht	-10.9806
▁Feld	-10.981
▁Viertens	-10.9815
▁Null	-10.9817
körper	-10.9829
leitung	-10.983
▁anzuerkennen	-10.9831
▁unannehmbar	-10.9831
▁Unionsbürger	-10.9832
▁sogenannte	-10.9833
zykl	-10.984
▁Moldau	-10.9848
▁Schon	-10.985
▁Elite	-10.9856
▁überzeugend	-10.9857
stünde	-10.986
▁Bisher	-10.986
▁Vorbild	-10.987
erwerb	-10.9871
▁Ansätze	-10.988
▁Korrektur	-10.9882
▁Autorität	-10.9882
▁ehe	-10.9887
Mittelmeer	-10.9889
▁unsicher	-10.9896
▁Verhinderung	-10.9898
▁Übereinkunft	-10.9907
▁Erstellung	-10.9912
▁Beamte	-10.9921
▁geeinigt	-10.9924
▁Darauf	-10.9924
▁Kohäsionsfonds	-10.9924
auto	-10.9931
▁Kommentar	-10.9932
▁verteidigt	-10.9932
▁schlimmsten	-10.9944
▁Behinderte	-10.9949
▁Berechnung	-10.9955
srunde	-10.9956
▁Erleichterung	-10.9966
Industriepolitik	-10.9974
▁Solange	-10.9975
Haushaltsdefizit	-10.9979
▁Mauer	-10.9981
▁beunruhigend	-10.9983
Medi	-10.9983
▁spiegelt	-10.9984
▁errichten	-10.9985
Ja	-10.9987
▁Verheugen	-10.9991
abgeordnete	-10.9993
Übereinkommen	-11
▁längst	-11
▁zurückkehren	-11
▁angepasst	-11.0008
versuch	-11.0016
▁Bezeichnung	-11.0016
▁beeinträchtigen	-11.0017
▁OSZE	-11.0025
▁Vermeidung	-11.0034
▁einschlägige	-11.0034
▁hinnehmbar	-11.0034
Dollar	-11.0035
▁Bestände	-11.0037
▁Autonomie	-11.0038
▁lebenslange	-11.0042
▁dringlich	-11.0043
▁Zivilisation	-11.0051
tausch	-11.0051
lied	-11.0056
▁umstritten	-11.006
▁Slowenien	-11.0077
▁endgültig	-11.009
▁Stil	-11.0094
▁Sudan	-11.0094
▁Normal	-11.0099
▁zukünftig	-11.0102
▁Verschmutzung	-11.0102
▁fiel	-11.0103
▁Beträge	-11.0104
Krise	-11.0104
▁ausgeglichen	-11.0111
▁gedenkt	-11.0111
ix	-11.0121
06	-11.0125
▁überarbeitet	-11.0129
sorgniserregend	-11.0137
▁Bemühen	-11.0137
▁zurückkommen	-11.0141
▁bestraft	-11.0145
▁wahrnehmen	-11.0148
karte	-11.0149
▁Kongo	-11.015
befugnisse	-11.0154
▁Begrenzung	-11.0154
gebrochen	-11.0154
schränkung	-11.0156
▁verbinden	-11.0163
▁Eröffnung	-11.0171
▁reibungslos	-11.0171
▁gravierende	-11.0173
▁Sozialmodell	-11.019
▁Persönlichkeit	-11.0198
▁Reichtum	-11.0198
snormen	-11.0202
▁nord	-11.0206
▁Integrität	-11.0206
▁Vereinigung	-11.0206
▁Protektionismus	-11.0215
▁Urheber	-11.0223
▁Fischler	-11.0227
assi	-11.0235
▁Rentner	-11.0241
▁Wortlaut	-11.0241
Protokoll	-11.0244
▁Verhaltenskodex	-11.0249
▁Erdbeben	-11.0249
▁abhängen	-11.0249
▁Solana	-11.0249
rechtzuerhalten	-11.0258
▁geholfen	-11.0258
▁Beibehaltung	-11.0258
berichterstatter	-11.0266
▁Kriterium	-11.0267
▁kritisieren	-11.0267
▁Ashton	-11.0276
▁entlassen	-11.0278
▁abgehalten	-11.0285
regulierung	-11.0292
material	-11.0293
▁egal	-11.0293
lehr	-11.0297
forderung	-11.0299
▁Finanzsystem	-11.0299
▁behindern	-11.0302
▁2015	-11.0302
▁erstmals	-11.0302
▁Spekulation	-11.0311
▁restriktiv	-11.0311
▁Verts	-11.0312
beauftragte	-11.0316
▁Immobilien	-11.0319
▁schließt	-11.0319
▁Vielmehr	-11.0328
▁gelernt	-11.0328
sgrundlage	-11.0331
▁verwirklicht	-11.0337
branche	-11.0337
Pro	-11.0338
▁Vergabe	-11.0342
▁indische	-11.0346
stürzt	-11.0355
Mitgliedsstaaten	-11.0359
▁Schattenbericht	-11.0361
▁Algerien	-11.0363
▁Bestrebungen	-11.0363
friedenstellend	-11.0368
▁Inanspruchnahme	-11.0372
ströme	-11.0381
▁benutzen	-11.0381
▁Direktor	-11.0388
regelmäßigkeiten	-11.039
▁größtmögliche	-11.039
▁Hunderte	-11.039
▁vertraut	-11.039
▁Anbau	-11.0394
▁Schriftliche	-11.0399
▁zwingend	-11.0407
▁Vorsicht	-11.0407
bedingte	-11.0408
geräte	-11.0414
platz	-11.0416
ood	-11.0421
▁Bedingung	-11.0425
▁Freilassung	-11.0425
▁Gleich	-11.0431
▁drohen	-11.0434
▁Überschwemmung	-11.0434
▁Umstellung	-11.0435
▁ersucht	-11.0435
Projekt	-11.044
bringt	-11.0443
▁Hindernis	-11.0447
▁teuer	-11.0452
▁agieren	-11.0452
neutral	-11.0456
▁Haftung	-11.0473
▁Karte	-11.0478
▁Gegenwärtig	-11.0479
▁Geltungsbereich	-11.0479
▁vermittelt	-11.0479
▁schien	-11.0485
▁Betreiber	-11.0488
▁Sachverständige	-11.0488
gebühren	-11.049
▁Staatsangehörig	-11.0492
▁Pension	-11.0496
▁anmerken	-11.0497
▁Enttäuschung	-11.0505
▁Produzenten	-11.0505
▁Schottland	-11.0505
▁Ärzte	-11.0505
▁hinnehmen	-11.0507
▁heutzutage	-11.0514
▁geachtet	-11.0514
technik	-11.0515
0.000	-11.0519
▁Stellenwert	-11.0527
sozial	-11.0532
streich	-11.0533
afrika	-11.0539
▁verschärfen	-11.0541
▁teilgenommen	-11.0541
▁gestrichen	-11.0541
▁Multi	-11.055
▁größtenteils	-11.055
▁gewidmet	-11.0559
▁verliehen	-11.0559
▁Viertel	-11.0559
▁Anregung	-11.0559
▁Überwindung	-11.0568
▁Erdgas	-11.0568
▁übertrieben	-11.0569
▁angehört	-11.0571
▁Währungsfonds	-11.0572
▁Mess	-11.0576
▁bauen	-11.0585
verbände	-11.0586
onne	-11.0587
▁Abschnitt	-11.059
bedürftig	-11.0595
▁gewahrt	-11.0595
tümer	-11.0596
▁Ideal	-11.0597
▁OECD	-11.0604
▁begleitet	-11.0604
▁einbeziehen	-11.0604
Ü	-11.061
▁Getreide	-11.0613
▁Einmischung	-11.0613
häuser	-11.0613
▁Wohlergehen	-11.0613
▁Bedauern	-11.0613
Generaldirektion	-11.0622
gesetzgebung	-11.0622
▁Könnte	-11.0622
▁Toleranz	-11.0622
▁teilzunehmen	-11.0622
▁steigt	-11.0623
▁Schwelle	-11.0623
▁Geschwindigkeit	-11.0631
▁Lebensstandard	-11.064
▁selber	-11.064
▁hinausgehen	-11.0641
▁Ratspräsidentin	-11.0643
▁souverän	-11.0659
wichtig	-11.0661
▁schweigen	-11.0668
▁Estland	-11.0668
▁Mühe	-11.0671
▁umgekehrt	-11.0677
▁Mikro	-11.0677
▁Hussein	-11.0686
▁Kunst	-11.0686
▁Betreuung	-11.0695
▁Haftbefehl	-11.0695
▁Wiederaufnahme	-11.0695
▁Golf	-11.0695
▁weitreichende	-11.0695
▁integrieren	-11.0704
▁pragmatisch	-11.0704
▁Befreiung	-11.0704
▁Team	-11.0704
abstimmung	-11.0707
vermögen	-11.0713
▁1993	-11.0713
▁Akteur	-11.0718
treibt	-11.0722
erhöhung	-11.0723
▁parallel	-11.0731
▁Drittländer	-11.0737
▁Schaf	-11.0737
▁Weiterhin	-11.0745
▁Erreichen	-11.075
▁verknüpft	-11.075
steigerung	-11.075
▁Skandal	-11.0759
▁aufgezeigt	-11.0768
▁heftig	-11.0768
▁Gemeinsam	-11.0769
▁Viel	-11.0773
▁bezogen	-11.0776
/2003	-11.0778
▁Selbstverständ	-11.0782
▁Verstoß	-11.0785
bilität	-11.0786
▁gültig	-11.0786
▁einhergehen	-11.0787
▁Billig	-11.0788
▁voranzubringen	-11.0789
▁Flughafen	-11.0796
▁Kombination	-11.0796
▁Peking	-11.0805
▁zerstören	-11.0805
deckung	-11.0806
angebot	-11.0812
▁festgehalten	-11.0814
▁radikale	-11.082
▁geographisch	-11.0822
▁Auswärtige	-11.0823
▁gegründet	-11.0824
▁Gremien	-11.0833
▁willkürlich	-11.0833
▁Anhänger	-11.0842
widrig	-11.0842
▁abzuschließen	-11.0845
▁Befürworter	-11.0851
▁Forscher	-11.0851
Kandidatenländer	-11.0852
burg	-11.0856
▁Gemeinden	-11.086
▁Ideologie	-11.086
▁bereitstellen	-11.0866
potenzial	-11.087
▁teure	-11.0871
schließung	-11.0878
▁spürbar	-11.0879
▁Finanzhilfe	-11.0882
demokratische	-11.0884
▁Wahlkampf	-11.0884
▁abzugeben	-11.0889
▁Lettland	-11.0897
▁befaßt	-11.0897
▁Saudi	-11.0898
▁Augenmerk	-11.0907
▁Holz	-11.0907
▁Kandidat	-11.0915
▁sozioökonomisch	-11.0916
▁stützt	-11.0916
▁errichtet	-11.0916
▁haushalts	-11.0921
▁Trennung	-11.0925
▁Hinzu	-11.0926
schnellstmöglich	-11.0926
▁korrigieren	-11.0935
▁typisch	-11.0936
▁Netto	-11.0944
▁billigen	-11.0949
völker	-11.0952
▁gekürzt	-11.0953
kämpfe	-11.096
▁künstlich	-11.0963
besser	-11.0966
▁Brok	-11.0966
▁ungerecht	-11.0968
beschäftigung	-11.097
▁Empfänger	-11.0972
▁Stockholm	-11.0972
▁damalige	-11.0973
wässer	-11.098
▁Ablauf	-11.0986
▁berühmt	-11.0991
▁Privatsphäre	-11.0991
▁Stich	-11.0991
▁gesorgt	-11.1
▁Rechtsprechung	-11.1
▁bedingt	-11.1001
▁Forst	-11.1005
▁Transit	-11.1005
▁Einleitung	-11.1007
▁Erneuerung	-11.101
▁herbeizuführen	-11.101
▁Asylbewerber	-11.1019
▁Schulz	-11.1023
Präsident	-11.1025
Mittel	-11.1025
▁Insgesamt	-11.1028
▁mitgeteilt	-11.1028
▁erkennbar	-11.1028
▁Vermarktung	-11.1029
▁fragt	-11.1029
▁Ausgewogenheit	-11.1038
▁Zehn	-11.1038
▁Wäre	-11.1039
vorschläge	-11.104
mangel	-11.1044
▁erkennt	-11.1054
▁Häuser	-11.1057
▁resultieren	-11.1057
einhalb	-11.1057
▁beziehe	-11.1065
städte	-11.1066
▁Governance	-11.1076
▁Verbündeten	-11.1076
▁gezahlt	-11.1076
▁Bündnis	-11.1078
kosystem	-11.1081
ektion	-11.1083
▁blockiert	-11.1085
▁beweist	-11.1085
▁kostet	-11.1095
▁worauf	-11.1095
▁Traum	-11.1112
▁Manche	-11.1113
▁Wurzel	-11.1114
▁schuldig	-11.1114
▁Gesamtheit	-11.1117
▁Helsinki	-11.1123
▁widerspiegeln	-11.1123
▁Gremium	-11.1133
▁audiovisuelle	-11.1133
▁Instanz	-11.1133
▁begrüßenswert	-11.1137
gespräch	-11.1142
▁hochrangige	-11.1142
einnahmen	-11.1143
▁Bahn	-11.1147
▁Vietnam	-11.1161
▁WWU	-11.1161
▁Martin	-11.1163
▁Südkorea	-11.1171
▁EIB	-11.1171
▁gelesen	-11.1171
▁erzeugen	-11.1172
Investitionsbank	-11.118
krankheit	-11.118
▁Chemikalien	-11.118
▁abzustimmen	-11.118
▁irre	-11.1187
▁Anschläge	-11.1196
▁Beendigung	-11.1199
▁erlangen	-11.1201
differenz	-11.1209
▁mangelt	-11.1211
▁Satelliten	-11.1219
▁widerspiegelt	-11.1219
abbau	-11.1234
▁produktiv	-11.1241
▁vertrete	-11.1253
▁Sicherstellung	-11.1257
▁Tampere	-11.1267
▁ausgehandelt	-11.1267
papier	-11.1276
▁Klärung	-11.1276
▁Pestizid	-11.1286
▁Sichtweise	-11.1288
▁Anmerkung	-11.1301
▁nachteilig	-11.1307
▁Feuer	-11.1325
▁Vorgaben	-11.1325
▁begünstigt	-11.1325
▁Gedanke	-11.1329
Verschlechterung	-11.1335
▁fossile	-11.1335
▁Ereignis	-11.1336
▁verweigert	-11.1344
Herzegowina	-11.1354
▁Besondere	-11.1354
▁osteuropäischen	-11.1354
Entwicklungsziel	-11.1356
instrument	-11.136
▁Philosoph	-11.1364
▁steckt	-11.1364
▁erfreulich	-11.1367
▁verschwinden	-11.1373
beamte	-11.138
▁Stehende	-11.1383
▁ansonsten	-11.1383
belastung	-11.1384
▁Start	-11.1386
▁Verlagerung	-11.1389
▁Sechs	-11.139
▁Lob	-11.139
▁spüren	-11.1393
▁ermutigt	-11.1403
hersteller	-11.1403
▁Grenzwerte	-11.1415
▁leidet	-11.1416
▁lehnt	-11.1422
▁Prüf	-11.143
▁solidarisch	-11.1432
modell	-11.1435
▁Staatsbürger	-11.1438
▁Fischbestände	-11.1442
▁schwarz	-11.1442
▁Wertpapier	-11.1443
▁schrecklichen	-11.1452
▁zugesagt	-11.1452
▁Verarbeitung	-11.1452
Initiativbericht	-11.1462
▁profitiert	-11.1462
▁Moskau	-11.1462
▁Völkermord	-11.1462
▁Santer	-11.1462
▁Anschein	-11.1463
▁John	-11.1472
gerechnet	-11.1478
▁Eingliederung	-11.1481
haupt	-11.1482
▁gebührend	-11.1488
▁Eigenmittel	-11.1495
Verordnung	-11.1496
▁Bedauerlich	-11.1501
▁Vizepräsidentin	-11.1503
▁Luftverkehr	-11.1503
▁Wider	-11.1508
▁westliche	-11.1508
operation	-11.1509
▁liefert	-11.1511
▁Diejenigen	-11.1521
▁gesenkt	-11.1531
▁Massenver	-11.1531
▁Heil	-11.1533
kleid	-11.1534
▁Kolumbien	-11.1541
▁Taliban	-11.1541
▁Erscheinung	-11.1541
▁Schau	-11.1543
▁Beobachtung	-11.1547
Gesetz	-11.1547
▁Atmosphäre	-11.1551
▁Komponente	-11.1551
▁veranlasst	-11.1551
vorhaben	-11.1559
verhältnis	-11.1569
▁empfinde	-11.157
▁unklar	-11.158
▁veranlassen	-11.158
mächte	-11.1585
zins	-11.159
▁engagieren	-11.159
▁Monti	-11.1605
▁Tarif	-11.161
▁stattfand	-11.162
▁Planeten	-11.1623
▁formulieren	-11.163
▁Chinesen	-11.163
dumping	-11.164
▁Kernkraftwerke	-11.164
▁Hoheitsgebiet	-11.165
▁definitiv	-11.165
▁Biokraftstoffe	-11.1658
▁Milliarde	-11.1659
▁zuzustimmen	-11.166
▁International	-11.1663
▁möge	-11.1669
▁Provinz	-11.167
▁perfekt	-11.168
erzeuger	-11.1695
▁Zeuge	-11.1701
▁hinreichend	-11.1701
▁Kofinanzierung	-11.1702
geschichte	-11.1705
▁Außenhandel	-11.1716
▁stoppen	-11.1721
▁Elektrizität	-11.1741
▁Erwärmung	-11.1741
▁geschenkt	-11.1741
Strukturreformen	-11.1743
▁Statt	-11.1751
typ	-11.1753
▁Verweis	-11.1754
▁Haiti	-11.1755
Meinungsfreiheit	-11.176
▁Kurden	-11.1761
▁Erlaub	-11.1761
▁stammt	-11.1771
▁kommunistischen	-11.1773
jenige	-11.1773
▁Diktator	-11.1781
▁Einsparungen	-11.1781
▁aktuell	-11.1783
▁Sozialversicher	-11.1788
▁kennt	-11.1802
▁jahrelang	-11.1802
▁überflüssig	-11.1812
▁Funktionsweise	-11.1812
sermächtigungen	-11.1814
▁messen	-11.1819
▁Labour	-11.1822
konomen	-11.1822
▁Wortmeldung	-11.1823
▁rumänische	-11.1832
zweig	-11.1847
gewässer	-11.1851
▁Diplomatie	-11.1853
▁stärkt	-11.1853
▁Konsumenten	-11.1853
▁Sozialfonds	-11.1858
▁Korea	-11.1863
Beitritt	-11.1871
▁Kämpfe	-11.1873
▁Medizin	-11.1873
▁unterscheidet	-11.1873
▁entziehen	-11.1874
▁Vormittag	-11.1884
▁bewirkt	-11.1884
▁Komitologie	-11.1894
▁Argentinien	-11.1894
▁vorzubereiten	-11.1894
nachfrage	-11.1898
sverhältnisse	-11.1904
▁Etikettierung	-11.1905
▁unangemessen	-11.1914
▁1989	-11.1914
flotte	-11.1914
garantie	-11.1924
▁bedürfen	-11.1925
▁auszuarbeiten	-11.1941
spiegel	-11.1944
▁konservative	-11.1945
▁Anlaß	-11.1945
▁Energieträger	-11.1945
US	-11.1946
▁Madrid	-11.1956
▁1980	-11.1956
fleisch	-11.1962
▁ausgedehnt	-11.1966
▁prinzipiell	-11.1966
▁horizontale	-11.1976
▁serbische	-11.1987
▁Gleichberechtig	-11.1987
▁Rinder	-11.1988
Tech	-11.1991
▁Bewohner	-11.2008
▁unglaublich	-11.2018
▁Geschlecht	-11.2021
▁vielfältige	-11.2028
▁Zusätzlich	-11.2028
▁annehmbar	-11.2028
▁gemeint	-11.203
▁Zivilisten	-11.2033
unterschiede	-11.2036
▁Entlassung	-11.2039
▁Einerseits	-11.206
▁verfasst	-11.206
▁Zwischenzeit	-11.2066
▁Prognose	-11.207
▁anscheinend	-11.207
▁schauen	-11.2071
▁Pflege	-11.208
▁beachtet	-11.2081
flug	-11.2081
▁Gegebenheiten	-11.2091
▁Sarkozy	-11.2091
COD	-11.2101
▁gemessen	-11.2102
▁Ernst	-11.2109
▁Exekutiv	-11.2112
Franc	-11.2118
gängig	-11.2122
▁aufgerufen	-11.2122
▁flexibel	-11.2122
▁erschwert	-11.2123
Raum	-11.2123
plizier	-11.2123
▁Fremd	-11.2133
▁materielle	-11.2133
▁morgige	-11.2133
zählt	-11.2133
schäden	-11.2133
▁beizubehalten	-11.2143
▁fließen	-11.2144
▁Begleit	-11.2145
▁Rückzug	-11.2163
▁Akzeptanz	-11.2165
strich	-11.2165
▁Streben	-11.2175
▁Interpretation	-11.2186
▁facto	-11.2186
▁gesondert	-11.2186
▁faktisch	-11.2186
▁Beispielsweise	-11.2186
▁einzuräumen	-11.2188
▁Fluggäste	-11.2196
▁wirkungsvoll	-11.2196
▁nutzt	-11.2196
▁eingetreten	-11.22
▁Lebensbedingung	-11.2204
▁Siedlung	-11.2207
▁Tief	-11.2207
größte	-11.2209
▁nördlich	-11.2217
▁polizeiliche	-11.2217
▁Rüstungs	-11.2228
▁Wechsel	-11.2231
▁befindliche	-11.2239
gestalt	-11.2243
hängig	-11.2244
▁obliegt	-11.2249
spartnerschaft	-11.2249
▁erschien	-11.2249
▁Föderation	-11.226
▁Konzerne	-11.226
▁Pressefreiheit	-11.2272
▁hervorzuheben	-11.2281
▁gründet	-11.2285
▁Global	-11.2302
nutzer	-11.231
▁Meinungsv	-11.2319
schöpfung	-11.2324
▁erfasst	-11.2325
▁Darfur	-11.2335
▁Griff	-11.2335
▁anpassen	-11.2337
▁Gehör	-11.2338
▁entzieht	-11.2346
▁Mütter	-11.2346
▁Veto	-11.2346
derherzustellen	-11.2347
▁Chaos	-11.2347
▁Verhütung	-11.2367
▁Hass	-11.238
bereitschaft	-11.2382
Arabien	-11.2389
▁Warnung	-11.2389
▁unterzeichnen	-11.2389
▁Belange	-11.2401
▁vorausgesetzt	-11.2401
praktiken	-11.241
▁Plenarsaal	-11.241
stift	-11.2413
▁Montenegro	-11.2421
▁streichen	-11.2424
haushaltsplan	-11.2426
sergebnisse	-11.2434
gearbeitet	-11.2435
▁gemeldet	-11.2443
▁ärmer	-11.2443
▁Flüge	-11.2444
blut	-11.2451
revolution	-11.2454
▁universell	-11.2454
▁unlautere	-11.2454
▁1991	-11.2454
▁Müll	-11.2454
▁Liquidität	-11.2465
protokoll	-11.2465
▁Aufschwung	-11.2465
▁aggressiv	-11.2465
▁leid	-11.2471
▁Ankündigung	-11.2475
▁optimistisch	-11.2475
▁Streichung	-11.2475
katastrophe	-11.2478
▁Kinnock	-11.2486
▁Vertiefung	-11.2486
▁radioaktive	-11.2486
▁verschlechtert	-11.2486
▁Bestätigung	-11.2497
▁Disziplin	-11.2497
▁anfangen	-11.25
▁debattieren	-11.2508
▁verschieben	-11.2508
fischerei	-11.2519
▁still	-11.2523
stätte	-11.2532
▁Fremdenfeind	-11.2541
▁Kommunismus	-11.2541
▁Geräte	-11.2556
zusammen	-11.2559
Kommission	-11.2559
▁unfair	-11.2563
▁Strecke	-11.2563
▁einzigartige	-11.2563
▁afghanische	-11.2574
▁gestrigen	-11.2574
Frage	-11.2581
▁Veranstaltung	-11.2585
▁englische	-11.2597
▁beschäftigungs	-11.2598
▁König	-11.2606
▁Raketen	-11.2607
▁Telefon	-11.2607
▁festgeschrieben	-11.2607
▁Anleger	-11.2607
Finanz	-11.2615
amerikanische	-11.2618
▁Atlantik	-11.2629
▁Inspektion	-11.2629
▁Ähnlich	-11.2629
▁Rahmenbeschluss	-11.2629
▁angefangen	-11.264
▁Unglück	-11.2653
▁radikal	-11.2655
▁wahrhaft	-11.2656
bli	-11.2659
klima	-11.2661
kampf	-11.2663
▁Deregulierung	-11.2664
glücklicherweise	-11.2673
▁Positiv	-11.2673
▁GASP	-11.2684
▁Theorie	-11.2685
▁gründen	-11.2702
▁Galileo	-11.2707
▁überwunden	-11.2707
▁Ängste	-11.2718
▁Guant	-11.2721
▁bisweilen	-11.2729
▁bemerken	-11.2739
Administration	-11.274
▁Glückwünsche	-11.274
änder	-11.2742
▁zuversichtlich	-11.2751
▁Muster	-11.2757
▁betrachte	-11.2762
2004	-11.2762
▁verwaltet	-11.2763
▁beurteilt	-11.2763
▁wahrgenommen	-11.2766
▁Andr	-11.2782
Palästinensische	-11.2785
▁Registrierung	-11.2785
strahl	-11.2796
▁George	-11.2796
▁Schnell	-11.2799
▁Bezüglich	-11.2819
▁Beantwortung	-11.2819
▁2007-2013	-11.283
▁einschränken	-11.283
▁Konsequenz	-11.284
▁verlängert	-11.2853
▁Glückwunsch	-11.2864
▁unvermeidlich	-11.2864
▁Michel	-11.2864
▁Version	-11.2865
▁Wahrnehmung	-11.2875
▁demnächst	-11.2875
▁quantitative	-11.2887
Impfstoff	-11.2895
▁eindringlich	-11.2898
▁Freiwilligen	-11.2898
sverzerrung	-11.2902
parlament	-11.2909
▁Verschiebung	-11.2909
▁privat	-11.291
kompetenz	-11.2921
▁ermordet	-11.2921
▁isoliert	-11.2921
beteiligung	-11.2921
▁importiert	-11.2921
▁Milosevic	-11.2932
▁analysieren	-11.2932
▁mächtige	-11.2932
5-03	-11.2934
▁innenpolitische	-11.2939
▁beabsichtige	-11.2955
▁ratifizieren	-11.2955
ausstattung	-11.2966
risiken	-11.2966
▁gerufen	-11.2967
▁vermute	-11.2976
CNS	-11.2978
▁beklagen	-11.2978
obachtungsstelle	-11.2982
▁irgendwann	-11.3001
▁ideal	-11.3001
▁geschah	-11.3003
▁schwächer	-11.3004
▁entscheidet	-11.3012
flucht	-11.3012
▁Daraus	-11.3013
▁Strafverfolgung	-11.3024
▁Schande	-11.3024
▁Vieh	-11.3028
flüsse	-11.3035
▁erbracht	-11.3035
▁minder	-11.304
2005	-11.3041
▁Votum	-11.3047
▁stellvertretend	-11.3047
▁Russen	-11.305
▁beruhigen	-11.3058
▁Biotechnologie	-11.3059
▁asiatischen	-11.306
wanderung	-11.3062
sorgane	-11.3064
täter	-11.3068
▁Verhaftung	-11.307
geschoben	-11.3071
▁verdanken	-11.3081
zentrum	-11.3081
▁Brücke	-11.3084
zöge	-11.3092
Rahmenrichtlinie	-11.3111
▁kenne	-11.3113
▁England	-11.3116
▁Register	-11.3116
▁zunichte	-11.3116
▁Schweine	-11.313
bald	-11.3131
kommunistische	-11.3138
▁widersprüchlich	-11.3139
▁aufweist	-11.314
▁anerkennt	-11.3151
▁komplett	-11.3151
▁verschoben	-11.3151
läufe	-11.3153
asiatische	-11.3161
verpflichtung	-11.3163
stärke	-11.3172
▁Olympische	-11.3174
▁bevorzugt	-11.3186
▁hege	-11.3191
▁Anbieter	-11.3198
Zivilbevölkerung	-11.32
▁einheimische	-11.3201
▁lächerlich	-11.3209
▁Vollendung	-11.3209
▁präsentiert	-11.321
Außenbeziehungen	-11.3221
▁Redebeitrag	-11.3221
▁beeinflusst	-11.3221
▁gedrängt	-11.3221
▁konkurrieren	-11.3221
▁ausgeweitet	-11.3221
▁ablehnt	-11.3233
▁geöffnet	-11.3245
▁veröffentlichen	-11.3245
▁Rechtfertigung	-11.3256
Institutionen	-11.3262
▁ernannt	-11.3269
▁Muslime	-11.328
▁Verwirrung	-11.328
▁geopolitische	-11.3281
▁gesundheits	-11.3281
Herangehensweise	-11.3284
▁Franzosen	-11.3292
▁Maßstab	-11.3292
▁Davon	-11.3292
▁Florenz	-11.3304
▁birgt	-11.3304
basis	-11.3304
▁erstaunlich	-11.3315
▁überwältigende	-11.3315
▁abzuschaffen	-11.3317
sammengearbeitet	-11.3322
genehmigung	-11.3327
▁interessieren	-11.3327
▁operative	-11.3327
▁Kohlendioxid	-11.3339
▁personenbezogen	-11.3339
artikel	-11.3341
komplex	-11.3341
trug	-11.3343
▁moralisch	-11.3347
uecksilber	-11.3363
▁anzubieten	-11.3375
▁verkündet	-11.3375
▁Etappe	-11.3387
▁Herkunftsland	-11.3387
▁aufgetreten	-11.3387
erschiedenheiten	-11.3399
▁Plenarsitzung	-11.3399
▁Unterscheidung	-11.3399
▁befriedigen	-11.3399
▁Todesfälle	-11.3399
nichtungswaffen	-11.3399
▁Besser	-11.3399
▁befreien	-11.34
▁versichert	-11.34
▁Wunder	-11.3411
▁Ansprüche	-11.3423
▁reformieren	-11.3423
Ziel	-11.3431
Verfahren	-11.3434
▁Blockade	-11.3434
▁Lektion	-11.3436
▁melde	-11.3438
Wirtschaft	-11.3439
▁Spezial	-11.3447
▁widersprechen	-11.3447
▁Gestern	-11.3447
▁jüngst	-11.3453
▁Malaria	-11.3458
▁autoritäre	-11.3458
▁Chef	-11.3471
Region	-11.3479
▁gravierend	-11.3481
▁Organismen	-11.3483
▁klassische	-11.3483
▁schützt	-11.3495
▁Zölle	-11.3519
unwahrscheinlich	-11.3529
▁konstitutionell	-11.3531
▁Genugtuung	-11.3531
▁akzeptable	-11.3531
▁Web	-11.3541
▁permanent	-11.3543
▁Bühne	-11.3543
▁vertiefen	-11.3555
▁Übermittlung	-11.3555
unverantwortlich	-11.3556
▁abgedeckt	-11.3567
▁belastet	-11.3567
▁Erkrankung	-11.3579
▁verlängern	-11.3579
▁dauert	-11.3591
▁Präferenz	-11.3591
▁Parallel	-11.3592
▁Anklage	-11.3592
▁genügt	-11.3604
▁scheinbar	-11.3604
▁Drohung	-11.3616
▁verdeutlicht	-11.3616
▁verstößt	-11.3616
▁Dutzend	-11.3616
▁Verpackung	-11.3616
▁Zuerst	-11.3617
▁betone	-11.3618
anhand	-11.363
▁Online	-11.364
▁besuchen	-11.3641
▁Moratorium	-11.3653
▁Norwegen	-11.3653
▁hofft	-11.3653
▁Verschuldung	-11.3653
▁Illusion	-11.3665
▁hervorgerufen	-11.3665
▁Clinton	-11.3677
▁Frattini	-11.3677
▁widerspricht	-11.3677
politisch	-11.3681
▁auseinandersetz	-11.3686
▁verhaftet	-11.3689
Diversifizierung	-11.3702
▁Vermögenswerte	-11.3702
▁Börse	-11.3702
▁Synergie	-11.3714
sammeln	-11.3714
▁Verdacht	-11.3714
▁abzubauen	-11.3714
etrugsbekämpfung	-11.372
▁erworben	-11.3726
transfer	-11.3739
Agentur	-11.3739
▁ausgewählt	-11.374
▁Transfer	-11.374
▁inhaftiert	-11.3741
▁bewaffneten	-11.3751
▁sinnlos	-11.3752
▁konsultiert	-11.3763
▁theoretisch	-11.3763
▁Angleichung	-11.3764
▁selben	-11.3764
▁Führungsrolle	-11.3776
▁Laeken	-11.3776
▁Berichtigungs	-11.3781
▁Schüler	-11.3788
▁exportieren	-11.3801
▁Island	-11.3801
besitz	-11.3808
pflanzen	-11.3813
▁Entschuldigung	-11.3813
▁vernachlässigt	-11.3813
namo	-11.3815
▁Zuverlässigkeit	-11.3826
▁praktiziert	-11.3826
▁wohlhabend	-11.3826
▁worüber	-11.3826
größe	-11.3837
▁demzufolge	-11.3838
▁historisch	-11.3839
▁geboren	-11.385
▁begriffen	-11.3851
▁ausschlaggebend	-11.3863
▁verweist	-11.3863
▁überschritten	-11.3864
vollem	-11.3871
▁Wiederbelebung	-11.3875
▁Werkzeug	-11.3877
▁Auslieferung	-11.3884
▁Bolkestein	-11.3888
▁gefolgt	-11.3888
▁unterliegt	-11.3888
▁Volksabstimmung	-11.3889
▁löst	-11.3894
▁Trinkwasser	-11.3901
ographische	-11.3902
Selbstbestimmung	-11.3913
▁anstehenden	-11.3913
▁Küste	-11.3916
▁Bereits	-11.3916
▁vermehrt	-11.3938
Gruppe	-11.3941
Münze	-11.3964
▁erkläre	-11.3964
▁schwerwiegend	-11.3965
▁fühlt	-11.3976
▁wusste	-11.3976
Konferenz	-11.398
▁Gläubiger	-11.4001
▁Misstrauen	-11.4001
▁kostspielig	-11.4001
▁reformiert	-11.4015
▁Assoziation	-11.4027
fehler	-11.4037
▁Ausdehnung	-11.404
▁Vorbeugung	-11.404
▁geschwächt	-11.404
▁spätestens	-11.404
▁Propaganda	-11.4052
speicher	-11.4052
▁verliert	-11.4053
▁Eurostat	-11.4054
▁Pharma	-11.4078
▁ereignet	-11.4078
▁Mobilisierung	-11.4091
▁Sekretariat	-11.4091
▁jugoslawische	-11.4091
▁Fusion	-11.4091
▁Damals	-11.4091
▁Diesbezüglich	-11.4103
▁Entstehung	-11.4103
▁mobilisieren	-11.4103
▁elf	-11.4109
sbürgerschaft	-11.4112
überwachung	-11.4116
▁Australien	-11.4116
▁gesammelt	-11.4116
Beschlussfassung	-11.4129
▁Palacio	-11.4129
▁auszuweiten	-11.4129
grün	-11.4137
▁mache	-11.4137
Prestige	-11.4155
▁Depression	-11.4155
▁Göteborg	-11.4155
▁Privileg	-11.4155
▁Professor	-11.4155
▁unlängst	-11.4155
▁Canc	-11.4155
▁langwierig	-11.4168
▁städtischen	-11.4168
▁Barnier	-11.4168
▁Moral	-11.4174
▁stetig	-11.4181
groß	-11.4187
▁mangelhaft	-11.4194
charakter	-11.4207
herrschaft	-11.4207
▁Nahost	-11.4219
▁Legislaturperio	-11.4219
Haushaltsbehörde	-11.4221
▁billiger	-11.4224
▁stehe	-11.4227
▁Komplexität	-11.4232
▁Plattform	-11.4232
▁Potential	-11.4232
▁Freihandelszone	-11.4232
Waffenstillstand	-11.4245
▁Robert	-11.4246
themen	-11.425
plätze	-11.4257
Verhandlungen	-11.4266
▁Geldwäsche	-11.4271
▁Software	-11.4271
▁Marktzugang	-11.4271
▁jünger	-11.4271
▁Aktionspläne	-11.4271
▁scharf	-11.4272
▁gesunken	-11.4284
▁weibliche	-11.4284
▁Überdies	-11.4285
▁verglichen	-11.4285
▁beachtliche	-11.4285
straße	-11.4286
▁2014	-11.4298
statut	-11.4309
▁hieß	-11.4311
▁Darstellung	-11.4311
treue	-11.4312
▁Stadium	-11.4324
▁Swoboda	-11.4324
▁Ungerechtigkeit	-11.4324
▁kombiniert	-11.4324
stürzen	-11.4324
▁zuwider	-11.4324
▁ausreicht	-11.4325
rechnet	-11.4328
Allgemeine	-11.4331
änderungsanträge	-11.4336
▁Demonstranten	-11.4337
▁Massaker	-11.4337
▁Nehmen	-11.4337
▁ukrainische	-11.4337
▁Einvernehmen	-11.4337
▁zweckmäßig	-11.4337
▁Umgebung	-11.4337
▁Bomben	-11.4337
kommissar	-11.435
praxis	-11.435
▁Spektrum	-11.435
▁versäumt	-11.435
▁argumentiert	-11.4363
▁gerichtliche	-11.4371
okratie	-11.4376
▁demonstrieren	-11.4403
▁Referenz	-11.4403
▁Rundfunk	-11.4403
▁erregend	-11.4403
▁belasten	-11.4405
▁NEW	-11.4416
▁höre	-11.4426
▁Präzedenzfall	-11.4429
▁Tschernobyl	-11.4429
▁Lizenz	-11.4429
▁Senat	-11.4432
▁Gegenseitigkeit	-11.4442
▁erweist	-11.4456
▁bekunden	-11.4456
▁Unabhängig	-11.4467
teroperabilität	-11.4469
▁potentiell	-11.4469
▁ökologisch	-11.4474
▁gewinnt	-11.4478
▁bestrebt	-11.4482
▁etabliert	-11.4482
q	-11.4488
▁Bruttoinlands	-11.4495
▁Billionen	-11.4495
▁verübt	-11.4496
wählt	-11.45
▁Englisch	-11.4509
▁Koordinator	-11.4509
▁nationalistisch	-11.451
patent	-11.4516
▁Verschärfung	-11.4522
▁Verspätung	-11.4522
▁Versöhnung	-11.4522
ographie	-11.4522
▁Grundprinzipien	-11.4535
▁Flagge	-11.4536
Alba	-11.4548
▁Übel	-11.4549
▁motiviert	-11.4549
▁jetzige	-11.4551
▁Vernunft	-11.4562
▁Vorsorgeprinzip	-11.4562
▁gänzlich	-11.4562
▁auszubauen	-11.4562
▁Klonen	-11.4563
▁REACH	-11.4576
▁ECHO	-11.4576
▁Kreml	-11.4576
▁Schadstoff	-11.4576
swachstums	-11.4587
▁zweifelsohne	-11.4589
migration	-11.4603
▁immense	-11.4604
▁denkbar	-11.4611
Problem	-11.4615
▁ELDR	-11.4616
▁scheitern	-11.4616
▁unterworfen	-11.4616
▁irreführend	-11.4616
▁Erläuterung	-11.463
▁Minderjährige	-11.463
▁analysiert	-11.463
Notenbank	-11.4632
▁ASEAN	-11.4643
▁gestützt	-11.4652
▁angeregt	-11.467
volumen	-11.4684
▁Andernfalls	-11.4684
▁bedenkt	-11.4684
▁latein	-11.4684
Parlamentswahlen	-11.4697
▁Kambodscha	-11.4697
▁baltischen	-11.4697
▁Vereinbarkeit	-11.4711
▁kubanische	-11.4725
▁gewaltsam	-11.4725
▁frühzeitig	-11.4725
▁umweltpolitisch	-11.4731
▁Hisbollah	-11.4738
▁Menschenwürde	-11.4738
▁zwingt	-11.4738
▁Geisel	-11.4738
summe	-11.4749
▁Embargo	-11.4752
▁absehbar	-11.4752
werbung	-11.4758
effizienz	-11.4761
▁Gültigkeit	-11.4766
▁drängt	-11.4766
▁erschweren	-11.4766
▁versprechen	-11.4768
▁Beschleunigung	-11.4779
▁Kontinuität	-11.4793
▁Verfügbarkeit	-11.4793
▁herausragende	-11.4793
▁weigert	-11.4793
▁vonnöten	-11.4793
▁voraussichtlich	-11.4793
▁korrigiert	-11.4807
▁bekundet	-11.4807
▁Berlusconi	-11.482
▁Verfechter	-11.482
▁unerläßlich	-11.482
Glücklicherweise	-11.4821
reinigung	-11.4823
▁Lockerung	-11.4834
▁Schweigen	-11.4834
▁verbreiten	-11.4835
▁Geltung	-11.4847
▁Aserbaidschan	-11.4848
▁Tragweite	-11.4848
▁Venezuela	-11.4848
▁empfiehlt	-11.4848
▁zweierlei	-11.4848
▁Nummer	-11.4862
▁Zufriedenheit	-11.4862
▁Sachverhalt	-11.4862
▁Merkel	-11.4862
Initiative	-11.4864
ohr	-11.4865
▁Inzwischen	-11.4876
▁primär	-11.4876
▁Verbrennung	-11.4876
▁unterrichtet	-11.4876
▁Berater	-11.4876
▁beobachtet	-11.4889
▁Donau	-11.489
▁vorteilhaft	-11.4903
ungerechtfertigt	-11.4905
demokrat	-11.4913
▁eingestuft	-11.4917
▁mehrheitlich	-11.4918
wirksam	-11.4919
▁überholt	-11.4922
phase	-11.4923
▁Gefährdung	-11.4931
▁syrische	-11.4931
▁Spaltung	-11.4931
▁skandalös	-11.4945
▁blockieren	-11.4959
▁anzusprechen	-11.4959
Energieverbrauch	-11.497
siedlung	-11.4973
▁Konfrontation	-11.4973
▁kurdische	-11.4973
▁verdeutlichen	-11.4973
▁ausgebaut	-11.4973
kinder	-11.4976
▁Buchstabe	-11.4987
ökonomische	-11.4987
▁beigetreten	-11.4987
▁Jurist	-11.5
rüstet	-11.5001
▁dachte	-11.5008
voraussetzung	-11.5015
▁Geschehnisse	-11.5015
▁Kollegium	-11.5015
▁Thunfisch	-11.5015
▁argumentieren	-11.5029
▁geringfügig	-11.5029
▁plädiere	-11.5029
▁zugehört	-11.5029
▁ausgezeichnet	-11.5034
▁Eindämmung	-11.5043
▁Tuberkulose	-11.5043
▁Widersprüche	-11.5043
▁Richtig	-11.5046
▁Oberste	-11.5047
Preis	-11.5049
Unzulänglichkeit	-11.5057
▁Kilometer	-11.5057
▁Künstler	-11.5057
▁geliefert	-11.5057
▁demselben	-11.5057
maschine	-11.5057
glück	-11.5071
verfolgbarkeit	-11.5071
▁operationelle	-11.5072
Partner	-11.5077
▁Ermordung	-11.5085
▁Selbstmord	-11.5085
▁tiefgreifende	-11.5086
nerhalb	-11.5093
▁wissensbasierte	-11.51
▁unverändert	-11.51
▁nennt	-11.51
▁bindend	-11.5109
▁Cotonou	-11.5114
▁Rauchen	-11.5114
▁Gemüse	-11.5127
präferenz	-11.5128
terror	-11.5129
regime	-11.5129
▁bedanke	-11.5138
▁auszusprechen	-11.5142
budget	-11.5156
▁alarmierend	-11.5156
▁wachsam	-11.5156
▁Stillstand	-11.5156
▁erstaunt	-11.5156
▁Gestalt	-11.5164
▁einzuschränken	-11.5171
▁mitberatende	-11.5171
▁Begeisterung	-11.5185
▁ägyptische	-11.5185
arbeitslosigkeit	-11.5185
▁Hunderttausende	-11.5199
▁Abwesenheit	-11.5199
2009	-11.5208
▁neoliberale	-11.5213
▁reproduktive	-11.5213
schild	-11.5219
▁Betrügereien	-11.5228
▁Konkret	-11.5228
▁David	-11.5228
▁pakistanische	-11.5242
▁verschwunden	-11.5242
▁begleiten	-11.5242
▁Seuche	-11.5247
Autonomiebehörde	-11.5249
▁vage	-11.525
▁Antibiotika	-11.5257
▁harmonisieren	-11.5271
▁minimal	-11.5271
▁Betonung	-11.5271
▁vollzogen	-11.5271
▁Artenvielfalt	-11.5285
Haushaltsordnung	-11.5287
▁Befugnis	-11.5288
Jahre	-11.5294
bemühungen	-11.53
▁Infolgedessen	-11.53
▁selbständig	-11.53
▁gebaut	-11.5301
▁Mächte	-11.5306
ränkt	-11.5314
▁Kolonial	-11.5314
▁Niedergang	-11.5314
▁Lanka	-11.5314
▁sachlich	-11.5315
etzungsverfahren	-11.5326
▁Züge	-11.5331
▁Zigaretten	-11.5343
▁verletzen	-11.5343
▁rational	-11.5343
▁beeindruckend	-11.5358
repräsentiert	-11.5358
▁verweigern	-11.5372
▁Ozean	-11.5372
▁fraglich	-11.5372
flüge	-11.5374
zählen	-11.5382
zuholen	-11.5385
perspektive	-11.5387
▁Kommunistische	-11.5387
▁abgebaut	-11.5387
▁Szenario	-11.5401
▁anwendbar	-11.5401
▁beherrscht	-11.5401
▁verleiht	-11.5401
▁lebenswichtig	-11.5401
berechtigt	-11.5403
▁gesamt	-11.5415
▁regulieren	-11.5416
▁Streitigkeiten	-11.5416
▁Ausgehend	-11.5416
▁Ära	-11.5416
▁bedauert	-11.5416
▁befand	-11.5416
▁Erwartung	-11.5417
▁bevorstehende	-11.543
▁gefälscht	-11.5431
▁unweigerlich	-11.5431
nachmittag	-11.5431
importe	-11.5436
▁Adoption	-11.5445
▁andernfalls	-11.5445
▁kontraproduktiv	-11.5445
▁Entfernung	-11.5445
Epidemie	-11.546
▁Füßen	-11.546
▁erlitten	-11.546
▁körperliche	-11.5463
▁empfindlich	-11.5475
▁Entsorgung	-11.5489
▁Optimismus	-11.5489
▁Zielvorgaben	-11.5489
▁welch	-11.5495
▁seltsam	-11.5504
▁Kreuz	-11.5504
▁hängen	-11.5504
▁kapitalistische	-11.5506
▁Nachweis	-11.5512
gedanke	-11.5519
▁justizielle	-11.5533
bewirtschaftung	-11.5534
▁erschreckend	-11.5534
▁eigenständige	-11.5534
Krisenmanagement	-11.5535
bewußt	-11.5546
▁Erörterung	-11.5548
▁PHARE	-11.5548
▁Vorkehrungen	-11.5548
beschränkungen	-11.5548
▁Mercosur	-11.5563
sfürsorge	-11.5563
▁Referenden	-11.5563
▁debattiert	-11.5563
▁Ohr	-11.5564
reißen	-11.5568
Aufsichtsbehörde	-11.5568
letzte	-11.5575
▁MEDA	-11.5578
▁Terroranschläge	-11.5578
▁äußere	-11.5578
übertragung	-11.5578
▁Händler	-11.5593
▁präsentieren	-11.5593
▁detailliert	-11.5602
Regime	-11.5606
stützung	-11.5621
▁erschüttert	-11.5623
▁vorbehaltlos	-11.5623
zwang	-11.5623
▁Unterbrechung	-11.5638
▁bedacht	-11.5638
▁Stilllegung	-11.5652
▁Minimum	-11.5682
▁empfangen	-11.5682
▁unzählige	-11.5682
▁begründen	-11.5683
▁regiert	-11.5684
▁Schwangerschaft	-11.5697
▁unrealistisch	-11.5712
tektionistische	-11.5713
krebs	-11.5713
▁verwandeln	-11.5713
▁befreit	-11.5713
▁gelegentlich	-11.5728
▁orientieren	-11.5728
▁Transaktionen	-11.5728
▁Kohlenstoff	-11.5728
▁Bundeskanzler	-11.5743
▁Fachleute	-11.5743
▁Geflügel	-11.5743
▁Infektion	-11.5743
zuweisung	-11.5743
▁gemischt	-11.5758
Partei	-11.5758
problematik	-11.5773
▁Einladung	-11.5773
▁Dürre	-11.5773
▁Sackgasse	-11.5788
▁Stimmabgabe	-11.5788
▁kürzen	-11.5788
▁ruhig	-11.5788
▁Pluralismus	-11.5803
▁Weshalb	-11.5803
▁seriös	-11.5803
▁zielgerichtet	-11.5803
läßlich	-11.5818
▁Niederlage	-11.5818
bewusstsein	-11.5819
▁Aquakultur	-11.5834
▁ECOFIN	-11.5834
▁Experiment	-11.5834
▁Jacques	-11.5834
▁merkwürdig	-11.5834
▁strukturiert	-11.5837
▁beauftragt	-11.5842
▁Sprecher	-11.5849
▁elementare	-11.5849
▁passiv	-11.5849
▁Statistik	-11.5873
▁Vernichtung	-11.5879
▁genießt	-11.5879
▁luxemburgische	-11.5879
▁separat	-11.5879
▁dreißig	-11.5879
▁symbolische	-11.5881
▁Erlass	-11.5882
▁kontrovers	-11.5895
▁Ersuchen	-11.5895
▁verzeichnet	-11.5896
▁Gazastreifen	-11.591
▁Hektar	-11.591
▁Täter	-11.591
▁Weltgesundheits	-11.591
▁verlässliche	-11.5921
▁Motto	-11.5925
▁beispiellose	-11.5926
motiv	-11.5942
ifikation	-11.5952
▁Posselt	-11.5956
▁gebührt	-11.5956
▁registriert	-11.5956
▁Schwierigkeit	-11.5966
▁Isolation	-11.5972
▁Verzerrung	-11.5972
▁hinzugefügt	-11.5972
▁unternehmerisch	-11.5973
▁Briten	-11.5973
▁GMO	-11.5987
lieferungen	-11.5993
ernährung	-11.6003
▁strategisch	-11.6003
▁Sacharow	-11.6018
▁Kreativität	-11.6018
▁Waldbrände	-11.6018
▁slowenische	-11.6018
▁Inhaftierung	-11.6018
▁abwarten	-11.6018
▁Typ	-11.6034
▁Diagnose	-11.6049
▁Missachtung	-11.6065
▁Vergütung	-11.608
▁Reife	-11.6091
▁Mißbrauch	-11.6096
▁totalitäre	-11.6096
▁bestrafen	-11.6096
▁Früchte	-11.6096
▁fundierte	-11.6096
▁WHO	-11.6112
▁explizit	-11.6127
Timor	-11.6128
▁Erfordernis	-11.6131
mitglieder	-11.6134
tourismus	-11.6143
▁Repression	-11.6159
▁autonom	-11.6159
▁beitrittswillig	-11.6159
▁längerfristig	-11.6159
▁Ethik	-11.6174
▁Bestrafung	-11.619
▁instabil	-11.6206
tarif	-11.6217
sverbindlich	-11.6222
▁Singapur	-11.6222
▁globalisierten	-11.6222
▁Manchmal	-11.6222
▁Sonntag	-11.6222
▁feierlich	-11.6222
▁kohärent	-11.6231
▁geschlechts	-11.6265
▁Angestellte	-11.6269
geschwindigkeit	-11.6269
▁Maschinen	-11.6269
▁Sanktion	-11.6285
▁Verbände	-11.6285
▁Offensichtlich	-11.6285
entwickelt	-11.6299
▁Aussöhnung	-11.6301
▁herkömmliche	-11.6301
▁zweifelhaft	-11.6301
▁Verwertung	-11.6302
Virus	-11.6316
▁Recycling	-11.6317
▁Watson	-11.6317
▁Häftlinge	-11.6333
▁verlagert	-11.6333
Krieg	-11.6342
▁Arafat	-11.6349
▁Geduld	-11.6349
▁Invasion	-11.6349
▁jüdisch	-11.6349
▁Gegenwart	-11.6349
▁blind	-11.635
erleichterung	-11.6365
▁entdeckt	-11.6365
▁Wild	-11.6367
▁vertraglich	-11.6374
▁fortgeschritten	-11.6381
▁protestieren	-11.6381
▁1970	-11.6381
▁Bücher	-11.6381
▁Weigerung	-11.6381
▁Etwa	-11.6382
riminal	-11.6391
▁Versäumnis	-11.6398
▁ergreift	-11.6398
▁Serben	-11.6398
▁albanische	-11.6414
▁gesteckt	-11.6414
▁Vergessen	-11.6414
▁Blickwinkel	-11.643
▁furchtbar	-11.643
▁Bindung	-11.643
▁zitiert	-11.643
▁inakzeptable	-11.6446
hältnismäßigkeit	-11.6469
▁Gehälter	-11.6479
▁Entsendung	-11.6495
▁Hemmnisse	-11.6495
▁Investment	-11.6495
▁vormittag	-11.6495
▁gentechnisch	-11.6496
▁unmenschlich	-11.6511
▁schottische	-11.6511
▁Arabische	-11.6512
▁Gedächtnis	-11.6527
▁Liikanen	-11.6527
▁Touristen	-11.6527
▁Zurückhaltung	-11.6527
▁signifikant	-11.6527
Steuer	-11.6538
▁gerät	-11.6541
▁Zentralasien	-11.6544
▁Schmerz	-11.6544
▁Sowjet	-11.656
ORK	-11.656
▁Stammzellen	-11.656
▁konsolidiert	-11.656
▁Winter	-11.656
▁Gebot	-11.6561
▁linke	-11.6561
▁Wallström	-11.6576
▁fruchtbare	-11.6576
▁kreative	-11.6576
▁GFP	-11.6576
dialog	-11.6576
▁Vermittler	-11.6593
▁ausgeprägt	-11.6593
▁ungelöst	-11.6593
sverschuldung	-11.6593
▁hervorrufen	-11.6593
▁gehöre	-11.6599
meldung	-11.6608
▁unbestreitbar	-11.6609
▁Ersparnisse	-11.6626
▁Lukaschenko	-11.6626
▁TACIS	-11.6626
▁Website	-11.6626
▁beherrschen	-11.6626
▁Eigentumsrechte	-11.6626
▁Umweltverträg	-11.663
▁Luftverschmutz	-11.6637
Gebiet	-11.6638
▁Rhetorik	-11.6642
▁verwehrt	-11.6642
▁vorbehalten	-11.6642
▁Zuwanderer	-11.6659
▁verschlimmert	-11.6659
▁verzögert	-11.6659
▁fortschrittlich	-11.6675
▁Fälschung	-11.6692
▁unbekannt	-11.6692
Pipeline	-11.6692
▁links	-11.6709
▁slowakische	-11.6709
▁transnationale	-11.6709
▁Äthiopien	-11.6709
▁tierische	-11.6709
blase	-11.671
prämie	-11.6713
▁Anstrengung	-11.6715
▁Äußerung	-11.6715
▁Meldung	-11.6725
▁zurückzukehren	-11.6725
▁Einzelpersonen	-11.6725
mißbrauch	-11.6742
▁Veterinär	-11.6742
▁empfunden	-11.6742
▁verhängen	-11.6742
▁vertretbar	-11.6742
▁Somalia	-11.6742
beginn	-11.6755
▁Poettering	-11.6759
▁Redebeiträge	-11.6759
▁Verknüpfung	-11.6759
▁demonstriert	-11.6759
firmen	-11.6759
▁Prämie	-11.6759
▁Abweichung	-11.6759
▁Vertragsverl	-11.6767
▁Aktualisierung	-11.6775
▁Sensibilität	-11.6775
▁gewalttätige	-11.6775
▁verzweifelt	-11.6776
Sensibilisierung	-11.6792
▁kommunale	-11.6792
▁Rebellen	-11.6792
▁Machthaber	-11.6792
▁erleiden	-11.6792
abhängigkeit	-11.6806
▁ausgeschöpft	-11.6809
▁einschließt	-11.6809
▁skeptisch	-11.6809
▁Johannesburg	-11.6826
▁Modalitäten	-11.6826
▁auszudehnen	-11.6826
▁schlug	-11.6826
▁individuell	-11.6833
konzerne	-11.6842
▁Wiederholung	-11.6842
weiterentwickelt	-11.6852
▁imperialistisch	-11.6859
▁Spielregeln	-11.6859
▁Vergewaltigung	-11.6876
▁jedwede	-11.6876
▁Grenzkontrollen	-11.6876
Regelung	-11.6893
▁Corbett	-11.6893
▁Heuchelei	-11.6893
skörperschaften	-11.691
▁Intensivierung	-11.691
▁Jarzembowski	-11.691
Tunnel	-11.691
gesundheit	-11.6922
▁Chirac	-11.6927
▁Reduktion	-11.6927
▁Implementierung	-11.6944
▁Guinea	-11.6944
gereicht	-11.6959
▁Dilemma	-11.6961
▁repressive	-11.6961
▁ungehindert	-11.6961
gesandt	-11.6961
▁aktualisiert	-11.6978
▁kompetent	-11.6978
▁Kriminelle	-11.6995
▁exzellente	-11.6995
▁Innenminister	-11.6995
▁Dasselbe	-11.6995
▁Brände	-11.6995
▁rassistische	-11.7012
▁reguliert	-11.703
▁vorherrschende	-11.703
▁machbar	-11.703
▁quasi	-11.703
▁Ehrgeiz	-11.7047
▁Temperatur	-11.7047
▁hinzuzufügen	-11.7047
▁präventive	-11.7047
kundig	-11.705
▁euro	-11.7062
▁Meilenstein	-11.7064
▁Verschwendung	-11.7064
▁durfte	-11.7081
▁islamistische	-11.7081
Armutsbekämpfung	-11.7086
ansprüche	-11.7098
▁Jordanien	-11.7098
▁beigemessen	-11.7098
▁Kodex	-11.7098
▁Unterzeichner	-11.7098
Fundamentalismus	-11.7115
▁Thailand	-11.7116
▁Adresse	-11.7116
slosenquote	-11.7133
▁Französisch	-11.7133
▁nachvollziehbar	-11.7133
▁veraltet	-11.7134
▁Übergriffe	-11.7138
monopol	-11.7147
▁Präventiv	-11.715
▁Bescheid	-11.715
▁besprochen	-11.715
▁Arktis	-11.716
▁Etikett	-11.7166
▁verbindet	-11.7168
▁Bezahlung	-11.717
▁Unklarheit	-11.7185
▁Sammel	-11.7185
Menschenverstand	-11.7193
▁Kabeljau	-11.7203
▁mittelständisch	-11.7203
▁Größenordnung	-11.7203
▁Ressource	-11.721
▁enthielt	-11.722
▁gespannt	-11.722
prävention	-11.7238
▁herauszufinden	-11.7238
▁paradox	-11.7238
▁Herangehen	-11.725
▁Erwähnung	-11.7255
Markt	-11.726
▁Paritätische	-11.7273
alkohol	-11.729
▁Befriedigung	-11.729
▁Fahrgäste	-11.729
▁gerettet	-11.729
▁unzulässig	-11.729
▁vornherein	-11.729
▁erstreckt	-11.729
▁geldpolitische	-11.7292
Menschenrecht	-11.7299
▁bulgarische	-11.7308
▁heimgesucht	-11.7308
▁unvereinbar	-11.7326
▁Furcht	-11.7326
▁bedienen	-11.7326
binnenmarkt	-11.7344
▁Entsprechend	-11.7361
▁Schwellenwert	-11.7362
Jerusalem	-11.7379
▁Volksrepublik	-11.7379
▁unerträglich	-11.7379
▁diverse	-11.7379
medizin	-11.7395
▁Ratstagung	-11.7397
▁Fabrik	-11.7397
▁genügen	-11.7402
▁unzulänglich	-11.7415
▁beschuldigt	-11.7415
▁entsandt	-11.7415
▁Hätte	-11.7415
▁intellektuell	-11.7432
▁identifizieren	-11.7468
▁vertieft	-11.7468
terschaftsurlaub	-11.7486
▁konzipiert	-11.7486
▁schmerzhaft	-11.7486
▁unbefriedigend	-11.7486
▁Überraschung	-11.7486
▁gelitten	-11.7486
▁rechtfertigt	-11.7486
▁Baroness	-11.7504
▁Devisen	-11.7504
▁Stagnation	-11.7504
▁Westjordanland	-11.7504
▁anfänglich	-11.7504
▁erneuert	-11.7504
▁psychologische	-11.7504
▁fragwürdig	-11.7522
▁vernommen	-11.7522
▁Angola	-11.7522
schädlich	-11.7531
▁benachbarte	-11.754
▁dementsprechend	-11.754
▁versteckt	-11.754
drohung	-11.7553
▁Lebenserwartung	-11.7558
▁Ungeachtet	-11.7558
▁Verlierer	-11.7558
Migrationsströme	-11.7559
▁Westsahara	-11.7576
▁Tsunami	-11.7595
▁strebt	-11.7595
uartett	-11.76
Ruijten	-11.7613
▁Möglicherweise	-11.7613
▁Vitorino	-11.7613
▁anstrebt	-11.7613
▁untergräbt	-11.7613
▁Vorwurf	-11.7631
▁repräsentativ	-11.7631
Nichtsdestotrotz	-11.7649
▁tagtäglich	-11.7649
▁Ansonsten	-11.7649
▁Dörfer	-11.7649
▁militärisch	-11.766
▁Unzufriedenheit	-11.7667
▁Vorwürfe	-11.7667
▁Niederlassung	-11.7686
▁Urlaub	-11.7686
▁angesiedelt	-11.7686
▁supranationale	-11.7686
▁Lüge	-11.7687
▁Zuweisung	-11.7704
▁vorhergehenden	-11.7704
▁vergrößern	-11.7723
▁Häufig	-11.7723
Glücksspiel	-11.7725
trächtig	-11.7733
▁gleichgültig	-11.7741
▁volks	-11.7741
apparat	-11.7759
▁Entscheidend	-11.7759
▁Prostitution	-11.7759
▁geknüpft	-11.7759
▁benennen	-11.7759
uartal	-11.776
▁Schienenverkehr	-11.776
▁Rekord	-11.7778
▁realisieren	-11.7796
▁Räume	-11.7796
dervereinigung	-11.7796
▁unhaltbar	-11.7797
▁restliche	-11.7799
Staat	-11.7803
▁Euratom	-11.7815
Delegation	-11.7828
▁angemerkt	-11.7834
Mission	-11.7847
▁Legitimation	-11.7852
▁riskant	-11.7852
deraufgenommen	-11.7854
▁Ferrero	-11.7871
▁Seeleute	-11.7871
▁Maßstäbe	-11.7889
▁Nachbarstaaten	-11.789
▁realisiert	-11.789
▁Tschad	-11.789
▁bedrohen	-11.7908
▁erhebt	-11.7927
▁Ausstattung	-11.7927
▁Geißel	-11.7946
verträglich	-11.796
kooperativ	-11.7965
▁Eurojust	-11.7965
▁Dezentralisier	-11.7983
▁einzudämmen	-11.7983
Wärme	-11.7984
▁anzukurbeln	-11.8002
▁aufgestockt	-11.8002
analyse	-11.8021
▁befristete	-11.804
▁Jedenfalls	-11.8059
▁Kreditvergabe	-11.8059
▁Wesentliche	-11.8061
▁Sorgfalt	-11.8078
▁vernichtet	-11.8078
▁Bewahrung	-11.8078
Waldner	-11.8081
erkennung	-11.8096
▁bedenklich	-11.8097
▁nachvollziehen	-11.8097
▁gesteigert	-11.8117
▁mitzuteilen	-11.8117
Erweiterung	-11.8135
▁bekennen	-11.8136
▁Bundesrepublik	-11.8155
▁Russischen	-11.8155
▁Verbrecher	-11.8155
▁Diplomaten	-11.8155
▁untragbar	-11.8155
▁undemokratisch	-11.8158
▁Diskrepanz	-11.8174
▁Entweder	-11.8174
▁Kaukasus	-11.8174
▁Plenartagung	-11.8174
▁jenseit	-11.8179
betreiber	-11.819
▁verzichtet	-11.8193
Wachstum	-11.8194
▁unglücklich	-11.8199
▁prekär	-11.8213
▁geantwortet	-11.8213
dimension	-11.8232
▁Harbour	-11.8232
▁Laufzeit	-11.8232
Kriegsverbrechen	-11.8251
▁zeitweilig	-11.8271
▁Biomasse	-11.829
▁atomare	-11.829
häfen	-11.8309
„	-12.097
–	-12.2321
