<unk>	0
<s>	0
</s>	0
,	-3.11883
.	-3.52145
▁die	-3.62386
▁der	-3.81934
en	-3.91638
▁und	-4.01033
s	-4.08177
n	-4.10468
▁	-4.18517
e	-4.35254
▁in	-4.42551
▁zu	-4.50148
▁den	-4.77417
▁von	-4.97782
r	-5.06096
er	-5.11101
▁ist	-5.12053
-	-5.19
▁auf	-5.22099
▁eine	-5.25346
▁das	-5.26118
▁sich	-5.27817
▁des	-5.30868
▁für	-5.31903
▁dass	-5.33853
▁nicht	-5.34633
▁ein	-5.37592
▁–	-5.46293
▁Die	-5.50767
▁mit	-5.53626
▁als	-5.53643
m	-5.5673
▁im	-5.57039
▁es	-5.60697
▁an	-5.63206
t	-5.73234
▁werden	-5.74281
▁dem	-5.75491
▁sie	-5.75844
▁um	-5.83003
▁sind	-5.90188
▁einer	-5.96657
▁wie	-5.96835
▁wird	-5.99002
▁aus	-6.02857
▁hat	-6.04812
▁über	-6.05015
▁auch	-6.07216
ung	-6.13213
▁„	-6.1453
▁haben	-6.18951
es	-6.23359
▁oder	-6.25406
▁vor	-6.27497
▁durch	-6.27498
d	-6.29313
▁er	-6.35159
:	-6.36451
▁bei	-6.37356
▁In	-6.40396
▁einen	-6.41011
▁ihre	-6.42033
“	-6.44946
▁einem	-6.46376
▁zur	-6.47546
▁nach	-6.48024
▁(	-6.48631
▁diese	-6.50255
▁so	-6.50718
▁sein	-6.51579
▁nur	-6.5602
▁ver	-6.56034
▁noch	-6.56791
▁war	-6.60094
▁Welt	-6.65569
▁wenn	-6.66115
▁be	-6.66598
▁man	-6.68033
▁USA	-6.68487
▁mehr	-6.69322
▁wir	-6.70179
▁Das	-6.72235
▁Der	-6.7312
▁unter	-6.74373
▁aber	-6.75933
te	-6.75982
ten	-6.77622
ü	-6.77763
▁kann	-6.79021
)	-6.80095
▁können	-6.82099
l	-6.84804
h	-6.84881
▁wurde	-6.88625
▁dieser	-6.88652
st	-6.90463
▁ge	-6.92819
b	-6.92879
f	-6.93656
ä	-6.94721
▁Menschen	-6.94981
▁seine	-6.96088
?	-6.96918
sch	-6.97239
▁zum	-6.97289
▁Es	-6.97849
w	-6.98003
▁Ein	-6.9863
in	-6.99739
den	-6.99846
▁Länder	-7.01774
▁was	-7.0229
▁würde	-7.02766
y	-7.03059
▁China	-7.03198
▁gegen	-7.0375
▁zwischen	-7.04105
▁Regierung	-7.05499
g	-7.06743
▁könnte	-7.06993
▁eines	-7.08208
al	-7.10134
o	-7.12632
▁Jahr	-7.12766
▁Jahren	-7.14436
▁müssen	-7.14753
▁Doch	-7.14777
▁Land	-7.15015
▁Aber	-7.1541
▁keine	-7.1548
de	-7.1618
be	-7.19691
▁ab	-7.19811
an	-7.1998
▁Europa	-7.21858
z	-7.21896
▁US	-7.22349
▁ihrer	-7.2265
▁immer	-7.22674
▁S	-7.22721
▁Be	-7.24117
;	-7.24174
p	-7.24598
▁EU	-7.24633
▁Entwicklung	-7.24759
ver	-7.2528
▁Im	-7.25416
▁andere	-7.26283
ge	-7.27262
▁Ver	-7.27471
▁Zeit	-7.27813
▁Wirtschaft	-7.2997
k	-7.30241
▁am	-7.30464
▁anderen	-7.30842
▁Und	-7.31384
der	-7.34239
▁bis	-7.35011
▁un	-7.3518
▁selbst	-7.35816
▁muss	-7.36339
▁wo	-7.36381
▁G	-7.3711
▁wirtschaftliche	-7.3798
▁gibt	-7.38141
▁-	-7.38274
▁Diese	-7.40165
▁F	-7.4042
▁wurden	-7.40497
▁Ländern	-7.40835
▁Sie	-7.4177
▁sollte	-7.42601
▁seiner	-7.43719
▁Jahre	-7.43914
▁viele	-7.45497
▁neue	-7.47318
▁sondern	-7.47804
▁alle	-7.47864
▁Wenn	-7.48608
▁Vor	-7.48638
re	-7.49589
ig	-7.50057
▁Er	-7.50065
▁politischen	-7.50507
▁dazu	-7.51135
▁A	-7.51482
▁während	-7.51592
▁T	-7.51652
▁W	-7.51734
ein	-7.51884
▁wieder	-7.52363
▁Politik	-7.52866
▁politische	-7.52872
ur	-7.53295
▁An	-7.53395
ungen	-7.53614
▁zwei	-7.53831
▁ihren	-7.53901
▁M	-7.54336
▁Ab	-7.54419
▁viel	-7.54725
▁wäre	-7.54733
▁B	-7.55031
▁waren	-7.5531
▁Aus	-7.563
▁vo	-7.56419
et	-7.57176
▁hin	-7.57357
ter	-7.57452
▁Eine	-7.57622
▁uns	-7.57721
u	-7.57755
ar	-7.578
▁Staaten	-7.58105
ieren	-7.58412
ern	-7.58438
▁K	-7.58441
▁letzten	-7.58654
i	-7.58904
▁Macht	-7.59029
il	-7.60058
▁damit	-7.60119
em	-7.61392
▁Dollar	-7.61879
ch	-7.61903
▁da	-7.6305
▁diesem	-7.63191
▁jedoch	-7.63203
▁weil	-7.63564
▁So	-7.63738
it	-7.64025
▁Russland	-7.64111
▁sollten	-7.64188
sten	-7.65041
lich	-7.65102
▁weniger	-7.6517
▁ohne	-7.66398
A	-7.6737
▁Ge	-7.67629
▁weiter	-7.68302
S	-7.68455
a	-7.68532
▁seit	-7.69537
igen	-7.70003
▁ihr	-7.7032
▁heute	-7.71812
el	-7.72079
▁Grund	-7.7294
ische	-7.74058
▁Präsident	-7.74065
▁Sch	-7.74952
▁etwa	-7.75016
le	-7.75486
▁Wachstum	-7.75559
zu	-7.75779
▁Finanz	-7.76545
P	-7.77319
▁Auf	-7.7808
is	-7.78411
▁Dies	-7.78652
▁dieses	-7.79927
▁E	-7.79972
▁darauf	-7.80114
▁könnten	-7.80307
▁neuen	-7.80332
▁gegenüber	-7.80959
▁H	-7.8113
▁St	-7.81207
ischen	-7.81747
iert	-7.82358
▁Unternehmen	-7.82503
▁Wirtschafts	-7.82657
▁meisten	-7.82881
▁zurück	-7.83973
▁würden	-7.84658
▁Krise	-7.85221
▁Landes	-7.85322
▁ob	-7.85392
▁sehr	-7.85667
▁Problem	-7.859
ie	-7.86177
▁Geld	-7.86765
▁ich	-7.8706
▁Regierungen	-7.87103
ut	-7.87173
▁sogar	-7.87558
D	-7.88045
kt	-7.8807
ste	-7.8816
B	-7.88186
▁allerdings	-7.88698
la	-7.89037
ro	-7.89353
▁machen	-7.89671
▁nun	-7.89686
▁Banken	-7.89701
▁diesen	-7.89916
▁Wir	-7.90019
und	-7.90494
▁sowie	-7.90533
▁Z	-7.9087
or	-7.9101
ab	-7.91182
▁Teil	-7.91645
M	-7.91651
▁hatte	-7.9209
ra	-7.92196
▁dafür	-7.92209
▁P	-7.92829
▁große	-7.94363
▁dann	-7.94426
▁Ende	-7.9502
▁Tatsächlich	-7.95534
▁Zu	-7.96154
▁Millionen	-7.96993
▁ent	-7.97682
heit	-7.97726
▁D	-7.97836
▁Um	-7.98304
▁Frage	-7.98308
▁Irak	-7.98311
▁Unterstützung	-7.98382
at	-7.98407
▁davon	-7.98671
▁Euro	-7.98673
▁ihnen	-7.98856
▁Japan	-7.99541
▁also	-7.99581
▁führen	-8.00253
▁dabei	-8.01067
▁Iran	-8.01149
"	-8.01318
um	-8.01447
▁weit	-8.01619
on	-8.01622
▁Milliarden	-8.01693
▁drei	-8.01889
▁bereits	-8.02232
▁Energie	-8.02538
▁lassen	-8.03211
%	-8.03494
▁%	-8.03559
ation	-8.04
ige	-8.04036
▁Maßnahmen	-8.04748
▁Chinas	-8.05038
▁jetzt	-8.05087
gen	-8.05252
▁globalen	-8.06444
▁kein	-8.06519
▁doch	-8.06574
▁großen	-8.06639
0	-8.06868
di	-8.06883
▁Demokratie	-8.07292
▁aufgrund	-8.07785
▁besteht	-8.07834
▁Rolle	-8.08047
▁Staat	-8.08441
c	-8.08509
▁europäischen	-8.08566
▁Prozent	-8.0871
▁Art	-8.08997
▁Nach	-8.09965
▁Region	-8.10041
▁O	-8.10045
▁gut	-8.10312
ol	-8.10687
li	-8.10725
▁Kosten	-8.11078
▁Fall	-8.111
liche	-8.11435
▁unsere	-8.1151
▁seinen	-8.11529
sp	-8.11625
I	-8.11739
▁Investitionen	-8.12301
me	-8.12621
▁Un	-8.12702
▁einige	-8.1289
us	-8.12953
▁19	-8.12973
ir	-8.13112
▁Mit	-8.13183
▁Deutschland	-8.13212
▁Da	-8.13276
▁pro	-8.14138
schaft	-8.14458
C	-8.14516
▁Wahl	-8.14551
▁Probleme	-8.14715
nerhalb	-8.14786
▁indem	-8.14915
▁Krieg	-8.14936
▁Wie	-8.15206
▁Leben	-8.15608
▁Bevölkerung	-8.15716
▁tun	-8.15804
▁Weise	-8.16066
▁Ziel	-8.162
▁V	-8.16245
▁Schulden	-8.16266
aus	-8.16345
▁Auch	-8.16497
▁schon	-8.16713
▁BIP	-8.16756
im	-8.16968
T	-8.17179
▁Vereinigte	-8.17236
▁internationalen	-8.177
E	-8.17774
▁Weg	-8.1779
isch	-8.17795
bar	-8.17891
▁internationale	-8.18195
zeit	-8.1826
▁Man	-8.18947
F	-8.18959
▁Zukunft	-8.18965
▁zwar	-8.1901
▁einfach	-8.19161
▁Sicherheit	-8.193
▁Indien	-8.19566
▁geht	-8.19614
ma	-8.19757
▁beiden	-8.19985
”	-8.20056
R	-8.20254
▁eigenen	-8.20263
▁denen	-8.20371
1	-8.20504
▁allem	-8.20547
ri	-8.20608
▁Entscheidung	-8.20894
▁Als	-8.21084
ismus	-8.21491
ion	-8.21513
▁globale	-8.21726
▁sei	-8.21885
▁Kapital	-8.22108
un	-8.22353
▁Re	-8.22387
ing	-8.22609
▁hätte	-8.22804
▁zusammen	-8.23041
▁steht	-8.23232
am	-8.23345
iv	-8.23382
▁Markt	-8.23437
▁stehen	-8.23655
▁etwas	-8.23727
▁Eurozone	-8.23964
ta	-8.23998
▁Geschichte	-8.24603
▁Frauen	-8.24709
▁Amerika	-8.24776
ft	-8.24852
he	-8.25064
▁amerikanischen	-8.25287
▁Recht	-8.25497
▁liegt	-8.25651
▁scheint	-8.26041
ß	-8.2629
▁Bei	-8.27088
▁einmal	-8.27105
▁Lage	-8.27379
▁deutlich	-8.27499
5	-8.27958
▁Beispiel	-8.28084
▁Selbst	-8.28271
).	-8.28316
▁Politiker	-8.29303
▁Israel	-8.29367
▁Partei	-8.29477
ck	-8.30024
lichen	-8.30031
▁Herausforderung	-8.30482
▁vielleicht	-8.30531
▁wenig	-8.30532
hn	-8.30764
▁Auswirkungen	-8.30972
▁Über	-8.31336
▁Öl	-8.31444
auf	-8.31485
▁sch	-8.31584
▁C	-8.31635
▁Mittel	-8.31765
▁wahrscheinlich	-8.31799
O	-8.32344
▁hinaus	-8.32516
stand	-8.32555
7	-8.32689
▁Wert	-8.33389
▁bringen	-8.33421
▁Militär	-8.33734
se	-8.34949
kl	-8.34968
ah	-8.35264
▁Bank	-8.3564
4	-8.35697
▁Obama	-8.35873
as	-8.35963
▁Europas	-8.37043
icht	-8.37271
to	-8.37391
▁Obwohl	-8.3741
▁Union	-8.37599
▁Frankreich	-8.37833
▁Preis	-8.37882
▁möglich	-8.3796
▁Unter	-8.37964
▁lange	-8.3797
▁schwer	-8.38033
keit	-8.38325
▁Führung	-8.38357
▁aller	-8.38405
▁System	-8.38629
▁bleiben	-8.39046
ill	-8.39065
2	-8.39118
8	-8.39262
▁ersten	-8.39525
▁Was	-8.39768
▁Bush	-8.39834
▁Staats	-8.399
politik	-8.39995
▁Gewalt	-8.40006
ot	-8.40073
▁welche	-8.40114
W	-8.40165
▁Reformen	-8.40493
▁öffentlichen	-8.40504
▁Volkswirtschaft	-8.40554
end	-8.40695
▁ganz	-8.40767
▁hoch	-8.41303
▁stellen	-8.41479
▁bereit	-8.41582
pf	-8.41584
▁weiterhin	-8.41776
▁Großbritannien	-8.41795
▁dessen	-8.41966
ik	-8.42269
▁weitere	-8.42272
▁derartige	-8.4256
▁Für	-8.42841
▁Bedeutung	-8.43116
▁daher	-8.43221
▁Während	-8.43393
▁sowohl	-8.43543
▁besser	-8.43704
▁tatsächlich	-8.43895
ul	-8.43969
N	-8.44031
cht	-8.44146
▁insbesondere	-8.44306
ex	-8.44377
▁Institutionen	-8.44464
▁Amerikas	-8.44538
är	-8.44581
▁fest	-8.44681
▁IWF	-8.44962
▁beispielsweise	-8.45018
▁I	-8.45039
▁genau	-8.45235
recht	-8.45296
▁vielen	-8.45525
▁wirklich	-8.45587
▁soll	-8.4568
her	-8.45997
▁fast	-8.46045
▁geben	-8.4611
▁Erfolg	-8.46138
fe	-8.46229
ad	-8.46309
▁klar	-8.46438
chen	-8.46858
▁Al	-8.46926
▁bleibt	-8.47015
land	-8.47015
▁Bürger	-8.4716
▁zunehmend	-8.47193
▁bedeutet	-8.47198
▁Einfluss	-8.47276
▁darin	-8.47311
▁Gesellschaft	-8.47695
kommen	-8.47747
▁Risiko	-8.47966
▁hatten	-8.48124
▁Europäischen	-8.48152
sichtlich	-8.48324
▁Steuer	-8.48457
▁Lösung	-8.4847
ier	-8.48483
lo	-8.48519
▁Türkei	-8.48524
3	-8.48831
teil	-8.48847
▁Westen	-8.48924
▁halten	-8.4894
▁stark	-8.49178
au	-8.49296
iz	-8.49315
trag	-8.49366
▁De	-8.4963
reich	-8.49788
▁Form	-8.49879
▁Interessen	-8.50006
▁Kinder	-8.50045
G	-8.50168
ell	-8.50576
ag	-8.5079
▁Le	-8.51052
ende	-8.51225
6	-8.51459
lei	-8.51468
▁kommen	-8.51486
▁Osten	-8.51582
▁chinesischen	-8.51686
▁seinem	-8.51826
▁f	-8.51887
ien	-8.52447
ierung	-8.52451
isten	-8.52453
▁Handels	-8.52613
▁wollen	-8.52645
äu	-8.5268
▁solche	-8.52762
ität	-8.52775
▁Beziehungen	-8.52847
vi	-8.53054
pa	-8.53501
igkeit	-8.53538
▁Inflation	-8.53628
mal	-8.53645
▁amerikanische	-8.53777
▁Präsidenten	-8.53913
▁ebenso	-8.53997
▁Sp	-8.54156
),	-8.54257
▁erreichen	-8.54367
id	-8.55042
gesichts	-8.551
▁3	-8.55171
ist	-8.55236
▁allen	-8.5583
▁gab	-8.56126
rat	-8.56138
ko	-8.56205
halten	-8.56341
▁dort	-8.56507
bei	-8.56576
▁Tatsache	-8.56624
▁weltweit	-8.56779
▁finden	-8.56787
▁Kampf	-8.57069
▁k	-8.57115
▁N	-8.57475
▁st	-8.57567
L	-8.57879
▁beim	-8.57906
▁Bereich	-8.58314
los	-8.58438
ze	-8.5879
obwohl	-8.5893
▁Ma	-8.59096
▁chinesische	-8.59167
▁erreicht	-8.59198
▁erst	-8.59244
gehen	-8.59428
▁jene	-8.59453
▁Kredit	-8.59509
ben	-8.59661
▁ihrem	-8.59666
▁Amerikaner	-8.59674
▁öffentliche	-8.59812
ierte	-8.59891
▁b	-8.60119
man	-8.60146
▁fünf	-8.61033
ug	-8.61034
▁lediglich	-8.61298
enden	-8.6147
▁Armut	-8.61768
bsp	-8.61866
▁h	-8.62056
▁schnell	-8.62421
geb	-8.62736
ha	-8.62798
▁ihm	-8.62906
ti	-8.62951
▁erhalten	-8.6297
▁nächsten	-8.63058
▁leben	-8.63077
▁Richtung	-8.63109
▁nie	-8.63163
▁Druck	-8.63312
▁Prozess	-8.63375
os	-8.63388
▁schaffen	-8.63392
▁ihn	-8.63426
▁Gemeinschaft	-8.6372
tra	-8.63732
▁europäische	-8.63767
9	-8.6377
die	-8.63834
ant	-8.64042
▁kaum	-8.64198
fl	-8.64253
▁Putin	-8.64351
▁nationalen	-8.64526
▁Sicherheits	-8.64751
▁Neu	-8.64896
ho	-8.64912
tet	-8.65039
▁macht	-8.65181
▁Wachstums	-8.65346
▁worden	-8.65786
legen	-8.65822
K	-8.66148
▁hohe	-8.66304
▁allein	-8.66547
▁Ausgaben	-8.66734
ken	-8.66745
▁sicher	-8.66957
▁gehen	-8.66981
▁Kontrolle	-8.66992
▁d	-8.67147
▁Ukraine	-8.67184
▁häufig	-8.67325
▁Ressourcen	-8.67631
▁stellt	-8.67663
▁R	-8.6772
▁daran	-8.67815
▁vier	-8.67856
▁darüber	-8.68043
hin	-8.68336
▁stärker	-8.68567
▁wohl	-8.68588
▁Risiken	-8.68676
▁Ich	-8.68829
▁Jahrhundert	-8.69089
▁notwendig	-8.69256
ach	-8.69326
▁Pro	-8.69429
▁kommt	-8.69507
▁eher	-8.69563
▁Ha	-8.69593
ett	-8.69637
ff	-8.69653
▁Bemühungen	-8.69755
▁re	-8.69931
▁Finanzkrise	-8.70202
mittel	-8.70253
▁warum	-8.70313
igt	-8.70408
▁schwierig	-8.70425
▁möglicherweise	-8.70495
om	-8.70827
▁Konflikt	-8.70951
▁Arbeit	-8.70999
▁zehn	-8.71022
▁Rezession	-8.71065
▁p	-8.71161
▁Ziele	-8.71174
▁hier	-8.71239
▁Grundlage	-8.71275
▁Strategie	-8.71321
▁Stabilität	-8.71506
▁ausge	-8.71516
sche	-8.71584
zen	-8.71613
▁erste	-8.71785
▁geführt	-8.72128
▁lässt	-8.72171
▁einzige	-8.72215
▁"	-8.72271
▁nehmen	-8.72469
▁heraus	-8.7265
all	-8.72695
▁Griechenland	-8.72728
▁Möglichkeit	-8.72867
▁Natürlich	-8.72915
▁Mal	-8.73011
▁Revolution	-8.73076
U	-8.73239
▁alles	-8.73269
▁wären	-8.7328
ak	-8.73319
▁Einkommen	-8.73598
lie	-8.73677
▁führt	-8.73691
▁neu	-8.73742
▁Rahmen	-8.73958
▁relativ	-8.73965
fall	-8.73991
▁Folgen	-8.74209
▁bevor	-8.74265
art	-8.74288
▁verhindern	-8.74495
▁bisher	-8.7466
▁Weltwirtschaft	-8.74895
▁Europäische	-8.74902
ber	-8.74971
ale	-8.74983
▁konnte	-8.75059
▁gute	-8.75169
▁hinter	-8.75278
▁Ansatz	-8.75303
▁Reform	-8.75583
tion	-8.75618
▁wider	-8.75716
▁Ent	-8.75752
bau	-8.75863
ei	-8.76001
▁keinen	-8.76052
▁liegen	-8.76221
▁oft	-8.76297
▁Angesicht	-8.76402
.“	-8.76497
▁L	-8.76517
▁besonders	-8.76564
▁unterstützen	-8.76644
▁Anteil	-8.76717
▁Hilfe	-8.76727
hi	-8.76844
▁auszu	-8.76852
о	-8.76874
▁Wahlen	-8.77102
swachstum	-8.77243
▁Haushalts	-8.77391
▁Nachfrage	-8.77586
▁natürlich	-8.77706
min	-8.7805
▁Wettbewerb	-8.78105
▁hätten	-8.78156
▁wichtige	-8.78256
▁wissen	-8.78308
ob	-8.7831
▁vergangene	-8.78363
▁bekannt	-8.78387
H	-8.78517
▁Gefahr	-8.78682
▁“	-8.7883
elt	-8.78961
▁unterschiedlich	-8.78996
ierten	-8.79122
▁unserer	-8.7928
wa	-8.79554
▁eigene	-8.79728
▁Durch	-8.79828
▁4	-8.7996
ere	-8.80065
▁versucht	-8.80247
ehr	-8.80261
▁Verfassung	-8.8037
▁Ch	-8.80489
j	-8.80562
▁Ba	-8.80596
▁Vergangenheit	-8.80754
▁größten	-8.80775
▁Ergebnis	-8.80818
▁Handel	-8.80819
th	-8.80844
“,	-8.80926
rei	-8.81006
▁jeder	-8.81017
▁gemacht	-8.81036
▁Jahres	-8.81213
▁Zahl	-8.8122
and	-8.81252
▁Spiel	-8.81474
▁Industrie	-8.81553
rie	-8.81723
rt	-8.8178
▁unterstützt	-8.81813
▁Fragen	-8.81943
op	-8.81954
▁Märkte	-8.82044
▁Haupt	-8.8213
uch	-8.82367
▁trotz	-8.82369
▁2008	-8.82388
wert	-8.82441
▁später	-8.82487
▁Grenzen	-8.82537
▁Ka	-8.82669
▁Freiheit	-8.82725
▁Syrien	-8.82876
ll	-8.83081
ia	-8.83116
▁Viele	-8.83171
ent	-8.83371
stellen	-8.83593
▁Situation	-8.83621
▁beide	-8.83779
acht	-8.83891
▁Asien	-8.84197
▁sehen	-8.84217
▁Zentralbank	-8.84222
▁w	-8.84669
▁20	-8.84675
▁Nationen	-8.84723
po	-8.85112
▁Pakistan	-8.85128
markt	-8.85322
▁dar	-8.85369
▁Hoffnung	-8.8555
halt	-8.85705
bel	-8.85969
▁Wähler	-8.85975
▁abzu	-8.86052
▁Schutz	-8.86172
▁Russlands	-8.86206
▁Parteien	-8.86332
▁derzeit	-8.86419
schlag	-8.86489
▁Nahen	-8.86499
lichkeit	-8.8669
hl	-8.86694
▁Mehrheit	-8.86762
▁helfen	-8.86829
▁Arbeits	-8.8721
▁neuer	-8.87268
▁her	-8.87406
spiel	-8.87418
▁Afghanistan	-8.87604
▁Führer	-8.87781
▁Sozial	-8.87787
per	-8.87837
▁abge	-8.87885
statt	-8.87901
▁handelt	-8.88062
gel	-8.88233
ass	-8.88333
▁Infrastruktur	-8.88386
sicht	-8.88575
▁Wasser	-8.88824
▁Kon	-8.88999
vor	-8.89009
▁Mitglieder	-8.89061
iger	-8.89149
▁z	-8.89161
▁gerade	-8.89438
▁Regime	-8.8963
▁anderer	-8.89662
satz	-8.89761
ger	-8.89871
▁betrachtet	-8.89878
v	-8.89914
Arbeitslosigkeit	-8.8996
ium	-8.90078
▁Seit	-8.90244
▁Ausland	-8.90308
▁erforderlich	-8.9041
▁EZB	-8.90499
▁zumindest	-8.90499
▁Frieden	-8.9051
▁genug	-8.90591
ka	-8.90649
ank	-8.90734
▁geworden	-8.90856
▁ko	-8.90901
▁hervor	-8.9095
▁hohen	-8.90995
▁2	-8.91129
▁größere	-8.91452
▁Afrika	-8.91468
▁Mo	-8.9164
▁Regulierung	-8.91663
▁Umwelt	-8.91764
▁politischer	-8.92214
▁Regierungs	-8.9225
▁größte	-8.92267
kehr	-8.92292
▁nämlich	-8.92296
▁höhere	-8.92402
▁weltweiten	-8.92552
▁wesentlich	-8.92659
▁entwickeln	-8.92841
▁Klima	-8.9285
▁Parlament	-8.92932
▁privaten	-8.93081
▁ihres	-8.93112
▁Seite	-8.93211
▁Schritt	-8.93293
▁National	-8.93362
▁Nicht	-8.9352
▁de	-8.93546
“.	-8.93672
▁lang	-8.93854
tritt	-8.93886
▁Höhe	-8.93932
▁Na	-8.9397
▁Fa	-8.94002
da	-8.94187
▁ange	-8.94188
gleich	-8.94337
ive	-8.94491
handel	-8.9458
▁Meinung	-8.94583
▁Gesundheits	-8.94585
ert	-8.94659
▁Öffentlichkeit	-8.9468
ich	-8.94718
▁Zusammenarbeit	-8.94779
▁Ausmaß	-8.94974
▁nationale	-8.95021
▁Außerdem	-8.95052
▁Wohlstand	-8.95155
▁1	-8.95264
▁Ro	-8.95302
▁Ho	-8.95327
▁Debatte	-8.95332
▁Antwort	-8.95332
▁gilt	-8.95332
▁gemeinsame	-8.95571
▁statt	-8.95575
▁russischen	-8.95622
▁Entscheidungen	-8.95686
▁Bo	-8.95829
▁Bildung	-8.96083
▁Jahrhunderts	-8.96308
▁5	-8.96316
ment	-8.96331
▁all	-8.9639
▁Zugang	-8.96395
▁Erholung	-8.96459
▁reichen	-8.96466
▁glauben	-8.96532
▁6	-8.96574
zi	-8.96636
▁Co	-8.96678
▁Italien	-8.96743
▁Gesundheit	-8.96751
▁Modell	-8.96768
system	-8.96868
▁habe	-8.969
voll	-8.9693
▁Interesse	-8.9708
▁NATO	-8.97599
▁erkennen	-8.97599
▁zeigt	-8.97661
▁erhöht	-8.9779
weise	-8.97792
▁jüngsten	-8.97975
▁Bezug	-8.98022
▁voll	-8.98234
▁Rück	-8.98279
▁Zinssätze	-8.98369
dem	-8.98395
▁will	-8.98547
▁Finanzierung	-8.98627
▁Veränderungen	-8.98699
▁Bedrohung	-8.99095
▁wichtig	-8.99211
▁Am	-8.9929
▁Entwicklungs	-8.99311
▁sagen	-8.99423
▁anzu	-8.99442
▁Produktion	-8.99454
▁J	-8.99493
▁menschliche	-8.99529
▁mag	-8.99642
wand	-8.99669
▁Se	-8.99747
▁Werte	-8.9977
▁Palästinenser	-9.00017
▁sollen	-9.00018
▁fördern	-9.00024
ruf	-9.00106
▁Kultur	-9.00115
▁Vertrauen	-9.00121
▁einigen	-9.00127
wissenschaftlich	-9.00148
bt	-9.0021
preise	-9.00386
▁Verantwortung	-9.00508
▁zeigen	-9.00509
ler	-9.00665
▁starke	-9.00799
▁erfolgreich	-9.00823
▁ebenfalls	-9.00904
▁Globalisierung	-9.01104
nahme	-9.01162
▁Investoren	-9.01199
ick	-9.01202
▁unbe	-9.01247
lu	-9.01317
▁Korruption	-9.01397
▁gar	-9.01502
ud	-9.01532
▁Folge	-9.01573
▁wirtschaftlich	-9.01716
▁seines	-9.01951
wie	-9.01965
kraft	-9.01982
▁Klimawandel	-9.02017
▁Angst	-9.02095
▁erhöhen	-9.02495
▁Anfang	-9.02548
▁Europäer	-9.02595
▁kam	-9.026
ster	-9.02903
▁Reaktion	-9.03248
nach	-9.03284
wei	-9.03371
macht	-9.03409
▁Bedingungen	-9.03419
▁Pa	-9.0376
igung	-9.03783
▁aktuellen	-9.03792
▁Medien	-9.03819
▁Hand	-9.04063
▁Opfer	-9.04114
▁tief	-9.04147
▁Wandel	-9.04216
▁langfristige	-9.04222
▁Preise	-9.04267
▁Lebens	-9.04338
▁Vo	-9.04366
geben	-9.04378
▁führte	-9.0438
▁Bericht	-9.04478
▁10	-9.04566
rau	-9.04908
▁Ägypten	-9.04933
▁verbunden	-9.04933
▁Gruppen	-9.04935
▁russische	-9.05047
▁braucht	-9.05139
▁UNO	-9.05163
▁gewesen	-9.05208
istische	-9.05343
weg	-9.05432
▁UN	-9.05618
go	-9.05816
▁leicht	-9.05823
fang	-9.05829
▁Schwellenländer	-9.06096
bare	-9.06147
▁Hälfte	-9.06383
▁Ergebnisse	-9.06404
▁Ko	-9.06464
ziehen	-9.06717
steuer	-9.06729
▁Brasilien	-9.06773
▁private	-9.06839
▁Ebene	-9.06917
▁Währung	-9.06921
▁Gegensatz	-9.07024
▁Verhandlungen	-9.07327
▁Dienstleistung	-9.07329
▁Fähigkeit	-9.0734
▁Amt	-9.07414
▁nichts	-9.07543
▁Anstieg	-9.07552
▁Vorteile	-9.07566
▁Ansicht	-9.0773
▁1990	-9.07854
▁Fed	-9.07856
▁nachdem	-9.08032
▁groß	-9.08064
▁Auto	-9.08186
▁Integration	-9.08279
.000	-9.0835
▁länger	-9.08385
ub	-9.08567
sländern	-9.08627
▁je	-9.08669
▁jährlich	-9.08761
▁Verhalten	-9.09027
ib	-9.09184
▁nötig	-9.0924
▁Verbesserung	-9.0924
▁Kommission	-9.09305
gang	-9.09365
▁He	-9.09374
▁Abkommen	-9.09552
▁zweite	-9.09615
isierung	-9.09628
▁Allerdings	-9.0967
▁Gegen	-9.0968
fa	-9.0969
▁Fehler	-9.09742
wo	-9.09942
▁Ebenso	-9.09994
länder	-9.10064
▁gleich	-9.10079
▁extrem	-9.10211
stehen	-9.10274
▁arabischen	-9.10334
do	-9.10342
über	-9.10396
nehmen	-9.10448
du	-9.10475
▁gleichzeitig	-9.10537
V	-9.10604
▁La	-9.10636
▁überhaupt	-9.10646
fach	-9.10649
▁ausländische	-9.10658
▁verloren	-9.10739
▁Einige	-9.1078
▁recht	-9.10789
pro	-9.10836
▁Reihe	-9.10864
▁Tag	-9.10895
▁Internet	-9.10981
▁entwickelt	-9.11117
▁brauchen	-9.11191
▁bestehen	-9.11304
▁Einsatz	-9.11306
▁Jahrzehnten	-9.1142
▁ziehen	-9.11532
che	-9.1159
▁Gruppe	-9.11596
▁offensichtlich	-9.11647
▁zukünftige	-9.11711
sfähigkeit	-9.11819
▁soziale	-9.11904
sehen	-9.11911
▁Versuch	-9.11957
▁Zusammenbruch	-9.11964
plan	-9.12106
▁Schaffung	-9.12292
▁Punkt	-9.12292
▁Ra	-9.12313
hen	-9.12355
▁schließlich	-9.12403
ic	-9.12425
▁Kredite	-9.12465
▁Waffen	-9.12474
krise	-9.12509
mut	-9.12562
▁verbessern	-9.12625
▁sorgen	-9.12628
fahren	-9.12704
▁Produktivität	-9.12847
zig	-9.12887
▁Daten	-9.13069
▁jede	-9.13289
▁Gesamt	-9.1329
▁spielen	-9.13335
▁höher	-9.13481
ard	-9.13607
▁Haushalte	-9.13655
gar	-9.13745
▁Terrorismus	-9.1376
ed	-9.13975
▁bekommen	-9.13986
ce	-9.14029
▁verringern	-9.14192
▁Zinsen	-9.14212
bereich	-9.14297
▁leisten	-9.14307
▁sozialen	-9.14309
▁Firmen	-9.14417
ow	-9.14498
▁Heute	-9.14531
▁paar	-9.14532
gi	-9.14598
▁letztlich	-9.14871
▁setzen	-9.14895
lage	-9.14931
▁einschließlich	-9.14964
▁Position	-9.14984
ba	-9.15036
sa	-9.15072
gabe	-9.15182
▁bieten	-9.15212
▁Beschäftigung	-9.15326
▁weiteren	-9.15431
▁Premierminister	-9.15555
▁Fortschritte	-9.1557
▁30	-9.15734
gestellt	-9.15743
▁erneut	-9.15784
▁bessere	-9.15882
▁Anzahl	-9.15933
▁vorher	-9.1595
sprech	-9.15976
eln	-9.16071
wirtschaft	-9.1608
▁dadurch	-9.16141
ok	-9.16178
druck	-9.16214
▁Spanien	-9.16243
tät	-9.16339
▁Gericht	-9.1636
▁Zudem	-9.16402
▁2010	-9.16473
▁verantwortlich	-9.16589
▁scheinen	-9.16605
▁konnten	-9.16659
▁eindeutig	-9.16705
▁Industrieländer	-9.1674
▁Schließlich	-9.16936
lang	-9.17164
form	-9.17283
▁kurz	-9.17347
org	-9.1745
▁Forschung	-9.17468
▁Br	-9.17489
▁15	-9.17583
▁staatlichen	-9.17658
▁frei	-9.17674
▁versch	-9.17679
att	-9.17709
stellung	-9.1772
▁Y	-9.17734
▁Fortschritt	-9.17853
▁Verfügung	-9.17868
Ver	-9.17869
▁Aufgabe	-9.17904
▁enorme	-9.18016
sländer	-9.1805
▁verfügt	-9.18102
▁langsam	-9.18116
rang	-9.18337
▁palästinensisch	-9.18394
gt	-9.18414
tik	-9.18425
arbeit	-9.18565
▁Gefühl	-9.18573
wer	-9.18779
▁momentan	-9.18809
amp	-9.18867
▁Kraft	-9.18924
▁Li	-9.18941
▁arbeiten	-9.18982
▁Plan	-9.19102
▁militärische	-9.19235
▁staatliche	-9.19273
ang	-9.19283
▁Darüber	-9.19283
Z	-9.19318
▁Groß	-9.1932
▁Rat	-9.19349
▁gebracht	-9.19365
▁gemeinsam	-9.19396
▁Notwendigkeit	-9.19401
isse	-9.19462
▁Männer	-9.1952
▁Weltkrieg	-9.19527
gegangen	-9.19579
▁Weltbank	-9.19584
ischer	-9.19616
▁Hamas	-9.1964
▁wichtiger	-9.19654
▁aktuelle	-9.19682
▁manche	-9.1989
▁begann	-9.19997
▁praktisch	-9.19997
reform	-9.20002
lt	-9.20113
▁Natur	-9.20125
ort	-9.20176
▁Vergleich	-9.20326
▁Regeln	-9.20332
▁18	-9.2038
▁besten	-9.20479
▁versuchen	-9.20482
isiert	-9.20568
&	-9.2059
▁diejenigen	-9.20597
stände	-9.20639
haft	-9.20679
▁Gesetz	-9.20702
ku	-9.20727
▁Tat	-9.20734
▁Thema	-9.20976
▁September	-9.21079
▁völlig	-9.21079
▁wichtigsten	-9.21133
▁Bereichen	-9.21192
▁l	-9.21196
▁gemeinsamen	-9.21237
▁Opposition	-9.21397
raum	-9.21416
▁verursacht	-9.21442
▁Hu	-9.2168
änge	-9.21693
▁direkt	-9.2172
krieg	-9.21752
▁50	-9.2177
▁gesamten	-9.21781
▁Gas	-9.21805
▁Chance	-9.2187
▁Möglichkeiten	-9.21886
▁Ökonomen	-9.21939
fer	-9.22094
if	-9.22255
▁rasch	-9.22356
▁Steuern	-9.22533
▁CO	-9.22601
▁Ar	-9.22659
▁politisch	-9.2269
▁verstehen	-9.22703
▁aufge	-9.22705
istischen	-9.22707
erweise	-9.22757
▁ermöglicht	-9.22788
leg	-9.23014
▁Erklärung	-9.23031
tel	-9.23054
▁Seiten	-9.23076
▁wodurch	-9.23173
up	-9.23215
pi	-9.23354
▁beitragen	-9.23409
essen	-9.23568
▁schützen	-9.23649
son	-9.23676
▁Bau	-9.23684
arm	-9.23732
▁grundlegende	-9.23738
▁steigen	-9.23857
sk	-9.24076
▁ändern	-9.24147
▁Bewegung	-9.24151
▁Krisen	-9.24268
▁gewählt	-9.24443
folge	-9.24524
▁of	-9.24675
▁Daher	-9.24714
▁New	-9.24739
lauf	-9.24822
00	-9.25016
verständlich	-9.25046
sam	-9.25204
▁Menschenrechte	-9.25258
▁2009	-9.25281
▁Warum	-9.25291
▁großer	-9.25406
▁Unabhängigkeit	-9.25406
▁Export	-9.25439
▁aufzu	-9.25548
▁demokratischen	-9.25563
greifen	-9.25617
▁Sa	-9.25651
▁Idee	-9.25652
pe	-9.25669
▁Kräfte	-9.2578
tre	-9.2583
▁Rechte	-9.25895
▁ermöglichen	-9.25908
einander	-9.25912
▁anders	-9.2593
▁Vereinte	-9.26063
inblick	-9.2608
▁Vorstellung	-9.26094
ap	-9.26264
▁Konsum	-9.26286
▁Nordkorea	-9.26288
▁Zusammenhang	-9.2629
▁jedes	-9.26303
fähig	-9.26392
▁ging	-9.26405
▁Behandlung	-9.26457
▁stand	-9.26588
▁Regel	-9.26638
▁finanzielle	-9.26695
▁bezeichnet	-9.26749
▁langfristigen	-9.26754
isieren	-9.26757
▁Friedens	-9.26868
ziel	-9.26891
▁deshalb	-9.269
schen	-9.26938
▁nahe	-9.27066
▁Förderung	-9.27095
▁inzwischen	-9.27096
▁verfügen	-9.27218
ph	-9.2726
▁Angriff	-9.27316
ktion	-9.27345
mäßig	-9.27346
▁wachsende	-9.27459
oll	-9.27491
anz	-9.27521
▁Verbraucher	-9.27534
▁Aufmerksamkeit	-9.27569
so	-9.27591
führen	-9.2761
▁Strategien	-9.27626
▁Trotz	-9.27814
co	-9.27884
ring	-9.28049
▁dringend	-9.28086
▁Familien	-9.28128
▁Konjunktur	-9.28166
▁gestellt	-9.28166
▁Arbeitsplätze	-9.28258
▁verstärkt	-9.28346
▁iranische	-9.28353
▁Gründe	-9.28394
▁Nutzen	-9.28519
▁Kern	-9.28933
lassen	-9.28982
mi	-9.29034
▁Dinge	-9.29147
va	-9.29202
▁Ungleichheit	-9.29391
gelegt	-9.29453
log	-9.29454
▁Mitte	-9.29465
▁Geldpolitik	-9.29481
setzen	-9.29512
▁Jahrzehnt	-9.29567
ress	-9.29587
ationen	-9.29614
sträger	-9.2962
▁Lateinamerika	-9.29654
▁Armen	-9.29663
ät	-9.29683
▁25	-9.29757
▁Wahrheit	-9.29785
▁erwartet	-9.29785
▁&#160;	-9.29854
spolitik	-9.30021
fassen	-9.30068
▁gewinnen	-9.30071
▁7	-9.3011
▁regionale	-9.30137
▁NEW	-9.30182
▁Zentralbanken	-9.3029
▁Ort	-9.303
▁Schwierigkeiten	-9.30301
kr	-9.30451
▁schlecht	-9.30595
▁Rest	-9.30667
▁Sieg	-9.30793
hilfe	-9.30931
▁Bis	-9.30966
▁Ordnung	-9.30979
▁Realität	-9.31011
▁heutigen	-9.31089
▁Vertrag	-9.31147
raten	-9.31229
▁Islam	-9.31293
▁Staates	-9.31326
immt	-9.31351
stoß	-9.31382
age	-9.31524
▁offen	-9.31532
▁Dennoch	-9.31648
▁durchaus	-9.31713
▁Währungs	-9.31748
▁ernst	-9.31813
▁Me	-9.31847
tz	-9.32092
▁beinahe	-9.32187
pt	-9.32192
▁To	-9.32308
▁Widerstand	-9.32451
▁weder	-9.32459
▁Atomwaffen	-9.32593
äre	-9.32596
selben	-9.32671
▁Ihre	-9.32685
▁ganzen	-9.32744
▁falsch	-9.32819
eb	-9.32823
▁meine	-9.32877
utz	-9.329
▁Fällen	-9.32943
▁Sektor	-9.33014
▁Monat	-9.33057
unternehmen	-9.33095
▁Beginn	-9.33137
In	-9.33175
▁g	-9.33207
▁aktiv	-9.33281
▁Atom	-9.3334
▁Zeitpunkt	-9.3334
▁betrachten	-9.33418
ünde	-9.33456
▁nutzen	-9.33547
des	-9.3357
▁Kongress	-9.33678
eckt	-9.33901
▁Jahrzehnte	-9.33937
▁dürfte	-9.33961
▁Programm	-9.33982
▁ließ	-9.34046
zahl	-9.34089
▁Mexiko	-9.34096
sweise	-9.34114
▁Einkommens	-9.34121
▁voraus	-9.34167
struktur	-9.3423
▁Luft	-9.34249
sagen	-9.34265
schi	-9.34342
▁Armee	-9.34375
▁Behörden	-9.34377
port	-9.3442
tu	-9.34557
▁darunter	-9.34662
tri	-9.34688
▁westlichen	-9.34759
▁teilweise	-9.34787
▁weiß	-9.34787
▁verbessert	-9.34788
▁Ausbildung	-9.34828
▁profitieren	-9.34925
▁Anpassung	-9.34925
▁demokratische	-9.3494
▁zentrale	-9.35116
▁Technologie	-9.35226
▁zweiten	-9.35297
▁solchen	-9.35322
▁bin	-9.35352
ki	-9.35515
▁lösen	-9.35569
wechsel	-9.35622
grenz	-9.3572
▁Wechselkurs	-9.36121
▁überall	-9.36204
▁Informationen	-9.36432
▁entwickelten	-9.36444
punkt	-9.36489
▁&	-9.36525
▁erklärt	-9.36531
▁Wissenschaft	-9.36615
setzung	-9.36632
fi	-9.36635
Regierung	-9.36653
ine	-9.36688
▁kürzlich	-9.36746
▁Kurs	-9.3676
▁Ja	-9.36811
unter	-9.36937
▁voran	-9.36986
leistung	-9.36996
▁Dieses	-9.37084
staat	-9.37163
▁vermeiden	-9.37171
▁unmittelbar	-9.37171
▁40	-9.3723
führung	-9.37266
war	-9.37436
▁bietet	-9.37455
nde	-9.37488
▁jedem	-9.37674
lock	-9.3768
aff	-9.37832
▁Saudi	-9.37883
▁2007	-9.37893
▁bewusst	-9.37898
▁geschaffen	-9.37931
▁Ta	-9.3795
leben	-9.38005
▁Ob	-9.38008
▁Anleihen	-9.38126
na	-9.38251
▁Menge	-9.38261
▁niemand	-9.38314
▁begrenzt	-9.38318
▁Pe	-9.38359
Dollar	-9.38381
▁Alle	-9.38453
▁größeren	-9.38485
▁tragen	-9.38569
staaten	-9.38571
▁Status	-9.38601
▁mehrere	-9.38676
ca	-9.38806
▁Investitions	-9.38832
▁Führungs	-9.38872
mit	-9.38993
▁2000	-9.39064
brechen	-9.39254
rich	-9.39277
▁Finanzsystem	-9.39467
▁einzu	-9.3953
▁erwarten	-9.39614
ließen	-9.39746
▁Haltung	-9.39759
▁Wei	-9.39786
ucht	-9.39791
wesen	-9.39895
lose	-9.399
▁Rückgang	-9.39922
▁vollständig	-9.40009
bringen	-9.40061
▁Monaten	-9.40155
▁gegeben	-9.40214
▁nächste	-9.40306
▁Zusammen	-9.40312
▁Gelegenheit	-9.40343
sitz	-9.40357
▁junge	-9.40472
kosten	-9.4053
ven	-9.40547
▁1980	-9.40637
ark	-9.40774
▁Buch	-9.40842
legt	-9.40897
tar	-9.40907
▁Nur	-9.40909
▁sechs	-9.40933
▁damals	-9.40933
▁Finanzmärkte	-9.40938
▁ausreichend	-9.41007
▁Krieges	-9.41094
Haushaltsdefizit	-9.41191
▁100	-9.4122
▁eigentlich	-9.41229
▁Je	-9.41281
▁Leistung	-9.41331
wir	-9.41345
aut	-9.41351
▁insgesamt	-9.41374
▁Technologien	-9.41498
▁Erst	-9.41524
▁verschiedenen	-9.41538
▁Minister	-9.41577
▁darum	-9.41582
gegeben	-9.41584
▁Di	-9.4163
▁britische	-9.41656
▁Krankheit	-9.41762
▁verfolgt	-9.4182
ili	-9.41996
▁alten	-9.42007
▁Ru	-9.4204
▁Wahrscheinlich	-9.42117
▁beruht	-9.42117
zeug	-9.42143
▁übernehmen	-9.42145
▁Gesellschaften	-9.42151
▁Polen	-9.42198
itt	-9.42252
▁Außenpolitik	-9.42255
▁mich	-9.42276
▁Billionen	-9.42347
prä	-9.424
reu	-9.42412
preis	-9.42412
▁konzentrieren	-9.42416
▁8	-9.4245
▁Barack	-9.42571
tro	-9.42603
qu	-9.42768
▁Einzel	-9.42781
▁Partner	-9.42837
bot	-9.42919
▁eng	-9.43079
▁al	-9.43141
bo	-9.43176
▁kleiner	-9.43273
ausgaben	-9.43307
▁Unternehmens	-9.43344
▁mir	-9.4335
▁Konflikte	-9.43352
▁All	-9.43409
ai	-9.43447
▁ehemaligen	-9.43498
▁erfordert	-9.4351
▁Fehl	-9.4352
▁Do	-9.43564
▁Botschaft	-9.43635
▁seien	-9.43666
▁Exporte	-9.43702
▁folgen	-9.4377
versorgung	-9.43894
setzt	-9.43897
frag	-9.43902
▁institutionelle	-9.43923
▁verlieren	-9.43925
▁Rechts	-9.43926
▁Depression	-9.44075
▁Erstens	-9.44116
▁jeden	-9.44163
elle	-9.44164
ton	-9.44219
▁Krankheiten	-9.44286
ord	-9.44333
▁Mangel	-9.44432
jahr	-9.44536
▁Hinsicht	-9.44625
▁Anreize	-9.44665
▁Not	-9.44691
▁Stadt	-9.44729
▁sieht	-9.44738
▁fallen	-9.44772
▁Putins	-9.44802
▁Südkorea	-9.44839
▁starken	-9.44844
▁treffen	-9.4485
▁Schuld	-9.44857
▁Immobilien	-9.44901
ga	-9.45064
▁verfolgen	-9.45302
2-	-9.45335
▁Regionen	-9.45373
▁Mann	-9.45391
▁stärken	-9.45459
▁Mu	-9.4547
Präsident	-9.45483
▁heißt	-9.45611
▁zudem	-9.45628
▁gezeigt	-9.45762
▁Organisation	-9.45775
▁Schlüssel	-9.45917
▁U	-9.4593
▁Schw	-9.4597
haltung	-9.46006
▁schlechte	-9.46119
▁Chancen	-9.46154
▁jüngste	-9.46195
▁gefährlich	-9.46267
kon	-9.464
Re	-9.46423
▁wegen	-9.46474
▁höheren	-9.46511
▁2001	-9.46551
▁unmöglich	-9.46578
weit	-9.46613
▁weltweite	-9.46656
▁Ri	-9.4667
▁Nachbarn	-9.46697
▁Faktoren	-9.46746
tum	-9.46884
▁Niveau	-9.47008
▁Zeiten	-9.4705
x	-9.47231
▁entscheiden	-9.4732
▁Privat	-9.47396
har	-9.47533
▁Arbeiter	-9.47556
stehende	-9.47582
▁fort	-9.4761
▁britischen	-9.4781
▁leiden	-9.47827
▁Umsetzung	-9.47833
▁tr	-9.47837
▁unser	-9.47866
▁einge	-9.47872
reg	-9.47926
kräfte	-9.47926
programm	-9.47947
▁militärischen	-9.48013
werk	-9.48104
▁benötigt	-9.4811
▁Arbeitskräfte	-9.48124
ika	-9.48161
▁echte	-9.48219
ppe	-9.48417
lieb	-9.48561
▁Mehr	-9.48659
▁Generation	-9.48666
▁Japans	-9.4867
kauf	-9.48696
▁entgegen	-9.48745
▁Leute	-9.48774
▁gewisse	-9.48801
▁Platz	-9.48837
▁außer	-9.48887
▁Vertreter	-9.48905
▁George	-9.48906
▁gesamte	-9.48908
stimmen	-9.48936
heim	-9.4896
denken	-9.48967
▁bedeutende	-9.48975
▁zuvor	-9.48999
▁Einführung	-9.49007
▁Wissenschaftler	-9.49081
▁Defizit	-9.49095
▁französische	-9.49138
▁bringt	-9.49147
▁letzte	-9.49211
▁außerhalb	-9.49229
▁Wer	-9.49237
▁bedeuten	-9.49311
▁Ereignisse	-9.49337
gesellschaftlich	-9.49362
▁kleine	-9.49469
▁rund	-9.49501
stoff	-9.49602
regierung	-9.49634
▁französischen	-9.49675
sektor	-9.49707
▁abhängig	-9.49743
geht	-9.49773
▁bald	-9.49794
▁9	-9.49949
io	-9.4996
▁niedrig	-9.50007
streben	-9.50011
▁Aufstieg	-9.50046
len	-9.50178
▁dagegen	-9.5038
▁Aktien	-9.50407
alter	-9.50519
▁ehemalige	-9.50577
▁komplexe	-9.50587
▁enormen	-9.50612
▁Zweifel	-9.50676
▁Sanktionen	-9.50676
Mitgliedsstaaten	-9.50682
▁Phase	-9.50839
▁Gesetze	-9.50925
tag	-9.50942
▁Wieder	-9.50956
oder	-9.50958
ativ	-9.51119
▁bestimmt	-9.51125
▁gesagt	-9.51149
▁verbreitet	-9.51169
▁beginnen	-9.51172
▁Terror	-9.51176
▁erster	-9.51234
▁kommenden	-9.51268
▁erklären	-9.51328
▁acht	-9.51464
▁Argentinien	-9.51492
▁YORK	-9.51492
▁Zweitens	-9.51556
▁Haus	-9.51593
▁getan	-9.51603
▁verlassen	-9.51663
bin	-9.51665
det	-9.51757
▁Truppen	-9.51758
genommen	-9.51867
▁strategische	-9.51871
▁bedarf	-9.51876
ären	-9.51923
▁Bild	-9.51947
sätze	-9.51953
▁Internationalen	-9.52138
▁2011	-9.52149
▁Ausdruck	-9.52223
▁12	-9.52296
▁Vision	-9.52314
▁Basis	-9.52317
▁gehört	-9.52383
▁Ex	-9.52392
▁Teilen	-9.52488
▁Großteil	-9.52508
▁erheblich	-9.52522
▁laut	-9.5264
▁behaupten	-9.52645
▁veröffentlicht	-9.52647
▁Personen	-9.52672
licher	-9.5268
▁gering	-9.52847
▁Verteidigungs	-9.52883
innen	-9.52946
▁halb	-9.53021
▁wichtigste	-9.53104
▁Hilfs	-9.53175
▁lag	-9.53286
▁verändert	-9.5331
ian	-9.53341
▁wichtigen	-9.53519
▁Kurz	-9.5352
leitet	-9.53533
▁Augen	-9.53613
▁Wissen	-9.53617
▁Sowjetunion	-9.53646
▁Annahme	-9.53736
▁Strom	-9.53815
uß	-9.53851
problem	-9.53857
▁Kalte	-9.53883
▁jener	-9.53931
ling	-9.53959
industrie	-9.53969
träge	-9.53971
▁Vielleicht	-9.5398
▁Sache	-9.54009
▁Geschäfts	-9.54082
▁wiederum	-9.54228
▁Sicht	-9.54367
▁wenige	-9.54456
▁senken	-9.54486
▁Organisationen	-9.54636
▁erklärte	-9.54742
▁Falle	-9.54765
▁Israels	-9.5478
▁Kreml	-9.54823
▁Mon	-9.54825
▁Umfang	-9.54879
gewalt	-9.55141
wachsen	-9.55192
kel	-9.55192
▁Rede	-9.55198
▁Tod	-9.5524
▁Ausnahme	-9.55251
▁spielt	-9.55258
▁Kandidaten	-9.5528
▁nachhaltige	-9.55304
▁dramatisch	-9.55332
▁gewährleisten	-9.55332
▁Po	-9.55415
ssystem	-9.55486
tan	-9.55507
▁angeblich	-9.55508
▁Gegenteil	-9.55535
▁Damit	-9.55539
▁Lo	-9.5559
ip	-9.55677
▁unabhängig	-9.55739
▁kurzem	-9.55752
kapital	-9.55832
▁investieren	-9.55844
rad	-9.55883
▁Erfahrung	-9.55907
▁Verbindung	-9.55943
schl	-9.55951
für	-9.55973
ack	-9.56004
▁gezwungen	-9.56015
test	-9.56038
▁befinden	-9.56096
▁Trotzdem	-9.56204
bildung	-9.56237
ari	-9.56326
▁armen	-9.56386
5%	-9.56415
▁Zwei	-9.56521
▁Republik	-9.5653
▁Religion	-9.56531
▁beschränkt	-9.56531
ator	-9.56635
kontroll	-9.56693
▁ähnliche	-9.56698
▁Qu	-9.56708
▁Verbrechen	-9.56786
▁60	-9.56814
▁schien	-9.56822
▁somit	-9.56892
▁derart	-9.56992
▁Unterschiede	-9.57001
▁ganze	-9.57195
▁Erhöhung	-9.57222
▁Ne	-9.57324
partei	-9.57324
▁kleinen	-9.57497
▁zugleich	-9.57537
▁finanziellen	-9.57632
hält	-9.5773
stellt	-9.57735
liegen	-9.57764
▁steigende	-9.57841
▁schneller	-9.57854
▁Gold	-9.5789
▁niedriger	-9.58165
cken	-9.58249
▁Libanon	-9.58268
einkommen	-9.58303
▁Schwäche	-9.58444
dienst	-9.58446
ou	-9.58459
▁blieb	-9.58467
▁Tage	-9.58468
▁Gläubiger	-9.58512
systeme	-9.58522
▁Einheit	-9.58552
▁reagieren	-9.5862
▁freien	-9.58635
▁beste	-9.58673
▁Innovation	-9.58743
▁geraten	-9.58754
▁Beziehung	-9.58783
feld	-9.58791
Arabien	-9.58796
oren	-9.58849
▁gleichen	-9.58897
▁Schaden	-9.58975
▁Linie	-9.58976
ordnung	-9.58977
zug	-9.58979
durchschnittlich	-9.59036
gruppen	-9.59078
▁früher	-9.59085
▁fiel	-9.59134
▁2012	-9.59149
ve	-9.59149
▁,,	-9.59241
&#160;	-9.59249
▁Koalition	-9.59278
▁Nord	-9.59315
▁verringert	-9.59326
▁Nahrungsmittel	-9.59326
▁Vermögenswerte	-9.59334
▁wachsenden	-9.59353
▁Zweck	-9.59503
▁akzeptieren	-9.59503
▁betroffen	-9.59503
▁Stimmen	-9.59514
bu	-9.5954
▁handeln	-9.59564
▁deutsche	-9.59625
▁entweder	-9.59681
▁alte	-9.59756
uh	-9.59829
▁Experten	-9.59859
▁ungefähr	-9.59859
▁funktioniert	-9.5986
▁Versprechen	-9.59861
▁darstellt	-9.59874
schluss	-9.59984
kal	-9.59992
fäll	-9.60008
ide	-9.60029
etz	-9.60036
▁Ideen	-9.60046
▁setzt	-9.60135
kan	-9.60151
gl	-9.60225
▁Schritte	-9.60225
▁Unsicherheit	-9.60243
▁Verlust	-9.60323
gra	-9.60328
▁Engagement	-9.60394
▁Schul	-9.60417
investitionen	-9.60428
▁internationaler	-9.60449
▁daraus	-9.60458
▁ja	-9.6046
▁Kontinent	-9.60568
▁2005	-9.60587
▁Zweiten	-9.60632
wachstum	-9.60678
▁zufolge	-9.60717
▁Struktur	-9.60726
netz	-9.60728
pol	-9.60738
▁Chinesen	-9.60753
inisterpräsident	-9.60754
▁Alternative	-9.61088
▁folgt	-9.61113
▁Patienten	-9.61192
sse	-9.61213
rate	-9.61255
▁Identität	-9.61294
▁Anleger	-9.61294
▁brachte	-9.61327
▁Dezember	-9.61474
▁Spannungen	-9.61524
▁behauptet	-9.61656
▁gegenwärtigen	-9.61665
▁Renten	-9.61671
sprozess	-9.61714
▁eingesetzt	-9.61741
▁Gegner	-9.61837
▁Ohne	-9.61839
gesch	-9.61977
▁Spar	-9.62116
▁größer	-9.62172
tru	-9.6218
fonds	-9.62193
▁erscheinen	-9.62205
▁Verhältnis	-9.62211
rechte	-9.62217
▁se	-9.62226
▁Miss	-9.62269
▁funktionieren	-9.62271
ht	-9.62309
▁nahm	-9.62315
▁Währungsfonds	-9.62393
An	-9.62509
krank	-9.62591
pan	-9.62637
▁entstehen	-9.62747
bild	-9.62874
ron	-9.62886
▁zusätzliche	-9.62903
▁Außen	-9.6293
▁Aktivitäten	-9.62945
holen	-9.6299
barkeit	-9.63031
▁einst	-9.63048
technologie	-9.63117
▁Studien	-9.63132
Ge	-9.63201
▁modernen	-9.63263
▁Funktion	-9.63301
▁Andere	-9.63367
▁Dabei	-9.63387
▁geringer	-9.63394
ani	-9.63478
▁bewegen	-9.63491
gebiet	-9.63492
▁glaubt	-9.63693
▁Clinton	-9.63855
zogen	-9.6386
▁Wo	-9.6388
▁Nun	-9.63938
▁Bar	-9.63968
▁vieler	-9.64017
▁hauptsächlich	-9.64041
▁Konsens	-9.64044
▁Rückkehr	-9.64067
▁Gu	-9.64144
▁Mai	-9.64207
▁Bekämpfung	-9.64227
▁manchmal	-9.64227
tisch	-9.64312
▁verwendet	-9.64343
▁Zahlung	-9.64383
baren	-9.64391
brach	-9.64433
▁langfristig	-9.64466
-20	-9.64478
▁Vorteil	-9.64511
▁legt	-9.64552
▁Lebensmittel	-9.64631
▁2004	-9.64799
▁Drittel	-9.6482
▁neues	-9.64853
▁80	-9.64959
fiz	-9.65001
▁Glauben	-9.6501
organisation	-9.65047
gesetz	-9.65127
▁Verluste	-9.65237
▁Verringerung	-9.65349
tlich	-9.65383
▁zunehmende	-9.65396
▁wer	-9.65455
▁Seine	-9.65479
tür	-9.65531
last	-9.65551
märkte	-9.65722
▁ständig	-9.65722
▁Konzept	-9.65726
▁Muslime	-9.65726
▁außerdem	-9.65742
▁westliche	-9.65769
St	-9.65779
0.000	-9.65799
fälle	-9.65832
▁Potenzial	-9.65915
ände	-9.6604
▁Mi	-9.66055
▁reduzieren	-9.66105
▁Bilanz	-9.66105
▁Verwaltung	-9.66105
▁nimmt	-9.6614
▁sprechen	-9.66165
amerikanischen	-9.66187
aktiv	-9.66191
▁anti	-9.66199
▁Sarkozy	-9.66295
▁entfernt	-9.66295
frei	-9.66316
▁The	-9.66388
gesetzt	-9.66391
banken	-9.66451
eine	-9.66478
▁gehören	-9.66539
▁verschiedene	-9.66564
▁japanischen	-9.66597
▁nukleare	-9.66675
▁gestiegen	-9.66676
▁Den	-9.66766
▁Raum	-9.66923
griff	-9.66999
▁Lösungen	-9.67043
▁Medikamente	-9.67074
▁Aufgrund	-9.67091
zustellen	-9.67226
Administration	-9.67249
risiko	-9.67249
▁Präsidentschaft	-9.67253
welt	-9.67265
▁einzelnen	-9.67331
▁erkannt	-9.67441
▁Boden	-9.67448
▁Geschäft	-9.67457
▁Arbeitsmarkt	-9.67473
▁japanische	-9.67609
▁Legitimität	-9.67633
▁Polizei	-9.67633
▁Tradition	-9.67633
▁Themen	-9.67641
▁deutschen	-9.67642
fallen	-9.67701
▁Obamas	-9.67738
Be	-9.67815
▁Drogen	-9.67826
▁Moment	-9.67915
Sch	-9.67983
▁Unterschied	-9.68079
▁positive	-9.6808
▁Produktions	-9.68185
▁Flüchtlinge	-9.68212
▁untergraben	-9.68212
▁Arbeitnehmer	-9.6822
▁anderswo	-9.68229
▁Namen	-9.68231
▁wiederholt	-9.68406
▁Lohn	-9.68441
ative	-9.6847
▁zer	-9.68485
▁konzentriert	-9.686
for	-9.68609
alität	-9.68626
▁darf	-9.68635
▁regionalen	-9.68667
▁Bauern	-9.68695
▁Projekt	-9.68776
▁Mar	-9.68782
▁konfrontiert	-9.68795
▁retten	-9.68797
will	-9.68864
▁Laut	-9.68884
▁70	-9.69038
▁allgemein	-9.69073
del	-9.69087
unwahrscheinlich	-9.69126
▁per	-9.69138
▁2006	-9.69197
sicherheit	-9.69345
▁Güter	-9.69381
▁Real	-9.69398
▁Volks	-9.69416
▁Straf	-9.69433
▁Umständen	-9.69452
▁gerecht	-9.69533
▁gekommen	-9.69607
gebracht	-9.69659
artig	-9.69664
geld	-9.6967
▁moderne	-9.69672
▁unseren	-9.69706
▁Bu	-9.69747
▁befindet	-9.69773
▁17	-9.69825
▁Süd	-9.69925
▁York	-9.6997
pul	-9.7002
tische	-9.70125
og	-9.70167
▁Zum	-9.70221
▁Volk	-9.7028
▁Leit	-9.70329
▁Ungleichgewicht	-9.70365
▁vermutlich	-9.70365
▁Partnerschaft	-9.70403
ure	-9.70411
▁erlebt	-9.70507
▁Stelle	-9.70553
▁allgemeine	-9.70582
▁Demokratien	-9.70641
zins	-9.70698
▁lokale	-9.70719
reichen	-9.70728
▁Quelle	-9.7075
▁Lockerung	-9.70761
▁Rettung	-9.70761
▁Untersuchung	-9.70761
▁Stärke	-9.70762
▁Amtszeit	-9.70762
▁Produkte	-9.70819
zugehen	-9.71017
▁erzielen	-9.71165
ellen	-9.7119
heben	-9.71316
▁Angebot	-9.71359
▁Kohle	-9.7136
▁gesehen	-9.71373
▁höchst	-9.71377
▁Maß	-9.71391
▁Frei	-9.71401
lagen	-9.71497
▁November	-9.71559
▁Leider	-9.71613
▁Massen	-9.71656
▁legen	-9.71685
▁hält	-9.71698
▁Per	-9.71796
▁kon	-9.71817
werfen	-9.71834
▁Landwirtschaft	-9.71834
▁lautet	-9.71854
▁Kriegs	-9.71861
▁Größe	-9.7196
▁gegenseitig	-9.72018
kul	-9.72072
▁wahr	-9.72076
▁genannten	-9.72085
▁Argument	-9.72106
▁spät	-9.72106
tzt	-9.72153
wi	-9.72196
▁Initiative	-9.72339
▁Umfeld	-9.72402
tal	-9.72472
▁erzielt	-9.72573
▁stimmt	-9.72595
▁Diskussion	-9.72597
▁Gründen	-9.72701
▁Alter	-9.72762
gewicht	-9.72765
▁Fonds	-9.72768
▁finanziert	-9.72773
▁Bildungs	-9.72828
fasst	-9.72843
ange	-9.72956
▁steigern	-9.7297
▁Monate	-9.72994
▁durchgeführt	-9.73074
▁unabhängige	-9.73107
▁Gut	-9.73171
▁selten	-9.73176
▁Gleichgewicht	-9.73179
ierende	-9.73199
▁Instabilität	-9.73201
ke	-9.73231
▁freie	-9.73254
entwicklung	-9.73305
wende	-9.73338
▁Löhne	-9.73377
▁mindestens	-9.73377
▁Gen	-9.73386
▁ähnlich	-9.73407
▁ernsthafte	-9.73424
führer	-9.73501
▁Mitglied	-9.73553
▁2013	-9.73581
▁medizinische	-9.73585
▁Gespräche	-9.73645
▁weiterer	-9.73683
▁Stattdessen	-9.73786
▁Aussichten	-9.73809
▁Wochen	-9.73838
▁angeht	-9.73849
programme	-9.73855
▁sagte	-9.73911
blick	-9.73913
▁Pl	-9.73966
▁zunächst	-9.73991
▁Forderungen	-9.74152
schreiben	-9.74211
▁derartigen	-9.74267
▁ausgesetzt	-9.74272
▁Forschungs	-9.74284
▁Theorie	-9.74343
hu	-9.74351
▁globaler	-9.74375
▁umfassende	-9.74516
schnitt	-9.74548
▁Anti	-9.74577
▁zahlreiche	-9.74612
minister	-9.74676
▁Verbündeten	-9.74697
▁Kar	-9.74791
▁Waren	-9.74827
▁jungen	-9.74844
▁darstellen	-9.74851
politische	-9.74913
▁Schicksal	-9.75022
kredit	-9.75022
▁möchte	-9.75031
▁Teile	-9.75067
lau	-9.75072
▁Beitrag	-9.75112
zunehmen	-9.75141
▁unver	-9.75183
J	-9.75192
▁Reserve	-9.75238
▁Noch	-9.7526
▁bilden	-9.75266
▁offizielle	-9.75625
▁drastisch	-9.75645
▁herrscht	-9.75645
▁schw	-9.75653
▁miteinander	-9.75663
▁Straßen	-9.75688
▁Indiens	-9.75707
▁Programme	-9.75769
▁führende	-9.75787
▁London	-9.75854
▁argumentiert	-9.75856
▁John	-9.75875
▁Terroristen	-9.7588
▁Währungen	-9.75901
▁frühen	-9.75936
Länder	-9.76016
zeichnet	-9.76026
▁Informations	-9.76034
▁erscheint	-9.76064
▁vorhanden	-9.76066
▁Her	-9.761
▁nationaler	-9.7623
behörde	-9.76262
▁Voraussetzung	-9.76273
▁General	-9.76274
▁ausländischen	-9.76479
schutz	-9.76499
▁Washington	-9.76588
▁geringe	-9.76594
lf	-9.76609
oni	-9.76661
▁Georgien	-9.76694
▁Kosovo	-9.76694
▁vielmehr	-9.76694
produktion	-9.76719
▁früheren	-9.76725
▁16	-9.76739
▁Ca	-9.76749
zel	-9.76811
ja	-9.76834
treten	-9.76847
▁vorgeschlagen	-9.76862
▁zahlen	-9.76866
▁Verständnis	-9.76904
▁bestimmte	-9.76908
▁Bundes	-9.76947
▁fordert	-9.76955
▁Gewinne	-9.76959
▁bewältigen	-9.77116
▁Fernseh	-9.77117
▁Prinzipien	-9.77137
nden	-9.77144
▁Kapitalismus	-9.77244
erung	-9.77334
▁kaufen	-9.77373
▁massive	-9.77374
▁Anstrengungen	-9.77398
▁Kompromiss	-9.7754
bewegung	-9.77542
schloss	-9.7758
▁entscheidende	-9.77621
▁Ist	-9.77727
▁stellte	-9.77738
▁Hunger	-9.77764
▁Regierungschefs	-9.77966
▁Trend	-9.77993
▁religiöse	-9.7803
pel	-9.78061
▁Veränderung	-9.7811
▁Überwachung	-9.7818
▁grundlegenden	-9.78315
▁Herz	-9.78321
▁dürfen	-9.78394
▁verhindert	-9.78394
▁Regimes	-9.78412
▁Wege	-9.78434
▁Frau	-9.78458
wohl	-9.78487
▁Direkt	-9.78609
▁Libyen	-9.78609
▁jährliche	-9.78636
▁entschieden	-9.78701
▁Vereinbarung	-9.78824
▁technologische	-9.78824
▁Fest	-9.78848
▁erweisen	-9.78874
▁Ersparnisse	-9.78902
zuhalten	-9.78945
▁zwingen	-9.79039
▁Juli	-9.79063
▁bestand	-9.7916
▁musste	-9.79164
▁bilaterale	-9.79255
▁Wirkung	-9.79257
selbe	-9.79385
▁gehalten	-9.79391
produkt	-9.79404
▁erhebliche	-9.79416
▁Anders	-9.79458
▁Blick	-9.79472
effekt	-9.79472
▁fand	-9.79537
handlung	-9.79603
▁Absicht	-9.7961
schuld	-9.79619
▁Intervention	-9.7965
▁Sollte	-9.79704
▁Finanzsektor	-9.79745
▁jenen	-9.79759
gewinn	-9.79941
alten	-9.8002
defizit	-9.8009
▁Kopf	-9.80098
▁genommen	-9.80165
leid	-9.80179
▁Vorschlag	-9.80267
▁Herrschaft	-9.80342
iti	-9.8044
▁richtig	-9.80471
▁machte	-9.80482
▁Ost	-9.80489
▁Kritik	-9.80504
▁syrische	-9.80561
zieht	-9.80561
▁finanzieren	-9.80562
▁Besuch	-9.80564
▁Kom	-9.8057
▁wirksam	-9.8058
▁führenden	-9.80692
▁bloß	-9.8078
▁Juni	-9.80781
▁moralische	-9.80913
the	-9.80982
▁argumentieren	-9.81
▁normalerweise	-9.81
▁hielt	-9.81001
▁Dem	-9.81014
▁trotzdem	-9.81035
▁öffentlich	-9.81042
▁dienen	-9.81079
▁90	-9.81111
ana	-9.81167
▁Defizite	-9.81178
▁Sitz	-9.81224
▁Leistungsbilanz	-9.81248
ong	-9.81261
▁Staatsanleihen	-9.81312
▁Erwartungen	-9.81379
wahl	-9.81397
drücken	-9.81441
▁Märkten	-9.81468
▁Nation	-9.81488
gab	-9.81533
▁Chef	-9.81542
▁Abhängigkeit	-9.81662
▁Gleichzeitig	-9.81662
▁Versicherung	-9.81697
▁Leistungen	-9.81699
▁hundert	-9.81713
äl	-9.81784
ult	-9.81831
▁Wohl	-9.81878
▁Erwärmung	-9.81884
▁lernen	-9.81888
▁Durchschnitt	-9.81939
▁Gleich	-9.82067
▁verpflichtet	-9.82106
▁jemand	-9.82108
▁2003	-9.8212
▁asiatische	-9.8219
schläge	-9.82218
▁bezahlen	-9.82458
▁Ökonomie	-9.82467
lin	-9.82477
geschäft	-9.82552
▁äußerst	-9.82552
▁Einnahmen	-9.82555
▁überzeugt	-9.82557
▁Hände	-9.82601
▁Überdi	-9.82639
trieb	-9.82762
▁Bereitschaft	-9.82776
▁Steigerung	-9.82776
▁beenden	-9.82819
räumen	-9.82895
▁fr	-9.82968
nehm	-9.83035
je	-9.83095
▁multilaterale	-9.83225
ländern	-9.83287
les	-9.8333
▁Verfahren	-9.83366
▁Familie	-9.83377
▁El	-9.83378
▁Kindern	-9.83422
▁Prinzip	-9.83428
▁näher	-9.8345
▁Wunsch	-9.8345
Die	-9.83535
gericht	-9.83592
▁israelischen	-9.83616
▁Kauf	-9.83625
20	-9.83645
▁Einigung	-9.83658
▁beigetragen	-9.83676
▁schließen	-9.83715
falls	-9.83802
▁gesch	-9.83831
▁Verteidigung	-9.83859
sucht	-9.83921
▁Universität	-9.83949
▁Nachrichten	-9.83967
▁fehlt	-9.83973
▁Erfahrungen	-9.84045
rus	-9.84116
▁geprägt	-9.84129
▁ursprünglich	-9.84129
▁Beitritt	-9.84165
▁Pri	-9.8417
▁Russen	-9.84357
arbeitet	-9.84362
▁hoffen	-9.84444
hy	-9.84517
▁anhaltende	-9.84557
▁Scheitern	-9.84584
▁offenbar	-9.84674
▁Worten	-9.84699
▁Finanzminister	-9.847
▁Haushalt	-9.84708
▁Sinn	-9.84717
▁Gewinn	-9.84754
▁Anhänger	-9.84812
▁genauso	-9.84858
▁Grenze	-9.84926
▁stieg	-9.8504
▁Behauptung	-9.85041
▁Federal	-9.85042
▁klare	-9.85053
fluss	-9.8518
▁Wa	-9.85181
▁nahezu	-9.85275
verbrauch	-9.85295
▁Nachde	-9.853
▁eingeführt	-9.85333
▁Effekt	-9.855
▁bezahlt	-9.85506
▁Hypotheken	-9.85587
▁sah	-9.85626
tor	-9.8564
ris	-9.85647
▁ernsthaft	-9.85702
▁passiert	-9.85734
▁Manche	-9.85736
▁Überleben	-9.8577
▁hinzu	-9.85889
▁Woche	-9.85949
▁Saddam	-9.85961
▁absolut	-9.85961
▁überwiegend	-9.85961
▁Qualität	-9.8597
ek	-9.85975
▁traditionellen	-9.85978
mar	-9.86054
▁Akt	-9.86095
▁Akteure	-9.86151
ov	-9.86166
▁Sorge	-9.86172
▁Dynamik	-9.86193
▁Agenda	-9.86193
amerikanische	-9.86219
▁Zeitraum	-9.86326
▁Taiwan	-9.86425
seite	-9.86447
▁enorm	-9.86457
getrieben	-9.865
▁Grad	-9.86521
▁Katastrophe	-9.86521
▁stärkere	-9.8655
▁fossile	-9.86658
▁plötzlich	-9.86658
grund	-9.86841
teilung	-9.86864
▁Studie	-9.86866
▁Stärkung	-9.86891
steuern	-9.8694
zahlen	-9.8707
▁Fähigkeiten	-9.87094
uf	-9.87123
▁Jetzt	-9.87134
▁irgendeine	-9.87143
gesellschaft	-9.87241
hört	-9.87256
▁interne	-9.87296
systems	-9.87328
▁stabil	-9.87344
▁größtenteils	-9.8736
▁Beide	-9.87377
▁freilich	-9.87453
ial	-9.87509
wendet	-9.87512
gruppe	-9.87534
▁Meer	-9.87573
▁entscheidender	-9.8758
▁Notenbank	-9.87582
▁müsste	-9.8759
▁1970	-9.87593
▁Werk	-9.87603
▁Dazu	-9.87603
▁Lu	-9.8764
tat	-9.87732
▁realen	-9.87755
▁Körper	-9.87829
▁Souveränität	-9.87829
▁Zunächst	-9.87829
▁Hause	-9.87846
▁hart	-9.87847
one	-9.87944
▁direkte	-9.87995
▁entsprechend	-9.88027
▁Geist	-9.88032
▁Übergang	-9.88043
▁Hongkong	-9.88064
▁Verbreitung	-9.88064
▁kämpfen	-9.88082
▁Entwicklungen	-9.88089
ging	-9.88139
sh	-9.88144
Politik	-9.88207
▁effektiv	-9.88278
▁Gerechtigkeit	-9.88301
werte	-9.88426
▁richtige	-9.88493
▁Sprache	-9.88506
▁Anzeichen	-9.88538
▁Irland	-9.88538
sprach	-9.88573
losigkeit	-9.88628
geschlagen	-9.88661
▁sinnvoll	-9.88775
▁März	-9.88775
▁Vermögens	-9.88799
▁Ölpreise	-9.88887
versicherung	-9.88922
istisch	-9.88922
cher	-9.88961
bedingungen	-9.89013
▁Senkung	-9.89013
▁mögen	-9.89013
▁Option	-9.89013
ust	-9.89024
▁Konferenz	-9.8904
▁real	-9.89056
▁strategischen	-9.89106
▁angesehen	-9.89224
▁reagiert	-9.89252
▁dritte	-9.89276
▁Maße	-9.8929
▁kosten	-9.89372
▁Aufbau	-9.89383
▁Faktor	-9.89413
▁schwieriger	-9.89434
wirken	-9.89465
▁niemals	-9.89493
▁strukturelle	-9.89496
▁Staatsschulden	-9.8951
▁Linke	-9.89513
▁Arten	-9.89513
▁Tier	-9.89586
▁historische	-9.89645
▁Wahlkampf	-9.89654
tischen	-9.89657
▁geschehen	-9.89731
fragen	-9.89735
niveau	-9.89742
wirkung	-9.89752
Ko	-9.89755
▁Städte	-9.89764
zugeben	-9.89765
ond	-9.89793
▁erfolgreiche	-9.89924
▁makroökonomisch	-9.89971
▁Ausweitung	-9.89972
▁erfüllen	-9.89973
▁Beamte	-9.89989
▁bestehenden	-9.90072
▁griechischen	-9.90102
▁Glaubwürdigkeit	-9.90212
▁verstärken	-9.90213
▁Wind	-9.90217
berg	-9.90393
ökonom	-9.90446
▁Januar	-9.90454
▁Nuklear	-9.90454
▁Computer	-9.90454
▁zugrunde	-9.90456
▁spiegelt	-9.90459
▁13	-9.90475
▁israelische	-9.90509
▁religiösen	-9.9051
finanzierung	-9.90573
▁Beobachter	-9.90696
▁Dialog	-9.90696
▁Soldaten	-9.90696
▁verändern	-9.90696
▁weg	-9.90708
▁Menschenrechts	-9.90711
▁wollte	-9.90746
bank	-9.90828
inter	-9.90844
▁gleiche	-9.90884
▁rein	-9.90938
quantitative	-9.90939
▁Indonesien	-9.90939
▁beteiligt	-9.90939
verlust	-9.90943
▁Zins	-9.90964
wunder	-9.90977
▁Proteste	-9.90989
▁Internationale	-9.91003
zwei	-9.91011
▁Sinne	-9.91093
sicher	-9.91131
Wachstum	-9.91132
▁Mitarbeiter	-9.91206
aktion	-9.91216
▁Falls	-9.9124
▁14	-9.91244
▁Verpflichtungen	-9.91249
▁Person	-9.91326
▁schlimmer	-9.91342
isierte	-9.91363
maßnahmen	-9.9154
▁danach	-9.91547
▁mein	-9.91596
▁Priorität	-9.91637
Ä	-9.9167
▁Analyse	-9.91671
▁Gaza	-9.91671
▁dennoch	-9.91671
▁hoher	-9.91674
▁Währungsunion	-9.91677
▁Hier	-9.91775
drückt	-9.91901
kämpft	-9.91916
▁entschlossen	-9.91916
▁Israelis	-9.91969
▁Inflations	-9.91998
▁erwiesen	-9.92072
▁Universitäten	-9.9211
▁Wachstumsrate	-9.92161
▁anerkannt	-9.92161
▁solcher	-9.92201
lohn	-9.9224
machen	-9.92297
finanz	-9.92377
▁beeinflussen	-9.92408
▁mächtige	-9.92462
wirtschaftliche	-9.92486
▁umgesetzt	-9.92542
za	-9.92568
▁Rand	-9.92573
▁gefährdet	-9.92655
▁verurteilt	-9.92655
Vorsitzende	-9.92682
▁Sorgen	-9.92689
ay	-9.92782
cha	-9.92813
stecken	-9.92838
fern	-9.92859
▁gefallen	-9.93037
▁Systems	-9.93037
▁streng	-9.93059
▁guten	-9.93081
▁bestimmen	-9.93101
▁Heimat	-9.9315
▁Kommunismus	-9.9315
▁begonnen	-9.9315
▁schafft	-9.93151
▁bekämpfen	-9.93152
▁Willen	-9.93155
▁meinen	-9.93195
▁Ökonomien	-9.93246
▁Weiter	-9.93247
sbehörden	-9.93249
▁Kind	-9.93278
▁gewissen	-9.9333
▁letzter	-9.93348
▁findet	-9.93399
▁jeweiligen	-9.93399
▁endlich	-9.93405
▁Malaria	-9.93407
steht	-9.93409
▁meiner	-9.93417
▁Kreditvergabe	-9.93648
▁Republikaner	-9.9365
▁Summe	-9.93651
alismus	-9.93861
energie	-9.93888
▁HIV	-9.93898
würdig	-9.93911
ate	-9.94039
▁Gefängnis	-9.94149
▁müssten	-9.94153
käufe	-9.94157
▁Verbrauch	-9.94217
▁niedrigen	-9.9427
bruch	-9.94327
▁War	-9.94342
▁arabische	-9.94362
schuldig	-9.94428
▁stabile	-9.9443
gelassen	-9.94464
▁Gründung	-9.94652
▁entspricht	-9.94652
▁beruhen	-9.94652
▁hängt	-9.94662
▁sonst	-9.94709
▁Wechselkurse	-9.94883
tausend	-9.94891
▁Anerkennung	-9.94905
▁Ideologie	-9.94905
▁Wirklichkeit	-9.94905
▁vorbei	-9.94924
▁Subventionen	-9.94936
▁harte	-9.95012
▁allgemeinen	-9.95025
möglich	-9.95068
▁Treffen	-9.95124
▁2015	-9.95158
▁Kombination	-9.95158
▁getroffen	-9.95158
▁Gang	-9.95174
▁Anspruch	-9.95174
▁Paris	-9.95174
▁vertreten	-9.95328
▁bedroht	-9.95412
▁externe	-9.95412
▁mussten	-9.95412
lebt	-9.95413
▁Test	-9.9546
▁entscheidend	-9.95577
wandel	-9.95624
▁besondere	-9.95666
▁Krebs	-9.95666
▁einzigen	-9.95754
▁Verbindungen	-9.95827
dauer	-9.95827
▁denken	-9.95919
▁Studenten	-9.95921
▁Pläne	-9.95922
▁jemals	-9.95922
liberal	-9.9594
▁Bürgerkrieg	-9.95965
▁Statt	-9.96011
▁könne	-9.96063
▁Konsequenzen	-9.96085
▁technische	-9.96143
▁offiziellen	-9.96171
▁gescheitert	-9.96177
▁Würde	-9.96177
▁werde	-9.96195
▁islamischen	-9.96272
▁einzelne	-9.96327
ächt	-9.96363
anischen	-9.964
blase	-9.96422
▁Glück	-9.96433
▁Infolgedessen	-9.96433
▁Überzeugung	-9.96434
▁Front	-9.96435
▁verlangt	-9.96441
▁Freihandel	-9.9645
▁Su	-9.96475
frage	-9.96555
▁Gebiet	-9.96579
▁reale	-9.96635
freiheit	-9.96643
▁Osteuropa	-9.96695
haben	-9.96854
▁rück	-9.96876
▁Schluss	-9.96949
▁Stil	-9.96976
▁Jede	-9.97012
▁anderes	-9.97035
▁überzeugen	-9.9704
▁fordern	-9.97048
▁Lehre	-9.97067
arbeiten	-9.97085
losen	-9.97182
▁fehl	-9.97188
▁geldpolitische	-9.97209
hebung	-9.97212
chi	-9.97271
▁Grenz	-9.97365
▁ähnlicher	-9.9737
▁Deutschlands	-9.97407
▁Beweis	-9.97423
position	-9.97466
▁mögliche	-9.97527
streit	-9.9754
▁gegenwärtige	-9.97545
▁ergreifen	-9.97587
▁sieben	-9.97612
▁Westens	-9.97649
▁Ansichten	-9.97676
▁Tri	-9.97696
▁kurzfristig	-9.97819
▁Änderungen	-9.97834
▁Investition	-9.97863
▁gegenwärtig	-9.97865
▁Solidarität	-9.97986
▁Kooperation	-9.97991
▁Unternehmer	-9.98
▁neben	-9.98014
▁entsprechende	-9.98075
greif	-9.98098
▁fällt	-9.98113
▁traditionelle	-9.98132
▁Dienst	-9.98165
▁Also	-9.98236
▁suchen	-9.98249
▁Chaos	-9.98262
▁20.	-9.98269
teilen	-9.98443
▁Rohstoff	-9.98498
▁Häuser	-9.98509
▁Rendite	-9.98509
▁überraschend	-9.98639
▁Elite	-9.98699
euer	-9.98704
▁Anwendung	-9.98802
▁Wohn	-9.98811
▁erfordern	-9.98912
▁umzusetzen	-9.98987
▁Taliban	-9.99034
▁Presse	-9.99035
▁Begriff	-9.99133
▁sagt	-9.99139
lager	-9.99185
▁Hisbollah	-9.99298
▁überwinden	-9.99302
▁Anreiz	-9.99334
▁gesetzt	-9.99432
ci	-9.99455
▁diplomatische	-9.99502
▁Jo	-9.99549
▁Liberalisierung	-9.99563
▁Nigeria	-9.99563
▁aufzubauen	-9.99563
▁post	-9.99585
srate	-9.99629
▁Bedenken	-9.9968
geh	-9.99708
▁Deflation	-9.99828
▁Blair	-9.99828
▁verfügbar	-9.99828
uk	-9.99863
▁Anlage	-9.99899
▁Großen	-9.9991
▁Aufsicht	-9.9995
europäisch	-10.0002
▁ergeben	-10.0008
▁Kritiker	-10.0016
▁Wort	-10.0019
▁West	-10.0026
probleme	-10.0029
▁Global	-10.0035
▁investiert	-10.0036
▁Car	-10.0049
▁Zuge	-10.0053
▁sicherzustellen	-10.0066
▁genannte	-10.007
▁Denn	-10.0072
▁rasche	-10.0078
▁Hoch	-10.008
eben	-10.0081
▁schlechter	-10.0088
▁akzeptiert	-10.009
▁autoritäre	-10.009
vertrauen	-10.009
gezogen	-10.0093
▁Nationalismus	-10.0098
▁Zunahme	-10.0099
mächte	-10.0103
wertet	-10.0115
kultur	-10.0117
▁steigt	-10.0117
▁niedrige	-10.0118
▁Asiens	-10.0119
Ab	-10.0121
Mitglieder	-10.0127
▁schwache	-10.013
▁Tages	-10.0131
▁Gipfel	-10.0132
▁gefährliche	-10.0137
▁Klimawandels	-10.0139
finden	-10.0148
ina	-10.0151
▁einsetzen	-10.0155
▁allzu	-10.0157
▁umgehen	-10.0158
rot	-10.0161
eshalb	-10.0168
sstrategie	-10.0168
▁ausschließlich	-10.017
▁bestätigt	-10.017
▁historischen	-10.018
▁Marktes	-10.0193
swert	-10.0195
hand	-10.0197
▁Niedergang	-10.0198
▁Diplomatie	-10.0198
▁Dollars	-10.0198
▁rechtliche	-10.0202
▁2002	-10.0204
▁steigenden	-10.0208
▁profitiert	-10.0225
▁Oder	-10.0243
▁Schock	-10.0252
▁Netzwerk	-10.0252
▁gewaltige	-10.0256
▁Umgang	-10.0261
▁öffentlicher	-10.0267
▁einiger	-10.0269
▁aufrecht	-10.0274
▁Ni	-10.0275
▁schwach	-10.0287
Wirtschaft	-10.0297
▁reicht	-10.0303
▁erhielt	-10.0307
▁Arbeitsplatz	-10.0308
▁Paul	-10.0314
▁Nutzung	-10.0317
getreten	-10.0321
▁kamen	-10.033
▁Ku	-10.0332
ilität	-10.0333
▁Mädchen	-10.0334
▁beträgt	-10.0334
▁kulturelle	-10.0334
▁Systeme	-10.0337
▁Südafrika	-10.0337
ac	-10.034
▁11.	-10.0343
▁Du	-10.035
▁Kampagne	-10.0356
▁Prä	-10.0362
▁stattfinden	-10.0363
▁Menschheit	-10.0365
▁Juden	-10.037
▁Kan	-10.0371
▁wachsen	-10.0373
▁indischen	-10.0381
▁tat	-10.0383
▁Ad	-10.0386
▁Reg	-10.0389
▁CAMBRIDGE	-10.0389
▁Steuerzahler	-10.0389
▁Richter	-10.0389
▁verkaufen	-10.039
▁Verhandlungs	-10.0391
▁unbedingt	-10.0393
▁Neben	-10.0395
haus	-10.0403
ast	-10.0403
▁außen	-10.0403
gemeinschaft	-10.0408
▁Last	-10.0409
heil	-10.0416
▁organisiert	-10.0417
▁Betracht	-10.0417
▁anschließend	-10.0417
▁Autorität	-10.0417
▁mangelnde	-10.0417
▁Laufe	-10.0423
▁Generationen	-10.0431
▁Kim	-10.0433
▁fühlen	-10.0445
▁Ton	-10.0451
▁Besitz	-10.0458
.&#160;	-10.0464
ücke	-10.0465
▁arme	-10.0467
▁droht	-10.0473
▁reduziert	-10.0473
▁geopolitische	-10.0473
linie	-10.0477
▁konservative	-10.0485
scht	-10.05
▁ägyptische	-10.0501
hafte	-10.0517
rand	-10.0519
▁Reich	-10.0522
▁Einstellung	-10.0523
▁Städten	-10.0525
gegen	-10.0526
▁übermäßige	-10.0527
▁Verschuldung	-10.0529
▁knapp	-10.0529
▁behandelt	-10.0529
▁Suche	-10.0535
▁Aussicht	-10.0543
sozial	-10.055
heiß	-10.0555
▁Transparenz	-10.0557
▁ausgelöst	-10.0557
▁angewiesen	-10.0557
▁Eigenheim	-10.0557
▁kontrolliert	-10.0558
auch	-10.0559
▁kurzfristige	-10.0561
▁Einwanderung	-10.0561
▁treiben	-10.0565
schein	-10.0566
mann	-10.0571
▁Denk	-10.0578
zulegen	-10.0583
▁Einwanderer	-10.0585
▁Oktober	-10.0585
▁verabschiedet	-10.0585
▁falls	-10.0586
shilfe	-10.0596
▁beträchtliche	-10.0601
▁steil	-10.0605
breite	-10.0606
überschuss	-10.0616
politischen	-10.0624
▁See	-10.0638
▁Stunde	-10.0639
führt	-10.0641
▁Kämpfe	-10.0641
▁Palästina	-10.0641
▁Artikel	-10.0641
▁ausgegeben	-10.0664
ordnet	-10.0665
▁Außenminister	-10.0668
▁LONDON	-10.067
▁Belastung	-10.067
▁Christ	-10.0672
▁Gefahren	-10.0684
national	-10.0687
▁Produkt	-10.0687
rlei	-10.0689
wärts	-10.0698
▁Wladimir	-10.0698
▁verschärft	-10.0698
▁Ki	-10.0705
▁oberste	-10.0707
ologisch	-10.0708
▁gelang	-10.0713
gänge	-10.0715
pflicht	-10.0726
▁fördert	-10.0727
▁manchen	-10.073
▁lokalen	-10.0733
▁Minderheiten	-10.0736
▁August	-10.0756
▁drängen	-10.0756
▁zerstört	-10.0756
▁potenziell	-10.0757
▁Bürgern	-10.077
alisierung	-10.078
▁Frankreichs	-10.0781
▁Zwischen	-10.0782
legung	-10.0784
▁zählen	-10.0784
stelle	-10.0792
▁Arbeitsplätzen	-10.0804
▁erinnern	-10.0813
▁regelmäßig	-10.0813
▁Ära	-10.0813
halb	-10.0814
Strukturreformen	-10.0815
▁the	-10.0815
boom	-10.0816
▁Pi	-10.0829
▁Feind	-10.0832
hängen	-10.0838
▁Kriege	-10.0839
▁Bestandteil	-10.0842
▁Viertel	-10.0842
▁gesunde	-10.0843
▁Wettbewerbs	-10.0849
▁Politikern	-10.0861
▁Denken	-10.0861
ziehung	-10.0864
eign	-10.0868
vo	-10.087
▁entstanden	-10.0871
zahlungen	-10.0872
▁keiner	-10.0875
▁gezogen	-10.0877
▁effizient	-10.0879
sführung	-10.0881
▁positiv	-10.0891
▁dahin	-10.0894
▁Kluft	-10.09
▁Versorgung	-10.09
schaffen	-10.0901
▁Projekte	-10.0904
▁entwickelte	-10.0905
▁umfasst	-10.0913
off	-10.0917
xi	-10.0924
▁landwirtschaft	-10.0929
▁Reduzierung	-10.0929
▁Abwertung	-10.0929
▁weitgehend	-10.0929
▁sterben	-10.0929
▁treten	-10.0934
▁Zwar	-10.0937
▁Zahlen	-10.0941
▁Licht	-10.0943
ya	-10.0945
▁Hin	-10.0957
▁Lauf	-10.0964
▁angenommen	-10.0964
▁Methoden	-10.0976
▁Handeln	-10.0977
▁Erinnerung	-10.0988
eck	-10.099
schicht	-10.0993
geschrieben	-10.0993
▁Forderung	-10.0994
quelle	-10.0998
▁Methode	-10.0999
märkten	-10.1006
▁indische	-10.101
▁Reserven	-10.1015
revolution	-10.1017
▁attraktiv	-10.1017
▁bedeutsam	-10.1017
▁ärmsten	-10.1017
▁Moskau	-10.1017
▁Blut	-10.1018
atur	-10.1019
▁Norden	-10.1024
sabkommen	-10.1027
▁massiven	-10.1031
▁geringere	-10.1033
orientierte	-10.1039
Krieg	-10.1043
▁Emissionen	-10.1044
▁2014	-10.1047
▁Perspektive	-10.1047
▁zwangsläufig	-10.1047
▁Jugend	-10.1047
▁angemessene	-10.1048
▁Mensch	-10.1055
▁Fälle	-10.1059
▁mo	-10.1062
▁Schulen	-10.1069
staatliche	-10.1074
▁trägt	-10.1076
konsum	-10.1079
▁sprach	-10.1084
präsidenten	-10.1085
IS	-10.1086
chef	-10.109
forschung	-10.1106
▁Muster	-10.1109
▁Boom	-10.1111
▁afrikanischen	-10.1115
fertig	-10.1115
▁Institution	-10.1118
▁griechische	-10.112
treffen	-10.112
smaßnahmen	-10.1121
▁Islamische	-10.1125
fassung	-10.1125
ivilgesellschaft	-10.1125
▁1999	-10.1136
▁Kommunikation	-10.1136
▁definiert	-10.1136
▁produzieren	-10.1136
▁ausgedrückt	-10.1138
▁festgelegt	-10.1141
▁größerer	-10.1146
▁la	-10.116
▁erneuerbare	-10.1166
schulden	-10.1166
▁Mächte	-10.1168
▁Initiativen	-10.1171
▁bestehende	-10.1183
▁gern	-10.1185
▁Protest	-10.1192
▁formuliert	-10.1196
▁Bushs	-10.1203
▁erleben	-10.1204
▁Erweiterung	-10.1206
▁Insel	-10.1215
wind	-10.1217
▁Zeichen	-10.1226
▁wohlhabend	-10.1226
▁oftmals	-10.1226
▁Klein	-10.1226
rmaßen	-10.1228
▁muslimischen	-10.1233
▁hinweg	-10.1241
▁staatlicher	-10.1245
▁Inland	-10.1251
▁Fünf	-10.1256
▁Zentrum	-10.1256
fried	-10.126
▁Angriffe	-10.1263
▁Vorschläge	-10.1263
▁amerikanischer	-10.1263
▁Verteilung	-10.1265
▁Abschwung	-10.1286
▁Renminbi	-10.1286
▁Vietnam	-10.1286
▁betrifft	-10.1286
▁Branche	-10.1286
▁nationalistisch	-10.1287
▁wenigsten	-10.1289
vez	-10.1299
▁oben	-10.1304
ost	-10.131
▁weiteres	-10.131
▁Demokraten	-10.1316
▁Keynes	-10.1316
▁italienische	-10.1316
▁vergessen	-10.1316
▁Golf	-10.1316
▁Netto	-10.1316
▁solange	-10.1317
▁daß	-10.1317
industrielle	-10.1318
▁wächst	-10.1332
▁Normal	-10.1334
▁friedliche	-10.1344
▁König	-10.1344
schrift	-10.1347
▁geschlossen	-10.1348
able	-10.1352
▁breite	-10.1354
▁Beschränkungen	-10.1355
stück	-10.1363
▁Vermögen	-10.1373
▁Serbien	-10.1377
▁Quartal	-10.1377
▁mittlerweile	-10.1377
▁sorgt	-10.1378
akte	-10.1378
▁Bio	-10.1383
▁weisen	-10.1385
▁politisches	-10.1403
▁April	-10.1408
▁Einwohner	-10.1408
▁Praxis	-10.1408
sverschuldung	-10.1408
▁Streitkräfte	-10.1408
▁Schwerpunkt	-10.1408
▁Königreich	-10.141
seitig	-10.141
▁Argumente	-10.1411
Ein	-10.1412
▁welt	-10.1413
▁Liste	-10.1418
▁radikale	-10.1432
▁bestimmten	-10.1438
▁islamistische	-10.1438
▁Sommer	-10.1438
▁gewonnen	-10.1438
▁Kreditgeber	-10.1438
schreibung	-10.1439
▁Hintergrund	-10.1439
▁anderem	-10.1439
▁geplant	-10.144
Emissionen	-10.1441
▁Zustimmung	-10.1441
▁vollkommen	-10.1445
von	-10.1447
▁Ihr	-10.1449
▁Lebensstandard	-10.1451
anteil	-10.1453
▁Bi	-10.1461
▁effektive	-10.1463
▁möchten	-10.1468
Tech	-10.1469
▁pakistanische	-10.1469
▁Moral	-10.1472
▁Mitgliedschaft	-10.1472
▁Power	-10.1474
quote	-10.1474
1%	-10.148
▁führten	-10.148
▁offene	-10.1481
▁Eigen	-10.1483
▁Zustand	-10.149
▁erinnert	-10.15
▁vorübergehend	-10.15
ministerium	-10.1503
inflation	-10.1505
maß	-10.151
platz	-10.1531
▁zurückzuführen	-10.1532
▁billig	-10.1533
3%	-10.154
▁Änderung	-10.1549
▁früh	-10.155
▁brutal	-10.1562
▁Zerstörung	-10.1562
▁Schweden	-10.1562
▁Film	-10.1563
▁aufstrebende	-10.1566
▁aufgenommen	-10.1571
▁Instrument	-10.1571
▁tiefer	-10.1583
▁denke	-10.1585
▁21.	-10.1587
lehr	-10.1587
zubringen	-10.1588
regel	-10.1589
▁Süden	-10.159
ehnt	-10.1593
▁nennen	-10.1594
▁schwächer	-10.1594
▁ausgehen	-10.1599
▁Allgemeinen	-10.16
▁wirksame	-10.1601
▁Fort	-10.1608
reib	-10.1618
▁Modernisierung	-10.1624
▁Journalisten	-10.1624
▁verdienen	-10.1624
▁Bestimmungen	-10.1625
▁nieder	-10.1626
▁übertragen	-10.1627
▁Gene	-10.1629
▁Gedanken	-10.163
▁Innovationen	-10.1634
▁Zentral	-10.1637
ziert	-10.1638
sprogramm	-10.164
opf	-10.1649
partner	-10.1655
▁Franzosen	-10.1656
▁Wiederaufbau	-10.1656
▁Peripherie	-10.1656
▁etabliert	-10.1656
züge	-10.167
▁Problemen	-10.1684
▁1989	-10.1687
▁Beteiligung	-10.1687
▁Wesentlichen	-10.1687
▁egal	-10.1687
▁Eltern	-10.1687
▁typisch	-10.1688
währung	-10.1689
▁jüngst	-10.1696
▁gefunden	-10.1704
▁Minderheit	-10.1709
skosten	-10.171
▁Spitze	-10.1712
▁Gebieten	-10.1714
▁Blase	-10.1719
▁betont	-10.172
▁höchsten	-10.1726
▁Verträge	-10.1732
welle	-10.1732
▁Provinz	-10.175
▁doppelt	-10.175
▁südlich	-10.175
▁Einklang	-10.175
▁Unsere	-10.1751
▁Verpflichtung	-10.1773
arbeiter	-10.178
▁sämtliche	-10.1782
▁unzureichend	-10.1782
▁verdient	-10.1782
▁Planeten	-10.1783
▁verlangen	-10.1783
emissionen	-10.1786
▁Trans	-10.1786
▁Angel	-10.179
▁Liquidität	-10.179
▁setzte	-10.1795
▁Traum	-10.1798
formen	-10.1801
▁kollektive	-10.1803
▁Nachricht	-10.1805
▁riesige	-10.1808
▁umfassenden	-10.1814
▁San	-10.1815
▁Sein	-10.1817
put	-10.1823
▁mehreren	-10.1837
▁alt	-10.1842
▁offenen	-10.1844
▁Effizienz	-10.1846
▁Mubarak	-10.1846
▁allmählich	-10.1846
▁unternommen	-10.1846
▁Ähnlich	-10.1846
▁mittlere	-10.1846
▁Sonder	-10.1847
▁richtigen	-10.1848
union	-10.1849
üng	-10.1856
▁bezeichnen	-10.1858
▁intensiv	-10.1862
▁Griechenlands	-10.1863
▁Bündnis	-10.1864
▁Merkel	-10.1878
▁Kollegen	-10.1879
▁Interventionen	-10.1884
▁Reise	-10.1891
▁Zeitalter	-10.1892
▁davor	-10.1896
▁Sy	-10.1897
institutionen	-10.191
▁täglich	-10.1911
sstaatlichkeit	-10.1911
ieder	-10.1914
▁tut	-10.1916
▁natürliche	-10.1921
dra	-10.1926
person	-10.193
▁sichern	-10.1933
Wirtschaftskrise	-10.1934
▁Importe	-10.1935
▁Inter	-10.1936
▁erfüllt	-10.1937
wissenschaftler	-10.1942
▁ideologische	-10.1942
▁Ausbruch	-10.1949
scheiden	-10.1954
▁langen	-10.1961
▁Instrumente	-10.1965
kampf	-10.1974
▁Rhetorik	-10.1975
▁verheerend	-10.1975
▁Cha	-10.1977
▁Dadurch	-10.1977
▁Bedürfnisse	-10.1992
▁fragen	-10.1998
▁enger	-10.2002
▁kompliziert	-10.2007
▁zweifellos	-10.2007
▁jeweils	-10.2007
▁außergewöhnlich	-10.2007
▁scheinbar	-10.2008
▁verwenden	-10.2008
schieben	-10.2009
▁Eliten	-10.2016
ielmehr	-10.202
swachstums	-10.2025
regeln	-10.2025
lösung	-10.2036
▁Fußball	-10.204
▁Handlung	-10.204
erseits	-10.2042
▁bedingt	-10.2043
lösen	-10.2061
präsident	-10.2063
▁Stimme	-10.2064
ssig	-10.2065
▁persönliche	-10.2069
▁Machthaber	-10.2072
▁einzusetzen	-10.2084
steigen	-10.2087
längst	-10.2088
▁übrigen	-10.2096
▁Eis	-10.2098
kapazität	-10.2105
▁geeignet	-10.2105
▁angeführt	-10.2106
▁gestalten	-10.2107
▁solide	-10.2109
▁Para	-10.2109
▁dauern	-10.2112
▁Sach	-10.2113
Gipfel	-10.2118
Jahre	-10.2119
▁zurückzu	-10.212
ker	-10.2121
▁Energien	-10.2121
kräftig	-10.2138
▁Justiz	-10.2138
▁1930	-10.2138
faktor	-10.2138
▁erschien	-10.2139
angriff	-10.2141
▁erfolgt	-10.2143
▁negativen	-10.215
parteien	-10.2154
▁Ruf	-10.2157
▁wahre	-10.2158
strafe	-10.2165
▁wahren	-10.2165
europa	-10.217
▁1997	-10.2171
▁Eigenkapital	-10.2172
kommt	-10.2173
▁Angelegenheiten	-10.2188
▁dürften	-10.2204
▁humanitäre	-10.2204
▁Rechnung	-10.2204
▁eben	-10.222
pass	-10.223
bindung	-10.2231
anlagen	-10.2234
▁11	-10.2237
▁Charakter	-10.2237
▁Raketen	-10.2237
▁Einschränkung	-10.2238
▁überrascht	-10.2238
▁ermutigen	-10.2238
▁falsche	-10.2249
▁Ju	-10.2251
▁Sicherheitsrat	-10.2258
▁Ehe	-10.2262
vermögen	-10.2271
▁Invasion	-10.2271
▁damalige	-10.2271
▁anfällig	-10.2271
▁Tür	-10.2272
▁ökonomische	-10.2274
▁Gesetzes	-10.2284
▁Aufnahme	-10.2285
isierten	-10.2292
kette	-10.2294
▁Niederlande	-10.2304
▁Gerichtshof	-10.2304
▁Schweiz	-10.2304
▁Genau	-10.2307
▁zusätzlich	-10.2313
▁Fach	-10.2319
▁lebt	-10.2333
▁Brennstoffe	-10.2334
▁Beweise	-10.2335
kommun	-10.2338
▁Februar	-10.2338
▁Respekt	-10.2338
▁Peking	-10.2338
senkung	-10.2339
weil	-10.2346
▁kurzfristigen	-10.2354
Kopf	-10.236
van	-10.2365
fällt	-10.2373
jährige	-10.2373
▁Kunden	-10.2374
Er	-10.2375
ath	-10.2376
▁gelten	-10.2378
▁einfache	-10.2386
▁umfassender	-10.2387
fest	-10.2393
das	-10.2401
▁Diktatur	-10.2405
▁Migration	-10.2405
▁Szenario	-10.2405
▁bewaffnete	-10.2405
▁Nähe	-10.2405
zellen	-10.2407
▁Verwendung	-10.241
▁sofort	-10.2412
▁Schlag	-10.2415
hören	-10.2415
▁Aussage	-10.2416
PC	-10.2418
▁Aspekt	-10.2418
▁Standards	-10.2419
▁grüne	-10.242
▁Bedrohungen	-10.2421
▁Drei	-10.2422
ance	-10.2424
▁folgende	-10.2429
▁Stagnation	-10.2439
▁ziemlich	-10.2439
▁Sturz	-10.2439
▁vergleichbar	-10.2439
▁Mitgliedern	-10.2444
▁Spitzen	-10.2445
▁frühere	-10.2447
sieht	-10.2458
gemäß	-10.2459
regen	-10.246
richtung	-10.2462
ateral	-10.2463
dar	-10.2464
▁Ursachen	-10.2465
▁schlimmsten	-10.2478
fahrt	-10.2484
▁gegründet	-10.2508
▁Reichen	-10.2511
region	-10.2513
▁heutige	-10.2513
▁zeigte	-10.252
Ökonom	-10.2538
▁Börse	-10.2542
▁Niederlage	-10.2542
▁individuelle	-10.2542
▁ökologisch	-10.2542
▁Schatten	-10.2542
▁Schl	-10.2545
▁unternehmen	-10.2546
zeichnen	-10.2549
▁potenzielle	-10.255
fordern	-10.2555
▁Anlagen	-10.2558
▁Freunde	-10.2562
▁neun	-10.2564
▁angemessen	-10.2575
▁Australien	-10.2576
▁Logik	-10.2576
▁erweitert	-10.2576
▁Stellung	-10.2576
▁sinken	-10.258
▁No	-10.2584
▁vernünftige	-10.2587
▁schrieb	-10.2599
ssektor	-10.26
▁Stabilisierung	-10.261
▁Ursache	-10.2618
▁meist	-10.2619
▁Übergangs	-10.2621
▁ohnehin	-10.2634
▁miss	-10.2635
▁Marktwirtschaft	-10.2637
▁wenigen	-10.2642
▁gefördert	-10.2645
▁Zwang	-10.2645
▁Wiederherstell	-10.2645
▁Verantwortlich	-10.2648
▁Mandat	-10.2648
▁Bereiche	-10.2652
bzw	-10.2656
▁Unruhen	-10.2662
▁international	-10.2664
▁Lehren	-10.2666
▁Dann	-10.2669
▁Schule	-10.2671
zehn	-10.2673
▁200	-10.2674
günstig	-10.268
konferenz	-10.268
▁beschäftigt	-10.268
▁konkrete	-10.268
▁riskant	-10.268
▁Bill	-10.268
güter	-10.268
▁bildet	-10.268
rechnen	-10.268
▁Ideal	-10.2681
▁niedrigere	-10.2683
▁übrig	-10.2689
▁sozialer	-10.2706
währ	-10.2712
modell	-10.2713
▁Gehirn	-10.2715
▁beschränken	-10.2715
▁ignorieren	-10.2715
fuhr	-10.2715
▁Kuba	-10.2716
▁Betrieb	-10.2726
▁echten	-10.2729
treiben	-10.2731
fahr	-10.2734
projekte	-10.2741
▁Nachfolger	-10.2747
bra	-10.2748
▁Merkmal	-10.275
▁Unterdrückung	-10.275
▁Ärzte	-10.275
▁stärksten	-10.2751
▁innenpolitische	-10.2751
▁Chile	-10.2752
▁Rückzug	-10.2752
▁wert	-10.2755
▁Kandidat	-10.276
▁Umfrage	-10.2761
zone	-10.2766
▁markt	-10.2772
▁gingen	-10.2775
ttel	-10.2781
▁türkischen	-10.2783
▁Phänomen	-10.2785
▁geschieht	-10.2785
▁künftige	-10.2785
▁Vater	-10.2785
stor	-10.2786
▁Emissions	-10.2788
▁Zugleich	-10.2798
▁ersetzen	-10.2798
▁Erde	-10.2802
▁arbeitet	-10.2808
▁dauerhafte	-10.2809
▁einander	-10.281
sofern	-10.2816
▁Neue	-10.2819
▁Acht	-10.282
▁geändert	-10.282
▁ignoriert	-10.282
▁genutzt	-10.282
▁Reichtum	-10.2821
▁teure	-10.2822
einheit	-10.2827
▁Mitgliedsländer	-10.283
▁Verkauf	-10.2835
▁bislang	-10.2839
▁Weil	-10.284
▁Diskussionen	-10.285
▁fiskalische	-10.2855
▁latein	-10.2855
tausch	-10.2856
▁Lektion	-10.2861
bereit	-10.2883
▁zentralen	-10.2883
▁Bankensystem	-10.2886
▁Existenz	-10.2891
▁beeinflusst	-10.2891
▁verkauft	-10.2891
haushalt	-10.2897
▁ersetzt	-10.2898
▁anhaltenden	-10.2899
ständige	-10.291
gründe	-10.2914
abkommen	-10.2916
▁alternative	-10.2926
▁stattdessen	-10.2926
▁ländlichen	-10.2936
▁unterscheiden	-10.2939
▁ergibt	-10.2944
▁Sektoren	-10.2947
▁warten	-10.2948
▁irakischen	-10.2957
▁Management	-10.2962
▁Konfrontation	-10.2962
▁andererseits	-10.2962
Aus	-10.2962
▁Todesfälle	-10.2963
mitglieder	-10.298
▁auseinander	-10.2994
oli	-10.2997
funktion	-10.2997
▁Garantie	-10.2998
▁OECD	-10.2998
▁erlaubt	-10.2998
▁verursachen	-10.2998
▁geistige	-10.3
geschichte	-10.3002
wiese	-10.3008
▁schwachen	-10.3011
▁Versuche	-10.3012
marsch	-10.3014
▁grundlegend	-10.3021
▁erfahren	-10.3022
▁Lang	-10.3027
▁Fran	-10.3027
▁langem	-10.3028
gunst	-10.3029
▁Befürworter	-10.3034
▁wählen	-10.3034
▁Bewertung	-10.3034
▁gleichermaßen	-10.3034
fri	-10.3036
▁Million	-10.3051
▁Roma	-10.3051
schreiten	-10.3054
▁Klasse	-10.3059
▁gewöhnlich	-10.3064
▁Allianz	-10.307
▁End	-10.3076
produkte	-10.3077
▁ähnlichen	-10.3079
kurs	-10.3082
gibt	-10.3085
▁ethnische	-10.3086
▁besseren	-10.309
▁Reaktionen	-10.3093
▁überleben	-10.3093
▁auslösen	-10.3097
▁Budget	-10.3106
▁benötigen	-10.3106
▁Bedarf	-10.3106
wissenschaften	-10.3106
▁Mittelschicht	-10.3109
▁Assad	-10.3113
▁agieren	-10.3113
▁leichter	-10.3121
▁Keine	-10.3125
▁Jeder	-10.3139
Gesundheitswesen	-10.314
▁England	-10.3142
steigerung	-10.3143
ologie	-10.316
▁Tagen	-10.3173
zentral	-10.3173
▁Erkenntnis	-10.3177
wür	-10.3179
▁beendet	-10.3183
▁gesetzlich	-10.3183
▁gelangen	-10.3187
stein	-10.3207
▁Vertrauens	-10.3213
▁herbeizuführen	-10.3216
▁produziert	-10.3216
▁Urteil	-10.3216
▁Liefer	-10.3216
▁Wesen	-10.3223
▁radikal	-10.3224
▁Wichtig	-10.3228
▁Hinweis	-10.3237
▁Eindruck	-10.3245
▁wollten	-10.3245
zusetzen	-10.3248
▁zivil	-10.3249
▁Ablehnung	-10.3252
▁kostspielig	-10.3252
▁Gewerkschaften	-10.3253
▁Sparmaßnahmen	-10.3253
▁Transport	-10.3253
bezüglich	-10.327
▁Aspekte	-10.3275
ram	-10.3277
Staaten	-10.3279
▁Erfolge	-10.3279
8%	-10.3286
flüsse	-10.3287
zukommen	-10.3287
▁Fremd	-10.3289
▁Singapur	-10.3289
▁bemüht	-10.3289
▁saubere	-10.3289
▁1960	-10.3289
▁schlicht	-10.329
▁erzeugt	-10.329
▁Derartige	-10.329
▁Null	-10.3291
▁verstanden	-10.3291
▁Alternativen	-10.3295
▁außenpolitische	-10.3307
chau	-10.3316
▁Prioritäten	-10.3317
▁Experiment	-10.3326
▁sunnitisch	-10.3326
▁garantiert	-10.3326
▁begründet	-10.3327
▁Eigentum	-10.3327
▁Fahr	-10.3328
onnen	-10.3328
rede	-10.3335
geführt	-10.3343
▁Afrikas	-10.3352
▁Leiden	-10.3353
▁for	-10.3362
▁Kanada	-10.3363
▁Tempo	-10.3363
▁ausgebildet	-10.3364
▁behalten	-10.3365
▁fortgesetzt	-10.3365
▁Ganze	-10.3372
▁Fisch	-10.339
▁überlassen	-10.3391
▁negative	-10.3393
exporte	-10.3394
ix	-10.3397
geworfen	-10.3401
qualifizierte	-10.3401
▁nützlich	-10.3401
▁verteidigen	-10.3401
▁Öffnung	-10.3401
▁Gemeinde	-10.3401
▁gelingt	-10.3401
▁Manager	-10.3401
▁Abbas	-10.3401
▁Mauer	-10.3401
▁steckt	-10.3406
▁moralischen	-10.341
▁teilen	-10.3419
▁Versagen	-10.342
▁Hi	-10.3426
win	-10.3433
▁kommunistischen	-10.3436
▁Venezuela	-10.3438
▁automatisch	-10.3438
▁offenkundig	-10.3438
▁Zivilisten	-10.3439
▁Ernährung	-10.344
▁ansteigen	-10.3442
▁Lehr	-10.3444
▁Sicher	-10.3445
▁normalen	-10.3452
▁Jahrzehnts	-10.3466
stimmung	-10.3467
demokratische	-10.3475
▁Aufschwung	-10.3476
▁Konkurrenz	-10.3476
▁Medizin	-10.3476
▁Portugal	-10.3476
▁ausgerichtet	-10.3476
schritt	-10.3476
▁Kirche	-10.3476
▁integriert	-10.3476
▁sowjetischen	-10.3478
nachfrage	-10.3489
▁folgenden	-10.3495
▁enthalten	-10.3497
▁schnelle	-10.3498
▁Symbol	-10.3514
▁gesunken	-10.3514
▁jüngere	-10.3514
▁produktive	-10.3514
lässt	-10.3514
▁ändert	-10.3514
▁Tendenz	-10.3514
▁Korea	-10.3515
offiziell	-10.3518
freundliche	-10.3525
▁Mark	-10.3538
▁überzeugend	-10.3539
▁islamische	-10.3547
▁Mut	-10.3549
▁gestärkt	-10.3551
▁unvermeidlich	-10.3551
▁Frühling	-10.3552
▁Aufgaben	-10.3554
▁klein	-10.356
▁Sektors	-10.3564
bahn	-10.3567
organisationen	-10.3575
stieg	-10.3583
schlägt	-10.3589
▁Kopenhagen	-10.3589
▁denjenigen	-10.3589
▁Gewicht	-10.3589
▁beginnt	-10.359
wahr	-10.359
ly	-10.3597
orientierten	-10.3602
▁Welle	-10.3605
management	-10.3606
▁Stellen	-10.361
▁nachhaltigen	-10.3612
ündig	-10.3615
▁aufzunehmen	-10.3616
westlich	-10.3627
▁Treibhausgas	-10.3628
▁begegnen	-10.3628
▁sogenannte	-10.3628
▁zuletzt	-10.3628
dass	-10.3629
▁demokratischer	-10.3634
▁effektiver	-10.3639
▁europäischer	-10.3639
qui	-10.3639
▁Freund	-10.3643
gu	-10.3643
▁Mao	-10.3643
▁höchste	-10.3653
reise	-10.3659
▁Trends	-10.3661
▁Besorgnis	-10.3666
▁berücksichtigt	-10.3666
▁trifft	-10.3666
▁Kohlenstoff	-10.3666
▁Mindest	-10.3666
▁vorsichtig	-10.3667
Notenbank	-10.3668
▁tätig	-10.3674
▁dauerhaft	-10.3677
verkehr	-10.3678
▁Erträge	-10.3679
▁normale	-10.3679
▁Mord	-10.3687
▁persönlichen	-10.37
▁ökonomischen	-10.3702
räte	-10.3703
verschmutzung	-10.3704
▁1998	-10.3704
▁hilfreich	-10.3704
▁Geschwindigkeit	-10.3704
▁ausgeglichen	-10.3704
▁Titel	-10.3704
▁verglichen	-10.3704
▁Wunder	-10.3705
▁trug	-10.3711
weichen	-10.3715
▁Sam	-10.3726
▁unterzeichnet	-10.3726
AN	-10.373
zuziehen	-10.3732
ströme	-10.3743
zeichnung	-10.3743
▁Westjordanland	-10.3743
▁Sichtweise	-10.3746
reserven	-10.3747
▁Todes	-10.375
▁Schwellenmärkte	-10.3751
▁Schätzungen	-10.3756
▁liberale	-10.3756
▁ausgeschlossen	-10.3762
TA	-10.3769
▁besetzt	-10.3776
▁Ängste	-10.3782
▁Aufwertung	-10.3782
▁Tief	-10.3782
▁Vorgehensweise	-10.3782
▁übertrieben	-10.3783
▁Cent	-10.3797
▁muslimische	-10.3803
smöglichkeiten	-10.3816
▁Bewusstsein	-10.3821
▁republikanische	-10.3821
▁Berlin	-10.3821
▁wusste	-10.3821
tage	-10.3821
▁neigen	-10.3821
▁Institute	-10.3826
part	-10.3839
▁500	-10.3839
▁35	-10.3842
▁Niemand	-10.386
▁stützen	-10.386
▁Extremisten	-10.3861
▁Welthandels	-10.3862
▁Strukturen	-10.3863
▁entscheidenden	-10.3865
▁einzig	-10.3871
▁dank	-10.3875
wettbewerbsfähig	-10.3876
▁Lager	-10.3877
▁ausgeben	-10.3891
▁Straße	-10.3891
▁ukrainische	-10.3899
▁übernommen	-10.3899
Schlussfolgerung	-10.3899
▁Arabische	-10.3899
▁kontrollieren	-10.3899
daten	-10.39
phase	-10.3903
▁einfacher	-10.3905
ält	-10.3908
▁schlagen	-10.3921
▁breiter	-10.3922
▁Post	-10.3926
▁no	-10.3927
▁potenziellen	-10.3928
Protokoll	-10.3938
▁Schiiten	-10.3938
▁Unterdessen	-10.3938
▁umfangreiche	-10.3938
▁jegliche	-10.3939
▁Kunst	-10.3939
schwer	-10.3942
▁einheitliche	-10.3944
▁Mission	-10.3944
▁Mittelpunkt	-10.3945
▁Finanzmärkten	-10.3951
▁Hinter	-10.3952
ini	-10.3959
▁Liquiditäts	-10.3968
▁trat	-10.397
▁Gouverneur	-10.3978
▁diskutiert	-10.3978
▁gelöst	-10.3978
▁innovative	-10.3978
▁Hussein	-10.3978
▁Solche	-10.3978
wasser	-10.3996
kar	-10.3996
feindliche	-10.3997
▁Runde	-10.4009
brüche	-10.4011
▁sinkende	-10.4012
▁günstige	-10.4016
▁Bereitstellung	-10.4018
▁populistische	-10.4018
gerufen	-10.4021
▁spezielle	-10.4026
▁Erbe	-10.4027
ox	-10.4041
▁Wall	-10.4049
betrieb	-10.4053
jährigen	-10.4055
▁Völker	-10.4055
▁üblich	-10.4056
▁1991	-10.4057
▁WASHINGTON	-10.4057
▁endgültig	-10.4057
▁verschärfen	-10.4057
▁Anlass	-10.4057
▁Dauer	-10.4058
laden	-10.4063
▁durchzusetzen	-10.4078
berichte	-10.4083
anspruch	-10.4086
mission	-10.4096
▁grundsätzlich	-10.4097
▁erkennbar	-10.4097
▁regiert	-10.4099
▁Katastrophen	-10.4101
▁hören	-10.4113
zog	-10.4119
▁Gebiete	-10.4121
▁Geburt	-10.4137
Q	-10.4137
▁Cameron	-10.4138
▁löst	-10.4138
▁scheitern	-10.4138
▁zerstören	-10.4138
▁Vorgänger	-10.4138
▁teuer	-10.4138
▁Oberste	-10.4141
▁Austausch	-10.4143
▁eintreten	-10.4145
▁Teilnahme	-10.4152
▁Stimmung	-10.4163
▁Aktionen	-10.4164
ütze	-10.417
▁Kapazitäten	-10.4172
kämpfe	-10.4175
▁Sowjet	-10.4177
läufig	-10.4178
rechtzuerhalten	-10.4178
schließt	-10.4178
verhandlungen	-10.4178
▁erzeugen	-10.4179
▁Überschuss	-10.418
▁Kein	-10.418
▁militärischer	-10.4181
▁Küste	-10.4181
▁Übernahme	-10.4188
krisen	-10.4188
▁bauen	-10.4194
▁Zur	-10.4206
▁Letzte	-10.4206
wissen	-10.4209
▁zusätzlichen	-10.4214
▁kulturellen	-10.4218
▁Insbesondere	-10.4218
▁Thailand	-10.4218
▁erstaunlich	-10.4218
▁heutzutage	-10.4218
▁Solar	-10.4219
▁Jobs	-10.422
▁Spielraum	-10.4223
200	-10.4224
▁riesigen	-10.4225
▁unten	-10.4235
▁Milliarde	-10.4257
einandersetzung	-10.4259
▁Ahmadinedschad	-10.4259
▁existieren	-10.4259
▁verleihen	-10.4259
▁Westeuropa	-10.426
▁aufnehmen	-10.426
▁Privatisierung	-10.4262
▁diplomatischen	-10.4268
läuft	-10.4271
▁10%	-10.4272
band	-10.4282
schrieb	-10.4284
▁Sonne	-10.4284
ding	-10.4293
▁Atmosphäre	-10.43
▁Bewältigung	-10.43
▁Ostasien	-10.43
▁berücksichtigen	-10.43
▁David	-10.43
▁Mittlere	-10.43
▁Araber	-10.43
▁gelungen	-10.43
▁weist	-10.4301
▁sichtbar	-10.4312
▁Große	-10.4318
uliert	-10.4319
▁Worte	-10.4328
▁global	-10.4335
▁Kyoto	-10.4341
▁behindert	-10.4341
▁flexible	-10.4341
▁transparent	-10.4341
▁Steuersenkungen	-10.4341
▁konventionelle	-10.4341
▁Finanzinstitute	-10.4342
decke	-10.4346
▁Ausgang	-10.4361
▁Üb	-10.4362
▁Intellektuelle	-10.4382
▁Technik	-10.4382
▁gefährden	-10.4382
▁großzügig	-10.4382
▁Widerspruch	-10.4382
mangel	-10.4385
▁Feinde	-10.4397
ju	-10.4406
▁fehlende	-10.4408
wache	-10.441
bilanz	-10.4421
antwort	-10.4422
▁getötet	-10.4423
▁örtliche	-10.4423
▁schweigen	-10.4424
zusehen	-10.4424
▁USD	-10.4435
äglich	-10.4436
lekt	-10.4438
▁Hass	-10.4439
sleistung	-10.4463
▁Philosoph	-10.4465
▁Deutschen	-10.4465
▁spricht	-10.4465
▁versprochen	-10.4465
▁hilft	-10.4465
▁betrug	-10.4465
▁Schwarz	-10.4465
▁verwandelt	-10.4465
Generalsekretär	-10.4468
▁27	-10.4476
▁Prognosen	-10.448
▁herum	-10.4481
besuch	-10.4488
▁Inflationsrate	-10.449
▁Standard	-10.4491
▁Erreich	-10.4506
wässer	-10.4506
▁Flüchtlings	-10.4506
▁Störung	-10.4506
▁Vielfalt	-10.4506
▁eingeschränkt	-10.4506
▁rechtfertigen	-10.4506
▁türkische	-10.4508
▁Ganz	-10.4518
▁traditionell	-10.4522
öpfe	-10.4543
▁Berlusconi	-10.4548
▁Kohlendioxid	-10.4548
▁Tragödie	-10.4548
▁säkulare	-10.4548
▁unweigerlich	-10.4548
Kaida	-10.4549
▁beschlossen	-10.4549
val	-10.455
▁fürchten	-10.4557
▁Hindernisse	-10.457
▁Einrichtungen	-10.4573
verteilung	-10.4582
▁derzeitigen	-10.4585
▁dritten	-10.4586
sowjetische	-10.4588
▁Erderwärmung	-10.459
▁Resultat	-10.459
▁schmerzhaft	-10.459
▁Arbeitgeber	-10.459
▁beseitigen	-10.4591
▁Tu	-10.4591
▁Drittens	-10.4592
▁schwächen	-10.4592
▁Warnung	-10.4594
▁schlimm	-10.4599
▁begrenzen	-10.4605
▁liberalen	-10.4606
▁dasselbe	-10.4607
▁bewirken	-10.461
▁Arbeitslosen	-10.4618
gut	-10.4621
grenzen	-10.463
präsent	-10.4632
▁bemerkenswerte	-10.4632
▁Terroranschläge	-10.4632
▁geschwächt	-10.4632
▁katastrophal	-10.4632
▁ärmer	-10.4633
▁Version	-10.4634
ji	-10.4634
qualität	-10.4634
▁Wertpapiere	-10.4644
▁24	-10.4644
ergebnisse	-10.4652
▁verschaffen	-10.4653
▁Normen	-10.4655
uelle	-10.4674
▁Musharraf	-10.4675
▁beschleunigen	-10.4675
▁Differenz	-10.4675
▁Isolation	-10.4675
▁Organ	-10.4675
theorie	-10.4675
▁gesenkt	-10.4675
▁Team	-10.4675
▁Aktionäre	-10.4687
svertrag	-10.4693
▁Verlauf	-10.4699
▁umso	-10.4703
▁aggressive	-10.4706
osse	-10.4706
Ka	-10.471
▁Jordanien	-10.4717
▁Material	-10.4717
▁Pflicht	-10.4717
▁gelernt	-10.4717
▁Besonder	-10.4717
▁Dutzend	-10.4718
▁Robert	-10.4718
▁leidet	-10.4718
▁herzustellen	-10.4721
▁irakische	-10.4723
▁gefordert	-10.4724
▁Mutter	-10.4724
ielle	-10.473
chinesische	-10.4738
gefühl	-10.476
risiken	-10.476
treibt	-10.476
▁Welche	-10.476
reaktion	-10.4762
▁afrikanische	-10.4767
▁effizienter	-10.4768
▁Aktion	-10.4786
▁funktionierende	-10.4787
weich	-10.4788
▁läuft	-10.4791
rolle	-10.4793
▁irgend	-10.4798
▁Nahrung	-10.4803
▁Kontext	-10.4803
▁chronische	-10.4803
▁dominiert	-10.4803
▁wann	-10.4804
▁Patent	-10.4806
▁zufrieden	-10.4806
▁Auge	-10.4811
▁meinte	-10.4816
Partei	-10.4824
litt	-10.4828
▁Demonstranten	-10.4846
▁Signal	-10.4846
solvent	-10.4846
▁liefern	-10.4846
▁Bombe	-10.4848
▁tot	-10.485
▁hierfür	-10.485
▁22	-10.4865
▁vergeben	-10.4867
▁herrschende	-10.487
▁Netanjahu	-10.4889
▁Tunesien	-10.4889
▁gravierend	-10.4889
▁rapide	-10.4889
förderung	-10.489
▁Berater	-10.489
▁traf	-10.4891
Wir	-10.4892
sieg	-10.4901
▁fern	-10.492
▁Migranten	-10.4933
▁Referendum	-10.4933
▁interessiert	-10.4933
▁Street	-10.4933
schrecken	-10.4933
▁Ungarn	-10.4933
▁Briten	-10.4933
▁Vielzahl	-10.4934
▁besitzen	-10.4934
▁ethnischen	-10.4939
legitim	-10.4946
▁wenden	-10.495
▁Mess	-10.4957
kreis	-10.4958
▁Ei	-10.4976
Gaddafi	-10.4977
▁Bestrebungen	-10.4977
▁Konservative	-10.4977
▁intellektuelle	-10.4977
▁schwerwiegend	-10.4977
▁systematisch	-10.4977
▁Tibet	-10.4977
▁passieren	-10.4977
▁Kontakt	-10.4977
▁Erkrankung	-10.4977
▁bewegt	-10.4978
▁Transfer	-10.4978
▁Schuldner	-10.4981
▁Erkenntnisse	-10.4982
▁sparen	-10.4986
▁müsse	-10.4987
ständigkeit	-10.5
sfindung	-10.5009
Epidemie	-10.502
▁Diskriminierung	-10.502
▁Medwedew	-10.502
▁Übereinkunft	-10.502
▁Parlamentswahl	-10.5021
Glücklicherweise	-10.5021
▁polnische	-10.5021
schreibt	-10.5021
▁klug	-10.5021
▁ideal	-10.5022
▁friedlich	-10.5025
hof	-10.5027
▁unsicher	-10.5032
findung	-10.5033
hang	-10.5037
schreitende	-10.504
▁Sport	-10.5051
durch	-10.5052
▁modern	-10.5053
▁Früh	-10.5063
▁finanzieller	-10.5064
entscheidung	-10.5065
▁Dilemma	-10.5065
▁Monopol	-10.5065
städte	-10.5065
▁Zinssatz	-10.5067
klasse	-10.5071
▁bescheidene	-10.5074
▁Angelegenheit	-10.5086
rennen	-10.5095
▁deutet	-10.511
truppe	-10.5111
▁Höhepunkt	-10.5113
▁Bruch	-10.5114
▁reicher	-10.5117
Senat	-10.5119
▁womöglich	-10.512
▁glaube	-10.5123
gekommen	-10.5126
einnahmen	-10.5127
▁Verbot	-10.5129
mitten	-10.5131
zo	-10.5132
▁Schau	-10.515
▁terroristische	-10.5153
pläne	-10.5153
▁Gemeinsam	-10.5153
▁heftig	-10.5153
▁erlangen	-10.5155
▁erhält	-10.5156
nehmer	-10.5156
▁genannt	-10.5159
▁gesamt	-10.5162
▁zivile	-10.5164
▁Anleihe	-10.5167
▁Kreis	-10.5178
;&	-10.5179
gewählt	-10.5181
▁nachhaltiger	-10.5191
▁Nazi	-10.5192
sicherung	-10.5195
▁beschleunigt	-10.5198
▁geblieben	-10.5198
▁geschätzt	-10.5198
▁geschützt	-10.5198
▁bemerkenswert	-10.5198
▁kennen	-10.5199
▁Sparquote	-10.5199
▁Ansätze	-10.5213
▁weitem	-10.5219
NA	-10.523
▁Gazastreifen	-10.5243
▁indirekt	-10.5243
▁zählt	-10.5243
▁Demonstration	-10.5243
▁düster	-10.5243
▁rational	-10.5243
▁grenzüber	-10.5244
glücklicherweise	-10.525
▁hingegen	-10.5251
schaftswahlen	-10.5268
mechanismen	-10.5288
▁Rechenschaft	-10.5288
▁deuten	-10.5288
▁Pol	-10.5288
▁spanische	-10.529
▁lieber	-10.5291
▁Ausschuss	-10.5292
▁Durchsetzung	-10.5293
▁höherer	-10.5303
▁annehmen	-10.5303
▁AIDS	-10.5303
bedarf	-10.5318
mächtig	-10.5322
▁Misstrauen	-10.5333
▁weigert	-10.5333
▁Schmerz	-10.5333
▁Mikro	-10.5333
▁hochrangige	-10.5333
▁Stalin	-10.5334
▁betragen	-10.5335
▁Unfähigkeit	-10.5336
strategie	-10.5338
▁Islamisten	-10.534
▁Weltbevölkerung	-10.5345
▁bekam	-10.5346
smodell	-10.535
▁Stand	-10.5353
schlecht	-10.5363
trat	-10.5375
kunft	-10.5375
▁wirkt	-10.5375
Entschlossenheit	-10.5378
▁Expansion	-10.5378
▁anzukurbeln	-10.5378
▁Krim	-10.5382
▁demokratisch	-10.5399
▁21	-10.5407
by	-10.5408
▁Herrscher	-10.5424
▁Konzentration	-10.5424
▁Mechanismen	-10.5424
▁schädlich	-10.5424
▁unverzichtbar	-10.5424
▁Papier	-10.5424
derherzustellen	-10.5425
▁verpflichten	-10.5425
▁fließen	-10.5431
▁berichtet	-10.5431
▁realistische	-10.5448
▁Gesicht	-10.5449
prozess	-10.5451
fähigkeit	-10.547
konflikt	-10.547
▁Diktator	-10.547
▁sorgfältig	-10.547
▁städtische	-10.547
▁aufgebaut	-10.547
▁verwandeln	-10.547
▁Steuererhöhung	-10.5472
zutreten	-10.5472
▁haushalts	-10.5473
▁wirtschafts	-10.548
wendung	-10.5482
▁Abschluss	-10.5484
▁Gewiss	-10.5486
▁versprach	-10.5497
bedingte	-10.5507
▁Streit	-10.5515
Demokratisierung	-10.5516
disziplin	-10.5516
▁PARIS	-10.5516
▁geboren	-10.5516
▁Panik	-10.5516
▁verboten	-10.5517
▁2020	-10.5519
▁berühmte	-10.5523
▁Anführer	-10.5528
mod	-10.5531
gegriffen	-10.5532
▁umgekehrt	-10.5537
▁untersucht	-10.5541
hundert	-10.5544
anstieg	-10.5547
brü	-10.5554
▁Wider	-10.556
▁Definition	-10.5562
▁konkurrieren	-10.5562
▁ungeachtet	-10.5562
▁Fatah	-10.5562
▁Besatzung	-10.5562
▁gemessen	-10.5562
▁befreien	-10.5563
▁Tagesordnung	-10.5564
▁gemäßigte	-10.5564
▁Feuer	-10.5573
▁Anschläge	-10.5574
▁ausfallen	-10.5579
▁auftreten	-10.5588
llt	-10.5607
▁Kranken	-10.5608
▁Drohung	-10.5609
▁Agrar	-10.5609
▁wahrgenommen	-10.5611
▁Bekenntnis	-10.5612
▁Netz	-10.5616
integr	-10.5618
▁inländische	-10.562
normal	-10.5623
▁Fuß	-10.5626
▁Maßnahme	-10.5634
&#160;&#160;	-10.5638
▁ausgehende	-10.5643
▁Aufstand	-10.5648
versammlung	-10.5651
▁Schach	-10.5652
größe	-10.5655
▁irgendwann	-10.5656
▁Führungsrolle	-10.5657
▁ältere	-10.5657
▁staatlich	-10.5673
schätzung	-10.5676
räume	-10.568
psycholog	-10.5703
▁Diejenigen	-10.5703
▁Malaysia	-10.5703
▁ethische	-10.5703
▁Gott	-10.5703
▁abgesehen	-10.5716
gehalt	-10.5716
▁300	-10.5723
melde	-10.5726
kam	-10.573
▁Import	-10.5737
▁Allgemein	-10.5739
▁Ausgabe	-10.5748
▁Ambitionen	-10.575
▁Diagnose	-10.575
▁Kenntnis	-10.575
▁Protektionismus	-10.575
▁Wahrnehmung	-10.575
▁atomare	-10.575
▁Rebellen	-10.575
▁geschafft	-10.575
▁schrittweise	-10.575
▁unklar	-10.575
▁bewahren	-10.575
▁Profit	-10.575
▁motiviert	-10.575
überschüsse	-10.575
▁Überprüfung	-10.5751
▁einsetzt	-10.5751
▁verteilt	-10.5751
▁Gefolge	-10.5767
▁Sha	-10.5768
schauen	-10.578
▁Infektion	-10.5797
▁Überraschung	-10.5797
▁Stillstand	-10.5797
▁Bürokratie	-10.5797
schock	-10.5798
▁abzielen	-10.5798
gesehen	-10.5803
▁verhalten	-10.581
feuer	-10.5817
▁heran	-10.5827
qua	-10.5843
stock	-10.5844
▁Flexibilität	-10.5845
▁Mechanismus	-10.5845
▁Nachhaltigkeit	-10.5845
▁verzweifelt	-10.5845
ursache	-10.5845
▁Konsumenten	-10.5846
▁Temperatur	-10.5849
▁gewiss	-10.5853
▁Meine	-10.5854
▁Einschätzung	-10.5854
klag	-10.5868
▁galt	-10.5871
▁International	-10.5884
▁Kolonial	-10.5893
schöpfung	-10.5893
▁Chirac	-10.5893
▁sexuelle	-10.5893
schlüsse	-10.5893
▁schwarz	-10.5893
basis	-10.5893
▁einzigartige	-10.5893
▁asiatisch	-10.5893
▁Anklage	-10.5894
▁aufbauen	-10.5904
▁Haft	-10.591
▁Leid	-10.591
▁beträchtlich	-10.5914
▁Verbündete	-10.592
▁Resolution	-10.5922
▁eigen	-10.593
▁faire	-10.5934
institut	-10.5936
▁Kolumbien	-10.5941
▁Kommunistische	-10.5941
▁bemühen	-10.5941
▁kritisiert	-10.5941
▁Spaltung	-10.5941
▁derjenigen	-10.5941
▁75	-10.5941
▁besitzt	-10.5941
▁Klar	-10.5942
▁präsentiert	-10.5942
▁breit	-10.5962
▁Solang	-10.5962
▁vielfach	-10.5963
▁Allein	-10.5973
▁legitime	-10.5974
ängt	-10.5988
verantwortung	-10.5989
situation	-10.5989
▁Disziplin	-10.5989
▁resultierende	-10.5989
▁Rekord	-10.5989
▁Folter	-10.5989
▁genetische	-10.5989
▁bevorzugt	-10.5989
ifizierung	-10.599
▁...	-10.5991
samkeit	-10.5998
▁Elemente	-10.6003
bewusst	-10.6032
afrika	-10.6036
prinzip	-10.6037
ressourcen	-10.6038
▁Dänemark	-10.6038
▁Forscher	-10.6038
▁äußert	-10.6038
▁Dokument	-10.6038
▁letztendlich	-10.6039
▁Teilnehmer	-10.6042
▁Haiti	-10.6042
▁spe	-10.6043
ES	-10.6063
wort	-10.6072
▁sicherlich	-10.6075
▁DC	-10.6079
▁Devisen	-10.6086
▁Beseitigung	-10.6086
▁Mischung	-10.6087
bewertung	-10.6087
▁Super	-10.6088
EN	-10.6089
▁23	-10.609
▁Volkes	-10.6092
▁Umstände	-10.6131
▁afghanische	-10.6135
▁anerkennen	-10.6135
▁fundamental	-10.6135
▁gedrängt	-10.6135
▁veranlasst	-10.6135
▁Persönlichkeit	-10.6135
▁umstritten	-10.6135
branche	-10.6136
▁behandeln	-10.6136
kratie	-10.6137
▁Jemen	-10.6139
▁gebildet	-10.6139
▁aufweisen	-10.614
▁Friedensprozess	-10.614
▁1,5	-10.6142
▁mittels	-10.6151
aria	-10.6153
▁vereinbart	-10.6157
▁Schiff	-10.6165
▁vernünftig	-10.6169
azi	-10.6176
▁billiger	-10.6182
händler	-10.6185
▁1950	-10.6185
▁Geheimdienst	-10.6185
▁koordiniert	-10.6185
▁Reagan	-10.6185
▁freiwillig	-10.6185
▁einflussreiche	-10.6185
▁perfekt	-10.6185
▁stabilisieren	-10.6187
▁erfolgen	-10.6191
▁Wette	-10.6191
bleiben	-10.6232
▁Furcht	-10.6234
▁benutzt	-10.6234
Umstrukturierung	-10.6234
▁befand	-10.6234
▁wuchs	-10.6234
▁abzielt	-10.6235
▁neo	-10.6239
mbi	-10.6247
▁betreiben	-10.6252
▁einzugehen	-10.6255
geschlossen	-10.626
▁Berg	-10.6261
bekämpfung	-10.6282
▁2030	-10.6284
▁beobachten	-10.6284
▁instabil	-10.6284
▁vorherrschende	-10.6284
▁stets	-10.6285
muster	-10.6285
immer	-10.6297
sziele	-10.6304
sobald	-10.6314
glaub	-10.6324
▁genügend	-10.6334
▁erholt	-10.6334
▁einhergehen	-10.6334
▁Tausende	-10.6334
▁Versuchung	-10.6336
gebrochen	-10.6343
▁derzeitige	-10.6351
▁negativ	-10.6376
▁Österreich	-10.6384
▁öffnen	-10.6384
▁Dimension	-10.6384
▁Statistik	-10.6384
▁liefert	-10.6384
▁gerichtet	-10.6384
▁Micha	-10.6386
Veröffentlichung	-10.6387
▁formal	-10.639
karte	-10.6396
stätigkeit	-10.6405
bevölkerung	-10.6406
▁nachhaltig	-10.6421
paket	-10.6434
beschränkung	-10.6435
▁Sunniten	-10.6435
▁gewalttätige	-10.6435
▁besorgt	-10.6435
buch	-10.6435
▁Extremismus	-10.6437
▁Rohstoffpreise	-10.6437
viel	-10.6438
▁Pu	-10.6454
betracht	-10.6483
regulierung	-10.6483
▁Aktivisten	-10.6485
▁Kompetenz	-10.6485
▁klassische	-10.6485
▁stürzen	-10.6485
▁anscheinend	-10.6485
▁Richtlinien	-10.6486
▁Feld	-10.6488
größte	-10.6488
▁Abstimmung	-10.6493
basierte	-10.6493
cu	-10.6513
▁laufen	-10.6513
▁Massenver	-10.6513
▁geltend	-10.6529
körper	-10.6535
▁Büro	-10.6536
potenzial	-10.6536
▁Brüssel	-10.6536
▁Ursprung	-10.6536
▁Verfolgung	-10.6536
▁gäbe	-10.6536
▁Streben	-10.6536
▁Schäden	-10.6537
▁andauernde	-10.6537
▁zugute	-10.6538
Kongress	-10.6539
Krise	-10.6539
▁israelisch	-10.6541
Mitgliedschaft	-10.6541
▁Zwischenzeit	-10.6541
▁Zehn	-10.6544
▁abgeschlossen	-10.6544
▁Band	-10.6544
▁zwanzig	-10.6559
angebot	-10.6571
▁Ansprüche	-10.6588
▁Eindämmung	-10.6588
▁relevant	-10.6588
▁widerspiegelt	-10.6588
▁Balkan	-10.6588
▁ausgestattet	-10.6588
▁vermehrt	-10.6588
▁beispiellose	-10.6588
▁auszugleichen	-10.6588
▁Mittelmeer	-10.6588
▁sicherstellen	-10.66
fremd	-10.6624
zwischen	-10.6626
▁dachte	-10.6628
▁anzunehmen	-10.6631
schaffung	-10.6634
bürger	-10.6635
▁Bernanke	-10.6639
▁Kanzler	-10.6639
▁beunruhigend	-10.6639
▁etablieren	-10.6639
▁mittelfristig	-10.6639
▁kostet	-10.664
▁einzuführen	-10.6643
gesagt	-10.6644
▁Jahrestag	-10.6651
▁20%	-10.6659
fügen	-10.6677
Ö	-10.6691
▁Lobby	-10.6691
▁definieren	-10.6691
▁drängt	-10.6691
▁gestattet	-10.6691
▁zurückkehren	-10.6692
▁Transaktion	-10.6692
▁ungewöhnlich	-10.6693
beamte	-10.6694
▁aussehen	-10.6696
▁Auffassung	-10.6698
▁systemische	-10.6702
▁Vorbild	-10.6707
▁II	-10.6729
zulassen	-10.674
transatlantische	-10.6743
▁ausgeprägt	-10.6743
▁erwähnt	-10.6743
▁stammen	-10.6743
▁Befreiung	-10.6743
zentren	-10.6743
▁Umverteilung	-10.6747
▁Viel	-10.6757
▁Sub	-10.6758
rbeitslosenquote	-10.6763
ood	-10.677
palästinensische	-10.677
▁Schwer	-10.6777
▁Med	-10.6778
transfer	-10.6795
▁Missbrauch	-10.6795
▁errichtet	-10.6795
▁Kreditnehmer	-10.6798
▁Abzug	-10.6811
arität	-10.6815
fiel	-10.682
▁ausreichen	-10.6839
christliche	-10.6848
▁gerettet	-10.6848
▁pragmatisch	-10.6848
▁ermutigt	-10.6848
▁gewährt	-10.6848
▁schaden	-10.6849
▁stetig	-10.6849
▁Schlacht	-10.685
▁Steuereinnahmen	-10.6851
sammlung	-10.6853
Euro	-10.6859
reinigt	-10.6859
▁Information	-10.6867
▁sitzen	-10.688
grün	-10.6897
▁physische	-10.6901
▁künstlich	-10.6901
▁Sudan	-10.6901
▁revolutionäre	-10.6902
▁Fakten	-10.6902
▁Flugzeug	-10.6902
▁Hauptstadt	-10.6902
▁Standpunkt	-10.6902
▁moralisch	-10.691
▁hinein	-10.691
▁Ali	-10.6927
▁Hindernis	-10.6927
▁Offenheit	-10.6954
▁schrumpfen	-10.6954
▁begleitet	-10.6954
▁Gesamtnachfrage	-10.6956
▁leiten	-10.6956
▁Gegenzug	-10.6958
▁Fertig	-10.6958
▁Sohn	-10.696
Ich	-10.6974
▁gefasst	-10.698
▁28	-10.6985
▁Darlehen	-10.7008
▁Tsunami	-10.7008
▁beherrscht	-10.7008
▁diskutieren	-10.7008
▁stammt	-10.7008
▁Hitler	-10.7008
▁strikt	-10.7008
▁ergriffen	-10.7009
System	-10.7017
▁umsetzen	-10.7018
Index	-10.7024
▁massiv	-10.7024
▁Rang	-10.7029
feind	-10.7042
▁illegale	-10.705
rechnung	-10.7054
▁Roh	-10.7055
▁Berufs	-10.7058
förde	-10.7061
▁Bruttoinlands	-10.7061
▁Rumänien	-10.7061
▁Wirksamkeit	-10.7061
▁abgelehnt	-10.7061
▁existiert	-10.7061
▁verankert	-10.7061
▁verschwinden	-10.7061
wahrscheinlich	-10.709
▁bereitet	-10.7092
Sicherheitsrates	-10.711
▁Ölpreis	-10.7112
▁Erdgas	-10.7115
▁Abschreckung	-10.7115
▁Mütter	-10.7115
▁Völkermord	-10.7115
▁exzessive	-10.7115
▁Hunderte	-10.7115
▁stolz	-10.7116
missbrauch	-10.7116
▁Nachkriegs	-10.7116
▁stoppen	-10.7118
▁Schuldenkrise	-10.712
▁Personal	-10.7132
▁2%	-10.7136
▁Erwerb	-10.7163
▁erheben	-10.7166
▁erkennt	-10.7169
rückgang	-10.717
▁digitale	-10.717
▁mexikanische	-10.717
▁1994	-10.717
▁2050	-10.717
▁keineswegs	-10.717
▁parlamentarisch	-10.717
▁populär	-10.717
▁primär	-10.717
▁zwang	-10.717
▁gerechtfertigt	-10.717
zentrum	-10.717
▁betreffen	-10.717
schule	-10.7171
▁Konkurs	-10.7172
▁Doha	-10.7176
▁schuf	-10.7176
▁gelangt	-10.7177
▁fair	-10.7177
▁Kapitalmärkte	-10.7179
▁Planung	-10.7183
▁kritische	-10.7223
mechanismus	-10.7224
▁Erdbeben	-10.7224
▁bestätigen	-10.7224
▁verkündet	-10.7224
▁Bücher	-10.7224
▁Taktik	-10.7224
▁verliert	-10.7225
▁gehandelt	-10.7225
▁Staatsausgaben	-10.7233
▁Akteur	-10.7235
Programm	-10.7237
▁50%	-10.7239
▁durchsetzen	-10.7247
▁erwies	-10.7256
▁Laden	-10.7273
▁dynamische	-10.7273
big	-10.7273
▁Bühne	-10.7279
▁Philippinen	-10.7279
▁Propaganda	-10.7279
▁erleichtern	-10.7279
▁gebraucht	-10.7279
▁saudische	-10.7279
▁schön	-10.7279
▁tendenziell	-10.7279
▁unnötig	-10.7279
▁Elektro	-10.7279
fläche	-10.728
▁Preisstabilität	-10.728
▁Prozentpunkte	-10.7281
▁Wäre	-10.729
Einkommen	-10.7298
▁Nationalstaat	-10.7302
▁vorgesehen	-10.7302
schoss	-10.7324
▁University	-10.7335
▁ausdrücklich	-10.7335
▁längerfristig	-10.7335
gipfel	-10.7335
vielversprechend	-10.7335
▁geteilt	-10.7338
▁Anschein	-10.7346
▁Voll	-10.7346
Werden	-10.735
ähle	-10.7359
schaftswahl	-10.7361
▁Job	-10.7363
▁Einrichtung	-10.7372
ull	-10.7373
▁langjährige	-10.7389
▁Greenspan	-10.739
▁1992	-10.739
▁Verletzung	-10.739
▁ernannt	-10.739
▁Eigentumsrechte	-10.739
▁entdeckt	-10.739
▁beteiligen	-10.739
▁Burma	-10.739
▁Damals	-10.7391
▁Multi	-10.7392
▁ablehnen	-10.7397
▁auszugeben	-10.7398
low	-10.7402
▁dauert	-10.7408
▁Jean	-10.7419
oto	-10.7421
ückt	-10.7424
erfolg	-10.743
rüstung	-10.7441
▁Flug	-10.7445
▁multi	-10.7446
▁Annäherung	-10.7446
▁Dschihad	-10.7446
▁geholfen	-10.7446
▁ASEAN	-10.7446
▁Errungenschaft	-10.7446
▁erlauben	-10.7446
▁schrecklich	-10.7446
▁Text	-10.7447
▁einheimische	-10.7448
▁anfangen	-10.745
▁entsteht	-10.7454
▁Argumentation	-10.7456
▁26	-10.7459
gestaltung	-10.7461
Finanz	-10.7467
▁Einlagen	-10.7473
▁Sicherung	-10.7487
herrschaft	-10.7497
▁Kategorie	-10.7502
▁Zypern	-10.7502
▁geleistet	-10.7502
▁territoriale	-10.7502
▁überwältigende	-10.7502
instrument	-10.7502
▁Symptom	-10.7502
▁Weigerung	-10.7502
▁gewann	-10.7502
▁Aufrechterhalt	-10.7502
▁durchzuführen	-10.7502
▁vertraut	-10.7502
▁Kriegsverbreche	-10.7502
▁verlagert	-10.7503
▁eingeleitet	-10.7505
▁Herstellung	-10.7505
▁kommunistische	-10.7506
▁Kapitalflüsse	-10.7506
▁High	-10.7514
▁korrupte	-10.7531
▁Erdo	-10.7533
▁Ersatz	-10.7538
▁Abbau	-10.7541
▁Kontroll	-10.7543
q	-10.7553
▁Gegenden	-10.7553
▁voranzutreiben	-10.7559
▁Konzerne	-10.7559
-19	-10.7559
▁nutzt	-10.7559
Journal	-10.7559
▁Staatsbürger	-10.7561
▁linke	-10.7562
▁Abrüstung	-10.7564
▁Sparpolitik	-10.7566
strom	-10.7567
sbilanzdefizit	-10.7576
▁Fundament	-10.7583
▁reden	-10.7586
liegt	-10.7587
interessen	-10.759
schnittliche	-10.7608
NE	-10.7608
wanderung	-10.7611
▁Verhältnisse	-10.7612
▁Bündnisse	-10.7614
▁Meinungsumfrage	-10.7616
▁engagiert	-10.7616
▁gespielt	-10.7616
▁scharf	-10.7616
vision	-10.7616
▁Beratung	-10.7616
▁hochentwickelte	-10.7617
umpf	-10.762
chancen	-10.7621
▁entlassen	-10.763
politisch	-10.763
▁abhängen	-10.7631
▁entlang	-10.7633
▁finanziell	-10.7642
▁45	-10.7649
▁zuerst	-10.7649
strich	-10.7656
▁gewinnt	-10.7667
▁Anforderungen	-10.7673
▁Arafat	-10.7673
▁Illusion	-10.7673
▁Kreditaufnahme	-10.7673
▁Physik	-10.7673
▁uneingeschränkt	-10.7673
material	-10.7673
▁Präsenz	-10.7673
▁weibliche	-10.7673
▁hofft	-10.7673
▁historisch	-10.7674
aufrechterhalten	-10.7674
▁Durchbruch	-10.7676
▁DNA	-10.7677
▁Berechnung	-10.768
▁Gleichheit	-10.7682
ühle	-10.7692
geist	-10.7695
▁ehrgeizige	-10.771
▁Demokratische	-10.773
▁Fokus	-10.773
▁Interpretation	-10.773
▁Online	-10.773
▁isoliert	-10.773
▁vorbereitet	-10.773
regime	-10.7731
▁vermitteln	-10.7732
Spitzenpolitiker	-10.7733
leute	-10.7734
ologen	-10.7746
▁Prüfung	-10.7748
Mitglied	-10.7748
zugreifen	-10.7763
▁Spekulation	-10.7777
▁Google	-10.7788
▁Intelligenz	-10.7788
▁Milosevic	-10.7788
▁konzipiert	-10.7788
▁problematisch	-10.7788
▁untergräbt	-10.7788
▁verdoppelt	-10.7788
Doktrin	-10.7788
methode	-10.7788
▁1995	-10.7788
▁geschickt	-10.7788
▁richtet	-10.7788
▁beschrieben	-10.7788
▁beliebt	-10.7792
vorteil	-10.7794
▁hergestellt	-10.7795
▁Übereinkommen	-10.7796
▁nord	-10.7798
zustand	-10.7812
▁übernahm	-10.7816
▁entschied	-10.7822
▁Schwellen	-10.7823
▁glaubwürdige	-10.7841
kampagne	-10.7846
▁Optimismus	-10.7846
▁Paradox	-10.7846
▁Pflanzen	-10.7846
▁maßgeblich	-10.7846
▁1945	-10.7846
▁Asyl	-10.7846
▁Manchmal	-10.7846
▁Firma	-10.7846
▁Kommunisten	-10.7846
▁Schüler	-10.7846
▁anzupassen	-10.7846
▁multinationale	-10.7846
fülle	-10.7846
▁wertvolle	-10.7847
IR	-10.785
übergreifende	-10.7879
▁wünschen	-10.7904
nichtungswaffen	-10.7905
▁angekündigt	-10.7905
▁erzählt	-10.7905
kommission	-10.7905
▁Cyber	-10.7905
▁WTO	-10.7905
▁Herbst	-10.7905
▁wünschenswert	-10.7905
▁kümmern	-10.7907
▁Bundesstaaten	-10.791
▁betrieben	-10.791
▁abgehalten	-10.7918
▁Erwachsene	-10.792
moral	-10.7929
gefunden	-10.7932
▁Dritte	-10.795
▁Vorgehen	-10.7954
▁interessant	-10.7955
▁Andr	-10.7955
▁ausgesprochen	-10.7963
▁brasilianische	-10.7963
▁fühlt	-10.7963
▁zutiefst	-10.7963
▁errichten	-10.7964
zweck	-10.7964
▁Veto	-10.7964
▁Karriere	-10.7964
▁richten	-10.7964
▁sozialistische	-10.7965
▁Wohnungs	-10.7966
▁dargestellt	-10.7971
Finanzstabilität	-10.7979
▁Zoll	-10.7981
▁diesmal	-10.8008
änderungen	-10.8014
▁Stammes	-10.8023
▁Pharma	-10.8023
▁anbieten	-10.8023
▁signifikant	-10.8023
▁verwurzelt	-10.8023
▁vielfältig	-10.8023
▁Griff	-10.8023
▁Nachbarschaft	-10.8023
▁Forum	-10.8023
▁erhoben	-10.8023
▁angefangen	-10.8023
▁Kurden	-10.8023
▁bewerten	-10.8025
▁mutige	-10.8033
▁Bisher	-10.8033
▁ehrlich	-10.8035
standards	-10.8047
▁quo	-10.8048
menge	-10.8064
schuss	-10.8071
▁Mode	-10.8071
katastrophe	-10.8082
▁Höchst	-10.8082
▁Nehmen	-10.8082
▁Romney	-10.8082
▁Territorium	-10.8082
▁anzuerkennen	-10.8082
▁destabilisieren	-10.8082
▁optimistisch	-10.8082
▁prognostiziert	-10.8082
▁Empfehlung	-10.8082
▁Tabak	-10.8082
sturz	-10.8082
▁erstmals	-10.8082
Virus	-10.8083
▁Diplomaten	-10.8083
▁begangen	-10.8084
▁fortsetzen	-10.8086
▁vereint	-10.8095
schub	-10.8099
▁Ereignis	-10.81
▁gemein	-10.8101
▁Nutz	-10.8109
ica	-10.8121
▁entsprechen	-10.8131
bald	-10.8142
▁Komponente	-10.8142
▁Popularität	-10.8142
▁behindern	-10.8142
▁implizit	-10.8142
▁versäumt	-10.8142
▁ausüben	-10.8142
▁Ihnen	-10.8143
▁Kenia	-10.8145
bringt	-10.8148
▁geschah	-10.8149
Y	-10.8168
▁drohen	-10.819
▁Polit	-10.8193
▁fallende	-10.8198
▁tödliche	-10.8201
verwaltung	-10.8202
▁Bemühen	-10.8202
▁Bosnien	-10.8202
▁Evolution	-10.8202
▁nordkoreanische	-10.8202
▁unterscheidet	-10.8202
▁verlangsamt	-10.8202
▁zwölf	-10.8202
▁verbinden	-10.8202
▁biologische	-10.8203
▁auferlegt	-10.8204
▁irgendwie	-10.8204
Sozialleistungen	-10.8209
motor	-10.8209
▁tausende	-10.821
▁betreffende	-10.8228
▁Ausländer	-10.8231
▁150	-10.8247
schwäche	-10.8258
erhöhung	-10.826
bemühungen	-10.8263
konsolidierung	-10.8263
verteidigung	-10.8263
▁Nicola	-10.8263
▁Simbabwe	-10.8263
▁Thatcher	-10.8263
▁Verzögerung	-10.8263
▁beschädigt	-10.8263
▁genießen	-10.8263
▁gewährleistet	-10.8263
▁Äußerungen	-10.8263
▁Selbstmord	-10.8263
▁Jelzin	-10.8263
▁Stahl	-10.8263
▁Energiequellen	-10.8263
▁Entdeckung	-10.8264
gemacht	-10.8267
▁Motor	-10.8267
▁mangelt	-10.8267
▁Schuldenlast	-10.8272
▁40%	-10.8277
▁Park	-10.8279
treue	-10.828
▁Autonomie	-10.8285
▁Auftrag	-10.8306
▁Lern	-10.8322
▁Angehörige	-10.8324
▁Gruppierung	-10.8324
▁Jugoslawien	-10.8324
▁Koordination	-10.8324
▁Kürzung	-10.8324
▁beruhigen	-10.8324
▁unerwartet	-10.8324
▁gebunden	-10.8324
▁beurteilen	-10.8324
▁Besteuerung	-10.8324
▁erschwert	-10.8324
▁verhandeln	-10.8326
▁null	-10.8327
▁leider	-10.8327
▁Vorherrschaft	-10.833
▁Zugriff	-10.8335
▁bekommt	-10.8348
▁verzeichnen	-10.8349
öffentlich	-10.8353
▁links	-10.8385
▁Ozean	-10.8385
▁Übertragung	-10.8385
▁Lebenserwartung	-10.8386
▁Mitgliedstaaten	-10.8388
▁Hochschul	-10.839
bereitschaft	-10.839
effizient	-10.8412
▁seitdem	-10.8416
▁Investment	-10.8432
▁Hab	-10.8438
▁Medikament	-10.8442
richtig	-10.8447
Waffenstillstand	-10.8447
anforderungen	-10.8447
▁Hurrikan	-10.8447
▁Massaker	-10.8447
▁geäußert	-10.8447
▁verknüpft	-10.8447
▁Generäle	-10.8447
agentur	-10.8447
iedlung	-10.8448
bombe	-10.845
neutral	-10.8454
verhältnisse	-10.8471
▁Rückzahlung	-10.8476
▁Besetzung	-10.8479
operation	-10.8509
▁Ankündigung	-10.8509
▁Kernwaffen	-10.8509
▁Lissabon	-10.8509
▁Turbulenzen	-10.8509
▁impliziert	-10.8509
▁jüdischen	-10.8509
▁1979	-10.8509
▁Beurteilung	-10.8509
▁Harvard	-10.8509
▁Mursi	-10.8509
▁gestaltet	-10.8509
▁Vorbereitung	-10.8509
beziehungen	-10.8509
▁Sind	-10.851
▁Führungskräfte	-10.8512
▁gründen	-10.8516
▁Gestaltung	-10.8519
freund	-10.8552
▁Element	-10.8554
▁Janukowitsch	-10.8572
▁Unterstützer	-10.8572
▁verspricht	-10.8572
▁Überlegungen	-10.8572
maschine	-10.8572
▁anpassen	-10.8573
▁Lücke	-10.8575
▁Rahmenwerk	-10.8578
liste	-10.86
versuch	-10.86
▁Ausgleich	-10.8606
App	-10.8611
Behörde	-10.8632
▁Ausbreitung	-10.8634
▁Bolivien	-10.8634
▁Myanmar	-10.8634
▁vermieden	-10.8634
▁Komplexität	-10.8634
▁Schuldenerlass	-10.8635
▁Schlimmer	-10.8635
▁schätzt	-10.8635
▁Ehre	-10.8635
▁legal	-10.8637
läufe	-10.8638
▁Rücktritt	-10.8643
saussichten	-10.8645
▁aggressiv	-10.8651
▁regieren	-10.8656
▁angelegte	-10.8675
▁Wechsel	-10.8697
▁widmen	-10.8698
▁WHO	-10.8698
▁Bankrott	-10.8698
▁Pfund	-10.8698
krebs	-10.8698
▁Rating	-10.8712
▁Anliegen	-10.8717
▁Tru	-10.8722
Zentralregierung	-10.8734
▁Deng	-10.8736
▁Bevor	-10.8752
lehnen	-10.8755
▁Friedman	-10.8761
▁Kalifornien	-10.8761
▁akademische	-10.8761
▁ähnelt	-10.8761
▁Dürre	-10.8761
▁Wendepunkt	-10.8761
▁verschuldet	-10.8761
▁Vorhersage	-10.8762
▁starb	-10.8762
▁Hätte	-10.8762
▁verhaftet	-10.8762
▁basierend	-10.8764
▁alternde	-10.8764
▁Aktienmarkt	-10.8767
▁Atomprogramm	-10.8773
▁festgestellt	-10.8773
▁Auswahl	-10.8776
Auf	-10.8815
▁Stück	-10.8815
▁BRIC	-10.8825
zerstörerisch	-10.8826
▁Darfur	-10.8826
▁Governance	-10.8826
▁Produzenten	-10.8826
▁Professor	-10.8826
▁eröffnet	-10.8826
▁Devisenreserven	-10.8826
▁Deregulierung	-10.8828
▁Köpfe	-10.8833
projekt	-10.8841
AIDS	-10.8868
▁regierende	-10.8869
▁Hegemon	-10.889
gerechnet	-10.889
▁Integrität	-10.889
▁Trennung	-10.889
▁Vermächtnis	-10.889
▁unzählige	-10.889
▁kreative	-10.889
beteiligung	-10.889
▁Party	-10.889
▁Detail	-10.889
▁gelingen	-10.8891
▁Jong	-10.8894
ürzt	-10.8895
▁Ruhe	-10.8902
▁besuchte	-10.8905
▁feststellen	-10.8907
EC	-10.8923
gekehrt	-10.8931
▁Aktivität	-10.8951
Grün	-10.8955
▁Beschäftigte	-10.8955
▁Verfechter	-10.8955
▁gefolgt	-10.8955
▁gekennzeichnet	-10.8955
▁America	-10.8955
▁Brown	-10.8955
▁angewandt	-10.8955
runde	-10.8957
▁geriet	-10.8957
▁bestenfalls	-10.8958
▁angeboten	-10.8959
bricht	-10.896
▁gründet	-10.8969
stift	-10.897
▁vereinbar	-10.8982
Haushaltspolitik	-10.8982
▁Sand	-10.8992
stopp	-10.902
stöße	-10.902
▁Arzneimittel	-10.902
▁Schröder	-10.902
▁Tuberkulose	-10.902
▁Versäumnis	-10.902
▁Zentralasien	-10.902
▁töten	-10.902
▁Beendigung	-10.902
▁Ebola	-10.902
▁Verlierer	-10.902
▁Flucht	-10.902
▁Papst	-10.902
▁Vorschriften	-10.9021
▁Schweigen	-10.9021
▁gewähren	-10.9021
▁lenken	-10.9021
berater	-10.9022
▁Abschaffung	-10.9027
▁rufen	-10.9043
▁Ya	-10.9068
▁aktuell	-10.9073
▁Verschiebung	-10.9086
▁Zugeständnisse	-10.9086
▁exportieren	-10.9086
▁gesteigert	-10.9086
▁robuste	-10.9086
▁Hersteller	-10.9086
▁auszuweiten	-10.9086
▁Gehälter	-10.9086
▁jedenfalls	-10.9089
▁Geldmenge	-10.9091
▁Zellen	-10.9099
▁willkommen	-10.91
▁Act	-10.9103
▁technisch	-10.9104
monat	-10.9105
Bundesstaat	-10.9139
▁Extrem	-10.9148
▁Gerät	-10.915
▁Entstehung	-10.9152
▁Immerhin	-10.9152
▁Spektrum	-10.9152
▁spüren	-10.9152
▁belastet	-10.9152
tektionistische	-10.9152
strahl	-10.9153
▁betonen	-10.9153
▁Fiskalpolitik	-10.9154
▁vermittelt	-10.9155
burg	-10.9155
summe	-10.9159
ight	-10.9168
▁zeitlich	-10.917
index	-10.9171
Ja	-10.9175
verträge	-10.918
▁Rasse	-10.9182
▁weiche	-10.9183
ollbeschäftigung	-10.9186
Regime	-10.9201
stärkste	-10.9216
Establishment	-10.9219
▁Bürokraten	-10.9219
▁Praktiken	-10.9219
▁Thaksin	-10.9219
▁Wiederbelebung	-10.9219
▁begrüßen	-10.9219
▁jahrelang	-10.9219
▁vermeintlich	-10.9219
▁Verbindlichkeit	-10.9219
▁Nahost	-10.9219
▁untersuchen	-10.9219
▁reformieren	-10.9219
▁weitreichende	-10.9219
▁Herkunft	-10.922
▁Maschinen	-10.922
▁übernimmt	-10.9221
▁30%	-10.9238
trüge	-10.9244
▁Politische	-10.9245
▁Niedrig	-10.9286
▁Reduktion	-10.9286
▁Zivilisation	-10.9286
▁einzudämmen	-10.9286
initiative	-10.9286
▁verletzt	-10.9286
▁widerspiegeln	-10.9286
▁Lehman	-10.9286
▁leistet	-10.9286
▁Reichweite	-10.9286
▁Siedlungen	-10.9286
Nobelpreisträger	-10.9286
▁Talent	-10.9287
▁verbreiten	-10.9287
▁Neigung	-10.9291
zuschlagen	-10.9297
▁ausgleichen	-10.9297
schiede	-10.9298
▁sub	-10.9303
zusammenarbeiten	-10.9305
▁Erhaltung	-10.931
ländisch	-10.933
▁Pakt	-10.9334
#160;	-10.935
orthodox	-10.9354
▁Erwägung	-10.9354
▁Kriterien	-10.9354
▁gehabt	-10.9354
▁blockiert	-10.9354
▁bedienen	-10.9354
▁Brücke	-10.9356
▁Marine	-10.9357
▁Ausstieg	-10.9363
▁konstruktive	-10.9371
sicherte	-10.9392
Immobilienpreise	-10.9394
sparen	-10.9399
Unternehmen	-10.9408
▁glücklich	-10.9415
stärke	-10.9418
▁Fiskal	-10.9419
▁Konsolidierung	-10.9422
▁Volatilität	-10.9422
▁argentinische	-10.9422
▁erschüttert	-10.9422
▁komplett	-10.9422
▁mobilisieren	-10.9422
▁psychische	-10.9422
▁verzichten	-10.9422
▁1996	-10.9422
▁Rettungspaket	-10.9422
sammeln	-10.9422
▁Geschlechter	-10.9422
▁half	-10.9422
▁hochwertige	-10.9422
▁finanzpolitisch	-10.9423
▁formell	-10.9425
ausschuss	-10.9425
▁solch	-10.9426
▁(„	-10.9427
▁glaubwürdig	-10.9428
▁Beiträge	-10.9432
▁passen	-10.9453
wagen	-10.9466
experten	-10.9466
anhand	-10.9481
höhe	-10.9489
▁Binnenmarkt	-10.949
▁Gebäude	-10.949
▁Ingenieur	-10.949
▁Norwegen	-10.949
▁bedrohen	-10.949
▁kontraproduktiv	-10.949
▁theoretisch	-10.949
▁vorhersehbar	-10.949
▁Milizen	-10.949
▁garantieren	-10.949
▁Gesetzgebung	-10.949
▁Labor	-10.949
▁gefragt	-10.949
▁gesundheitliche	-10.9491
▁minder	-10.9491
▁Umweltschutz	-10.9495
nutzung	-10.9495
▁dynamisch	-10.9498
▁leistungs	-10.9501
masse	-10.9504
▁Grundsätze	-10.9509
▁Nachfolge	-10.9512
fordert	-10.9514
Assad	-10.9546
Plan	-10.9548
völker	-10.9559
katholische	-10.9559
pazifische	-10.9559
sfürsorge	-10.9559
▁Effektivität	-10.9559
▁Frustration	-10.9559
▁Gremium	-10.9559
▁bemerkt	-10.9559
▁sinkt	-10.9559
dienstleistungen	-10.9559
▁beibehalten	-10.9559
▁gedacht	-10.9559
▁kostengünstig	-10.956
▁Gipfeltreffen	-10.956
▁Fremdkapital	-10.956
▁belaufen	-10.9561
▁strengere	-10.9561
▁Supermacht	-10.9561
schirm	-10.9562
▁Gül	-10.9566
gestützte	-10.9566
▁Stimm	-10.9593
▁bitte	-10.9594
Recht	-10.9626
▁Koordinierung	-10.9629
▁Triumph	-10.9629
▁außerordentlich	-10.9629
▁serbische	-10.9629
▁verhängt	-10.9629
▁Häufig	-10.9629
▁Berichterstatt	-10.9629
erklärung	-10.9629
▁Krankenhäuser	-10.9629
▁Zusammenhalt	-10.9635
▁Kapazität	-10.9638
▁verlor	-10.964
▁persönlich	-10.9643
▁sank	-10.9658
▁Prognose	-10.9673
volumen	-10.9699
▁vertiefen	-10.9699
▁Brutto	-10.9699
▁Mobilität	-10.9699
▁Tätigkeit	-10.9699
bestimmungen	-10.9699
▁schicken	-10.9699
▁Senator	-10.97
▁importiert	-10.97
Staat	-10.9702
▁unbekannt	-10.9703
▁festzustellen	-10.9707
▁Brennstoff	-10.9707
Vor	-10.9711
intensive	-10.9734
trend	-10.9735
verständnis	-10.9769
▁Ermordung	-10.9769
▁Erneuerung	-10.9769
▁ergänzen	-10.9769
▁jahrzehntelang	-10.9769
▁scheitert	-10.9769
▁vergrößern	-10.9769
▁vorstellbar	-10.9769
▁Maßstab	-10.9769
▁gespalten	-10.9769
▁minimal	-10.9769
transport	-10.9769
▁Konvention	-10.9769
▁teilnehmen	-10.9769
▁untragbar	-10.9769
▁Säule	-10.9769
verhältnismäßig	-10.9769
büro	-10.977
▁Handelsdefizit	-10.9776
▁wachstums	-10.9779
leitung	-10.9784
▁weh	-10.9787
kandidat	-10.9808
konservativ	-10.9809
Finanzminister	-10.9825
Über	-10.9831
▁Loyalität	-10.984
▁PRINCETON	-10.984
▁befürchten	-10.984
▁bestrebt	-10.984
▁verschlimmert	-10.984
Pazifik	-10.984
▁Wohlergehen	-10.984
▁angepasst	-10.984
▁tiefgreifende	-10.984
▁ewig	-10.9841
▁begriffen	-10.9841
▁Konjunkturpaket	-10.9841
▁Wachstumsmodell	-10.985
motiv	-10.9876
▁2,5	-10.9878
▁zwanzigste	-10.988
▁Handelsbilanz	-10.9884
strecke	-10.9899
▁gestützt	-10.9904
Runde	-10.9906
Qaida	-10.9911
▁Ansteckung	-10.9911
▁Kapitalzuflüsse	-10.9911
▁Manipulation	-10.9911
▁bürokratische	-10.9911
▁herkömmliche	-10.9911
▁riskieren	-10.9911
▁südkoreanische	-10.9911
▁1967	-10.9911
▁Rechtfertigung	-10.9911
▁Verhaftung	-10.9912
▁Sharon	-10.9912
▁schwächt	-10.9913
▁Augenblick	-10.9914
▁vergleichen	-10.9915
▁Staatschef	-10.9917
▁Schuldenquote	-10.9918
▁entfallen	-10.9925
▁Investmentbank	-10.9929
Entwicklungsbank	-10.9932
▁irische	-10.9951
pu	-10.9955
▁Andernfalls	-10.9983
▁Unzufriedenheit	-10.9983
▁World	-10.9983
▁Elektrizität	-10.9983
▁Exekutiv	-10.9983
Gesetz	-10.9983
▁AKP	-10.9983
▁eingerichtet	-10.9983
▁kohlenstoffarme	-10.9983
▁Sturm	-10.9984
▁Wiederwahl	-10.9986
▁Handelspartner	-10.9988
▁erlangt	-10.9988
▁ihrerseits	-10.9993
▁60%	-10.9997
▁enthält	-10.9998
▁Befugnisse	-10.9999
▁baut	-11.005
technik	-11.0056
löhne	-11.0056
▁Dörfer	-11.0056
▁Einmischung	-11.0056
▁Holocaust	-11.0056
▁Humankapital	-11.0056
▁Letztlich	-11.0056
▁Liberale	-11.0056
▁annähernd	-11.0056
▁beeinträchtigt	-11.0056
▁libanesische	-11.0056
▁verabschieden	-11.0056
▁genetisch	-11.0056
▁stärkt	-11.0056
schmelze	-11.0056
▁Dorf	-11.0056
tümer	-11.0057
▁blutige	-11.0058
Vertrag	-11.0063
▁drohende	-11.007
▁greifende	-11.0087
▁Letztere	-11.0088
▁Ernte	-11.011
▁Wertpapier	-11.0111
▁sofortige	-11.0114
▁laufende	-11.0118
awi	-11.0122
▁Muslimbruder	-11.0129
▁Parallel	-11.0129
▁Qualifikation	-11.0129
▁spektakulär	-11.0129
▁Wälder	-11.0129
▁namens	-11.0129
▁Bindung	-11.0129
▁Instanz	-11.0129
▁Etwa	-11.0129
▁morgen	-11.0129
▁Sechs	-11.0131
▁Genauso	-11.0131
▁Privatsektor	-11.0132
▁warnte	-11.0135
▁Präsidentenwahl	-11.0136
▁hinterlassen	-11.0137
▁Erwartung	-11.0149
komplex	-11.0169
▁zuständig	-11.017
wettbewerb	-11.0172
▁bittere	-11.0177
israelische	-11.0198
▁Nordamerika	-11.02
▁Schlagzeilen	-11.0202
▁Substanz	-11.0202
▁Zusätzlich	-11.0202
▁zweifelhaft	-11.0202
▁Ökosystem	-11.0202
▁äußern	-11.0202
▁Vordergrund	-11.0202
▁strebt	-11.0202
▁Streitigkeiten	-11.0202
▁Umgebung	-11.0202
▁reichsten	-11.0203
graph	-11.0206
▁Auflösung	-11.0212
▁illegal	-11.0218
▁schätz	-11.0229
▁Angestellte	-11.0232
▁kauft	-11.0233
schüsse	-11.0274
diagnosti	-11.0276
▁Analysten	-11.0276
▁Bewohner	-11.0276
▁Binnennachfrage	-11.0276
▁Kommentatoren	-11.0276
▁Vergewaltigung	-11.0276
▁Wohlfahrtsstaat	-11.0276
▁ermordet	-11.0276
▁männliche	-11.0276
▁Formulierung	-11.0276
▁Vereinigung	-11.0276
▁überholt	-11.0276
▁Umschuldung	-11.0276
▁klinische	-11.0276
▁Begrenzung	-11.0277
▁gestatten	-11.0278
▁kritisch	-11.0279
flüge	-11.0284
▁1,2	-11.0304
▁Aktienmärkte	-11.0326
▁Gespräch	-11.0327
stufe	-11.0331
deutet	-11.0337
▁basiert	-11.0346
Bewegung	-11.0349
▁Sahara	-11.0351
▁Therapie	-11.0351
▁Tschetschenien	-11.0351
▁beobachtet	-11.0351
▁blockieren	-11.0351
▁rasant	-11.0351
▁Mängel	-11.0351
▁fragwürdig	-11.0351
▁Durchführung	-11.0359
▁Genom	-11.0359
▁Errichtung	-11.0363
▁Liebe	-11.0366
unterschied	-11.0366
▁Rechtssystem	-11.038
▁Glaube	-11.0412
▁Jacques	-11.0426
▁Labour	-11.0426
▁Toleranz	-11.0426
▁erleichtert	-11.0426
▁gesprochen	-11.0426
▁korrekt	-11.0426
▁verschwunden	-11.0426
▁Charles	-11.0426
inhaber	-11.0426
▁nachzudenken	-11.0426
▁moderate	-11.0426
▁schwedische	-11.0426
▁verkörpert	-11.0427
▁Gates	-11.0427
reißen	-11.0428
▁verweisen	-11.0428
▁hindern	-11.043
▁Wahlsieg	-11.0431
blut	-11.0435
▁Absicherung	-11.0435
▁Dafür	-11.0439
skandidaten	-11.0461
▁Software	-11.0463
kümmer	-11.0499
▁Abgeordneten	-11.0502
▁Aufklärung	-11.0502
▁Böse	-11.0502
▁Korrektur	-11.0502
▁Verlangsamung	-11.0502
▁beeinträchtigen	-11.0502
▁birgt	-11.0502
▁materielle	-11.0502
▁verbieten	-11.0502
▁verschlimmern	-11.0502
▁zuverlässig	-11.0502
▁berechtigt	-11.0502
▁versorgen	-11.0502
▁Times	-11.0502
▁unternehmerisch	-11.0502
▁spiegeln	-11.0504
▁diesjährige	-11.0504
▁religiös	-11.0512
▁Förder	-11.0554
Sicherheitsrat	-11.0568
appen	-11.0572
▁beherrschen	-11.0575
verletzungen	-11.0578
▁Belgien	-11.0578
▁Brothers	-11.0578
▁Gaulle	-11.0578
▁Kontroverse	-11.0578
▁McCain	-11.0578
▁Rezept	-11.0578
▁Teufelskreis	-11.0578
▁ankurbeln	-11.0578
▁beschäftigen	-11.0578
▁kurdische	-11.0578
▁unterstreicht	-11.0578
▁1993	-11.0578
▁Andererseits	-11.0578
▁Feindseligkeit	-11.0578
▁Verschwörung	-11.0578
▁gestürzt	-11.0578
▁stellvertretend	-11.0578
▁unfair	-11.0578
▁Gegenwart	-11.0578
▁besagt	-11.0578
▁versagt	-11.0578
▁chemische	-11.0578
▁Eigenschaften	-11.0578
einrichtungen	-11.0579
▁Angaben	-11.0579
spitze	-11.0579
▁kapitalistische	-11.058
▁Katar	-11.0586
▁ineffiziente	-11.0587
▁Mario	-11.0619
▁Hillary	-11.0655
▁Verhinderung	-11.0655
▁einschränken	-11.0655
▁Tötung	-11.0655
▁begrüßt	-11.0655
▁substanziell	-11.0655
▁verzerrt	-11.0655
▁versteckt	-11.0655
▁Tochter	-11.0655
periode	-11.0655
▁zunichte	-11.0655
▁überwachen	-11.0656
▁senkt	-11.0657
liberalisierung	-11.0659
▁Marx	-11.0659
▁Hauptgrund	-11.066
besser	-11.066
▁hervorgebracht	-11.066
mäßigkeit	-11.0669
Financial	-11.0733
▁Insgesamt	-11.0733
▁hartnäckig	-11.0733
▁kontinuierlich	-11.0733
▁monetäre	-11.0733
▁professionelle	-11.0733
▁vernachlässigt	-11.0733
▁Geberländer	-11.0733
schießen	-11.0733
▁schief	-11.0733
▁Makro	-11.0733
▁ungewiss	-11.0733
▁Kaiser	-11.0733
▁vorteilhaft	-11.0733
▁befreit	-11.0734
springen	-11.0734
kunden	-11.0744
▁Mega	-11.0746
front	-11.075
▁arabisch	-11.0789
▁einseitige	-11.0798
▁Gazprom	-11.0811
▁Gorbatschow	-11.0811
▁Sackgasse	-11.0811
▁Urbanisierung	-11.0811
▁optimal	-11.0811
▁skeptisch	-11.0811
▁Verschwendung	-11.0811
▁schützt	-11.0811
▁unkonventionell	-11.0811
▁auszuüben	-11.0811
▁erweist	-11.0811
▁überwacht	-11.0811
▁vernichten	-11.0811
▁hervorrufen	-11.0811
▁hervorgerufen	-11.0813
▁Liga	-11.0816
Strategie	-11.0816
zusammen	-11.0817
▁verschieden	-11.0849
▁Billion	-11.0854
zialversicherung	-11.0873
bezogene	-11.0876
▁Zivil	-11.0888
stadt	-11.0889
▁Automobil	-11.089
▁Individuen	-11.089
▁Vermeidung	-11.089
▁Zuflucht	-11.089
▁anzubieten	-11.089
▁elektronische	-11.089
▁herbeiführen	-11.089
▁hervorragend	-11.089
▁nominale	-11.089
▁präzise	-11.089
▁Fläche	-11.089
▁dunkle	-11.089
▁vergrößert	-11.089
▁weigern	-11.089
▁Käufer	-11.089
straße	-11.089
repräsentiert	-11.089
▁Eigentümer	-11.089
▁Flut	-11.089
gegenwärtig	-11.0898
Woods	-11.0901
▁beständig	-11.0953
▁spezifische	-11.0954
migranten	-11.0969
▁Populismus	-11.0969
▁Portfolio	-11.0969
▁Richard	-11.0969
▁Vergeltung	-11.0969
▁benachbarte	-11.0969
▁Verlagerung	-11.0969
▁militärisch	-11.0969
▁beweisen	-11.0971
▁Völkerrecht	-11.0973
niedrig	-11.0977
▁heilig	-11.0978
▁korrupt	-11.1009
▁Griechen	-11.1047
▁Begründung	-11.1049
▁Beobachtung	-11.1049
▁Erleichterung	-11.1049
▁Meeresspiegel	-11.1049
▁Transformation	-11.1049
▁auslöst	-11.1049
▁stillschweigend	-11.1049
▁Chemie	-11.1049
▁Ruanda	-11.1049
▁koreanische	-11.1049
▁Überschüsse	-11.1052
▁ausweiten	-11.1055
Beitritt	-11.1058
▁decken	-11.1061
republik	-11.1129
▁Abdullah	-11.113
▁Bagdad	-11.113
▁Historiker	-11.113
▁ausgeweitet	-11.113
▁bestraft	-11.113
▁Vorwürfe	-11.113
▁abrupt	-11.113
▁florieren	-11.113
▁Krankenhaus	-11.113
▁Mühe	-11.113
▁üblicherweise	-11.1132
▁Atomenergie	-11.1132
▁belasten	-11.1133
▁Norm	-11.1135
▁Afrikaner	-11.1148
▁fremde	-11.1155
▁Erdöl	-11.1211
▁Kreativität	-11.1211
▁Luxus	-11.1211
▁gängige	-11.1211
▁militante	-11.1211
▁östliche	-11.1211
▁Gewohnheit	-11.1211
▁Kabinett	-11.1211
▁Ungerechtigkeit	-11.1211
arbeitslosigkeit	-11.1211
▁Kairo	-11.1211
▁erweitern	-11.1211
▁TPP	-11.1211
therapie	-11.1211
▁integrieren	-11.1211
bewusstsein	-11.1211
▁informelle	-11.1212
▁informiert	-11.1216
effizienz	-11.1241
▁ausgewogene	-11.1277
▁Ausgabenkürzung	-11.1284
Berücksichtigung	-11.1293
▁Bürgermeister	-11.1293
▁Entwurf	-11.1293
▁Kommentar	-11.1293
▁beabsichtigt	-11.1293
▁verschlechtert	-11.1293
▁Befehl	-11.1293
erholung	-11.1295
▁angehören	-11.1296
▁Radio	-11.1303
Außenminister	-11.1307
wärm	-11.1309
▁verlässliche	-11.1327
▁Momenta	-11.1349
sentwurf	-11.1375
▁BRÜSSEL	-11.1375
▁Mobiltelefon	-11.1375
▁beizutragen	-11.1375
▁irgendwelche	-11.1375
▁SZR	-11.1375
▁prominente	-11.1375
▁steigert	-11.1375
▁Betrug	-11.1375
▁QE	-11.1376
▁bewiesen	-11.1376
Aufsichtsbehörde	-11.1377
▁Besser	-11.1378
▁messen	-11.1379
▁Annan	-11.1381
▁Wild	-11.1384
trächtig	-11.1386
einschließlich	-11.139
gebilde	-11.1401
kraftwerke	-11.1435
budget	-11.1459
▁Insolvenz	-11.1459
▁Telefon	-11.1459
▁Ungewissheit	-11.1459
▁explizit	-11.1459
▁facto	-11.1459
▁verlangsamen	-11.1459
▁Ernennung	-11.1459
▁Somalia	-11.1459
▁abhängt	-11.1459
▁Fluss	-11.1459
plikation	-11.1459
▁beseitigt	-11.1459
▁Leitzins	-11.1461
▁lockere	-11.1462
importe	-11.1465
Amerika	-11.1475
Markt	-11.1475
asiatischen	-11.151
▁gesichert	-11.152
meisterschaft	-11.1543
▁Microsoft	-11.1543
▁Ronald	-11.1543
▁Roosevelt	-11.1543
▁Skepsis	-11.1543
▁Vergütung	-11.1543
▁befürchtet	-11.1543
▁befürwortet	-11.1543
▁beinhaltet	-11.1543
▁Übereinstimmung	-11.1543
▁Rivalen	-11.1543
▁Einzelpersonen	-11.1543
▁fehlerhaft	-11.1543
▁aufgefordert	-11.1544
▁Polio	-11.1544
▁Weltgesundheits	-11.1546
Haushalt	-11.1561
▁zahlt	-11.1566
▁strategisch	-11.1584
einkünfte	-11.1628
produktivität	-11.1628
▁Ankurbelung	-11.1628
▁Gegebenheiten	-11.1628
▁Konvergenz	-11.1628
▁anstrebt	-11.1628
▁empfunden	-11.1628
▁verdoppeln	-11.1628
▁verschlechtern	-11.1628
▁Hürde	-11.1628
Agenturen	-11.1628
▁verschafft	-11.1628
▁Beachtung	-11.1628
▁Landwirte	-11.1628
▁fürchtet	-11.1629
▁Nordafrika	-11.1629
▁Frühjahr	-11.1629
▁Reservewährung	-11.1629
▁unschuldige	-11.1639
ohne	-11.1648
glück	-11.1684
▁Schätzung	-11.1685
▁Anstrengung	-11.1685
intervention	-11.1713
▁Begeisterung	-11.1713
▁Chamenei	-11.1713
▁Halbinsel	-11.1713
▁Neuausrichtung	-11.1713
▁Nixon	-11.1713
▁demografische	-11.1713
▁exportiert	-11.1713
▁spürbar	-11.1713
▁Bretton	-11.1713
▁anfänglich	-11.1713
▁engagieren	-11.1713
▁sinnlos	-11.1713
▁Gleichberechtig	-11.1713
▁Sexual	-11.1713
▁Wünsche	-11.1713
▁allesamt	-11.1713
▁Pleite	-11.1714
Agent	-11.1729
BIP	-11.1734
bestimmt	-11.1739
▁Subprime	-11.1799
iedervereinigung	-11.1799
sperrvertrag	-11.1799
▁dominieren	-11.1799
▁hochgradig	-11.1799
▁unrealistisch	-11.1799
▁wirkungsvoll	-11.1799
▁Pflege	-11.1799
▁reguliert	-11.1799
▁benutzen	-11.1799
▁nützen	-11.1799
anpassung	-11.1802
Charta	-11.1802
▁mächtigste	-11.1804
ohr	-11.1804
vereinbarung	-11.1813
spruch	-11.1824
ergebnis	-11.1846
Demo	-11.1848
▁Beschränkung	-11.1861
▁speziell	-11.1868
▁Tyrann	-11.1886
dustrialisierung	-11.1886
zyklus	-11.1886
▁Gastgeber	-11.1886
▁respektieren	-11.1886
▁hieß	-11.1886
▁Derivate	-11.1886
▁Größenordnung	-11.1886
▁Fertigkeiten	-11.1886
▁belief	-11.1887
▁Biologie	-11.1887
▁symbolische	-11.1888
▁Zerfall	-11.1888
geschoben	-11.1888
machung	-11.189
▁Afrikanische	-11.1909
Steuer	-11.1911
▁zielt	-11.1913
änke	-11.1939
störung	-11.1974
Palästinensische	-11.1974
männer	-11.1974
▁Attraktivität	-11.1974
▁Augenmerk	-11.1974
▁Mohammed	-11.1974
▁Trinkwasser	-11.1974
▁Zumindest	-11.1974
▁demographische	-11.1974
▁geringfügig	-11.1974
▁verteidigt	-11.1974
▁willkürlich	-11.1974
Links	-11.1975
▁restliche	-11.1976
▁handelbare	-11.1977
anstalt	-11.1977
▁Baby	-11.1977
▁steuerliche	-11.1984
▁plant	-11.1993
Gruppe	-11.1999
▁Beteiligten	-11.2062
▁expansive	-11.2062
▁gesorgt	-11.2062
▁getrennt	-11.2062
▁irrational	-11.2062
▁verweigert	-11.2062
▁Häfen	-11.2062
▁Pensions	-11.2062
▁verstorbene	-11.2062
▁Erdogan	-11.2062
▁ablehnt	-11.2062
vorschriften	-11.2062
konzern	-11.2063
demokratie	-11.2063
▁Egal	-11.2063
spannen	-11.2064
▁Standort	-11.2064
▁geordnete	-11.208
Handel	-11.2089
arabische	-11.2092
Somit	-11.2102
gestalt	-11.2129
pflanzen	-11.2152
produzent	-11.2152
▁Akzeptanz	-11.2152
▁Aussöhnung	-11.2152
▁Publikum	-11.2152
▁Verfügbarkeit	-11.2152
▁Zölle	-11.2152
▁simple	-11.2152
▁stagnierende	-11.2152
▁1973	-11.2152
▁Enthüllung	-11.2152
▁Erschütterung	-11.2152
▁merkwürdig	-11.2152
▁Vorreiter	-11.2152
▁klingt	-11.2152
▁unhaltbar	-11.2152
▁Fleisch	-11.2152
▁Zinserhöhung	-11.2152
▁globalisierten	-11.2153
▁James	-11.2153
▁beinhalten	-11.2156
▁straf	-11.2193
▁Maastricht	-11.2242
▁Mythos	-11.2242
▁Oligarchen	-11.2242
▁Trennlinie	-11.2242
▁bedürfen	-11.2242
▁fiskalpolitisch	-11.2242
▁souveräne	-11.2242
▁Abwesenheit	-11.2242
▁Gordon	-11.2242
▁Ironie	-11.2242
▁Ghana	-11.2242
▁winzige	-11.2242
hersteller	-11.2242
▁angestiegen	-11.2242
▁City	-11.2242
▁Bruder	-11.2242
▁Aktienkurse	-11.2242
▁Uhr	-11.2242
▁Täter	-11.2242
▁verlagern	-11.2243
unverantwortlich	-11.2243
▁vertrieben	-11.2243
▁milde	-11.2243
▁beschuldigt	-11.2244
▁naiv	-11.2244
▁Benzin	-11.2244
▁zufällig	-11.2246
▁lebendig	-11.2246
Auslandsschulden	-11.2246
kürzungen	-11.2251
Frank	-11.2257
▁geheime	-11.2273
▁wandte	-11.2284
investition	-11.2315
differenz	-11.2333
▁Aufständische	-11.2333
▁Development	-11.2333
▁Dominanz	-11.2333
▁Einkünfte	-11.2333
▁NGOs	-11.2333
▁Satelliten	-11.2333
▁Ungeachtet	-11.2333
▁Zahlungsausfall	-11.2333
▁andernorts	-11.2333
▁befürworten	-11.2333
▁beiträgt	-11.2333
▁irreführend	-11.2333
▁subventioniert	-11.2333
▁Ägypter	-11.2333
▁stützt	-11.2333
▁jenseit	-11.2333
▁Diskurs	-11.2333
▁verbleibenden	-11.2333
▁Stolz	-11.2333
▁absurd	-11.2333
▁Daraus	-11.2334
▁erschweren	-11.2334
▁Geschäftsleute	-11.2334
stellig	-11.2343
streng	-11.2366
Entwicklungsziel	-11.2369
▁Frag	-11.2377
▁Impfstoffe	-11.2396
▁Bedingung	-11.2409
Industriestaaten	-11.2409
anleihen	-11.2422
▁Finnland	-11.2424
▁Ironischerweise	-11.2424
▁Kasachstan	-11.2424
▁Kilometer	-11.2424
▁Olympische	-11.2424
▁Schottland	-11.2424
▁Schwankungen	-11.2424
▁liquide	-11.2424
▁nördlich	-11.2424
▁äußere	-11.2424
sterblichkeit	-11.2424
▁Schrecken	-11.2424
▁nannte	-11.2424
▁Möglicherweise	-11.2425
▁Serben	-11.2425
artikel	-11.2428
sunterschiede	-11.243
▁Unabhängig	-11.2463
typ	-11.2507
migration	-11.2517
schwankungen	-11.2517
▁Architekt	-11.2517
▁Patriot	-11.2517
▁Shanghai	-11.2517
▁konsequent	-11.2517
▁signalisiert	-11.2517
▁unterschätzt	-11.2517
▁zugänglich	-11.2517
▁zwingt	-11.2517
▁wütend	-11.2517
▁überwunden	-11.2517
▁KGB	-11.2517
debatte	-11.2517
▁fortschrittlich	-11.2517
firmen	-11.2517
▁Quoten	-11.2517
▁Doppel	-11.2517
gegner	-11.2518
▁gebaut	-11.2519
▁Lüge	-11.2519
üchtige	-11.252
▁vernetzt	-11.2521
▁Amerikanische	-11.2536
▁Züge	-11.2537
Truppen	-11.2552
China	-11.2552
Friedensabkommen	-11.2593
stunde	-11.2608
▁ungerecht	-11.261
atlantische	-11.261
▁Hardliner	-11.261
▁Legitimation	-11.261
▁identifiziert	-11.261
▁eventuell	-11.261
▁Kerry	-11.2611
▁gelegentlich	-11.2611
▁markiert	-11.2611
▁strafrechtlich	-11.2611
▁Lebensstil	-11.2611
▁Primär	-11.2611
▁zurückzukehren	-11.2611
▁präsentieren	-11.2611
▁jetzige	-11.2611
▁Termin	-11.2611
▁Uran	-11.2611
ografie	-11.2612
▁tödlich	-11.2612
▁verarmte	-11.2616
▁0,5	-11.2622
▁Gandhi	-11.2629
▁zukünftig	-11.2636
mitglied	-11.2658
▁russisch	-11.2684
elekommunikation	-11.2705
akzeptable	-11.2705
▁Anwälte	-11.2705
▁Händler	-11.2705
▁Motivation	-11.2705
▁inspiriert	-11.2705
▁seltsam	-11.2705
▁unbeabsichtigt	-11.2705
▁zyklische	-11.2705
▁Äthiopien	-11.2705
volkswirtschaft	-11.2705
▁Spezial	-11.2705
▁ausschließen	-11.2705
▁niederländische	-11.2705
▁zahllose	-11.2706
gestanden	-11.2739
Kommission	-11.2744
zuwachs	-11.2786
geschwindigkeit	-11.28
dynamik	-11.28
▁Aggression	-11.28
▁Entlassung	-11.28
▁Früchte	-11.28
▁Regulierer	-11.28
▁Repression	-11.28
▁Vernunft	-11.28
▁Verzweiflung	-11.28
▁Volksabstimmung	-11.28
▁Weißrussland	-11.28
▁kürzen	-11.28
▁rückgängig	-11.28
▁ausgeübt	-11.28
▁Geheimnis	-11.28
▁abzuwenden	-11.28
▁Paket	-11.28
status	-11.28
▁Minute	-11.28
▁aufweist	-11.2801
▁begünstigt	-11.2801
Frieden	-11.2841
Platz	-11.2841
deutsche	-11.2842
Außenministerium	-11.2877
konkurrenz	-11.2896
▁Guerilla	-11.2896
▁Indikatoren	-11.2896
▁Kennedy	-11.2896
▁Schwächung	-11.2896
▁Südostasien	-11.2896
▁Viktor	-11.2896
▁marginal	-11.2896
▁Beliebtheit	-11.2896
▁Bestrafung	-11.2896
▁Biokraftstoff	-11.2896
▁fortgeschritten	-11.2896
▁manipuliert	-11.2896
▁ordnungsgemäß	-11.2896
▁unausweichlich	-11.2896
▁widersprüchlich	-11.2896
▁Überlegenheit	-11.2896
▁Einbeziehung	-11.2896
▁Oberhand	-11.2896
▁genehmigt	-11.2896
▁frühzeitig	-11.2896
▁statistische	-11.2896
▁undenkbar	-11.2896
▁Video	-11.2896
manager	-11.2897
▁Zurückhaltung	-11.2897
information	-11.2899
▁inhaftiert	-11.2899
▁Stufe	-11.29
▁Gore	-11.2902
▁reichlich	-11.2903
▁Sterbe	-11.2906
▁tragische	-11.2929
Unter	-11.2939
ultilateralismus	-11.2993
▁Draghi	-11.2993
▁Economic	-11.2993
▁Langfristig	-11.2993
▁Verabschiedung	-11.2993
▁repressiv	-11.2993
▁ungelöst	-11.2993
▁überprüfen	-11.2993
▁Algerien	-11.2993
▁Rußland	-11.2993
▁Untätigkeit	-11.2993
▁kurzsichtig	-11.2993
▁dreißig	-11.2994
▁Prag	-11.2994
▁Feier	-11.2997
▁reformiert	-11.2997
floss	-11.3016
Franc	-11.3021
▁überraschen	-11.3043
kenntnis	-11.3081
▁Dissidenten	-11.3091
▁Episode	-11.3091
▁Erfüllung	-11.3091
▁Krugman	-11.3091
▁Können	-11.3091
▁Niederschlag	-11.3091
▁Radikale	-11.3091
▁gründlich	-11.3091
▁herauszufinden	-11.3091
▁qualitativ	-11.3091
komitee	-11.3091
▁verbindet	-11.3091
spritze	-11.3091
▁verleiht	-11.3091
▁unangenehm	-11.3091
▁Zensur	-11.3091
Verschlechterung	-11.3091
deckung	-11.3091
▁Musik	-11.3092
▁abzubauen	-11.3092
geholt	-11.3092
▁englische	-11.3093
ographie	-11.3094
▁agiert	-11.3102
Bericht	-11.3138
wächst	-11.3139
amerikanisch	-11.3157
medizin	-11.3189
▁Gewerkschaft	-11.319
paradox	-11.319
persönlichkeiten	-11.319
▁demonstriert	-11.319
▁gänzlich	-11.319
▁spekulative	-11.319
▁staatseigene	-11.319
▁verwaltet	-11.319
▁Erscheinung	-11.319
▁Mahmu	-11.319
▁Verbund	-11.3191
▁Geisel	-11.3191
eigentum	-11.3194
Militär	-11.3239
gläubig	-11.329
▁Interview	-11.329
▁Rivalität	-11.329
▁Szenarien	-11.329
▁Twitter	-11.329
▁UdSSR	-11.329
▁Zugehörigkeit	-11.329
▁libysche	-11.329
▁organisieren	-11.329
▁unbedeutend	-11.329
▁vertieft	-11.329
▁Rettungsaktion	-11.329
▁(19	-11.329
▁Smith	-11.329
▁Veranstaltung	-11.329
▁generell	-11.3291
▁unterminiert	-11.3291
▁Brief	-11.3291
▁gerät	-11.3291
gelaufen	-11.3296
▁Nobelpreis	-11.3391
zählung	-11.3391
▁Analogie	-11.3391
▁Anziehungskraft	-11.3391
▁Gemeinwesen	-11.3391
▁HAVEN	-11.3391
▁Schriftsteller	-11.3391
▁Ärmsten	-11.3391
▁DPJ	-11.3391
▁Explosion	-11.3391
▁abgestimmt	-11.3391
▁australische	-11.3391
▁erworben	-11.3391
▁mobile	-11.3391
▁Uneinigkeit	-11.3391
▁arbeitslos	-11.3391
▁ruhig	-11.3391
▁Fischerei	-11.3392
präsentantenhaus	-11.3392
▁klingen	-11.3392
fahrzeuge	-11.3392
▁schenken	-11.3392
▁Protein	-11.3393
▁verhandelt	-11.3395
▁verbracht	-11.3396
▁passt	-11.34
▁Waffe	-11.3429
Achse	-11.3445
serwartungen	-11.3493
dauerlicherweise	-11.3493
philosoph	-11.3493
▁Anhäufung	-11.3493
▁Antibiotika	-11.3493
▁Chinesische	-11.3493
▁Raketenabwehr	-11.3493
▁bewältigt	-11.3493
▁regulieren	-11.3493
▁respektiert	-11.3493
▁verwickelt	-11.3493
▁wählt	-11.3493
▁Stabilitätspakt	-11.3493
▁Osama	-11.3493
▁verurteilen	-11.3493
▁Entfernung	-11.3493
▁Gebrauch	-11.3493
▁erstreckt	-11.3493
▁Nerven	-11.3494
▁Nachbarländer	-11.3494
▁antwortete	-11.3494
▁Barrieren	-11.3494
▁Darstellung	-11.3494
▁Präsidentenamt	-11.3494
▁bevorzugen	-11.3494
▁bedient	-11.3494
▁Typ	-11.3494
▁Schnitt	-11.3494
▁beitrug	-11.3494
▁erlitten	-11.3494
▁1,4	-11.3495
▁geboten	-11.3495
▁ultra	-11.3495
rendite	-11.3495
▁großartige	-11.3496
▁heimlich	-11.3501
pekulationsblase	-11.3512
▁herrschen	-11.354
pflege	-11.3541
japanische	-11.3548
Institutionen	-11.3548
ängst	-11.3549
ansprüche	-11.3596
gefügt	-11.3596
kompetenz	-11.3596
manipulation	-11.3596
▁Fantasie	-11.3596
▁Lähmung	-11.3596
▁Marokko	-11.3596
▁Monarchie	-11.3596
▁gewarnt	-11.3596
▁nachdrücklich	-11.3596
▁nigerianische	-11.3596
▁regulatorische	-11.3596
▁verlängern	-11.3596
▁virtuelle	-11.3596
▁Anfälligkeit	-11.3597
▁Oberfläche	-11.3597
▁inspirieren	-11.3597
▁landesweit	-11.3597
▁osteuropäische	-11.3597
▁abschließen	-11.3597
bücher	-11.3597
drehen	-11.3597
▁gelitten	-11.3597
▁körperliche	-11.3599
▁denkbar	-11.3604
afrikanischen	-11.3644
Gleichgültigkeit	-11.3701
Nichtverbreitung	-11.3701
▁Alexander	-11.3701
▁Blockade	-11.3701
▁Donald	-11.3701
▁Fabriken	-11.3701
▁MOSKAU	-11.3701
▁Mathematik	-11.3701
▁Mobilisierung	-11.3701
▁Ressentiments	-11.3701
▁Spiegel	-11.3701
▁Variante	-11.3701
▁befindliche	-11.3701
▁enttäuscht	-11.3701
▁eröffnen	-11.3701
▁lautstark	-11.3701
▁Tokio	-11.3701
▁schüren	-11.3701
▁Versprechungen	-11.3701
▁Bezahlung	-11.3701
▁Royal	-11.3701
▁krasse	-11.3701
▁Barrel	-11.3701
▁Putsch	-11.3701
▁neigt	-11.3701
▁Fahrzeuge	-11.3701
▁Stock	-11.3701
▁beantworten	-11.3702
▁bürgerliche	-11.3704
▁Schwierigkeit	-11.3711
unterstütz	-11.3723
▁leere	-11.3723
Impfstoff	-11.3733
▁1,3	-11.375
▁versichert	-11.3758
Kredit	-11.3759
Chef	-11.376
–	-11.376
▁chinesisch	-11.3778
Meinungsäußerung	-11.3806
abschwung	-11.3806
polizei	-11.3806
▁Bundeskanzler	-11.3806
▁Heutzutage	-11.3806
▁Koizumi	-11.3806
▁Marktteilnehmer	-11.3806
▁Südasien	-11.3806
▁empfinden	-11.3806
▁irgendetwas	-11.3806
▁Englisch	-11.3806
▁Französisch	-11.3806
▁Getreide	-11.3806
▁Vertretung	-11.3806
▁berüchtigt	-11.3806
▁rigoros	-11.3806
▁verzögert	-11.3806
▁kühne	-11.3806
▁taktische	-11.3806
▁angeklagt	-11.3806
▁gelenkt	-11.3806
sammenzuarbeiten	-11.3806
▁Zeuge	-11.3807
▁passiv	-11.3808
▁Geburtenrate	-11.3808
fehler	-11.3821
Neu	-11.3898
▁Brustkrebs	-11.3912
▁Säuberung	-11.3912
EFSF	-11.3912
brecher	-11.3912
▁Dringlichkeit	-11.3912
▁Kapitalflucht	-11.3912
▁Nuklearwaffen	-11.3912
▁Polizisten	-11.3912
▁Populisten	-11.3912
▁Schließung	-11.3912
▁Thomas	-11.3912
▁Verbrennung	-11.3912
▁andernfalls	-11.3912
▁angehäuft	-11.3912
▁aufgehoben	-11.3912
▁föderale	-11.3912
▁geöffnet	-11.3912
▁keynesianische	-11.3912
▁ratifiziert	-11.3912
▁unerlässlich	-11.3912
▁unpopulär	-11.3912
▁alarmierend	-11.3912
▁Zahlungsunfähig	-11.3912
▁zweitgrößte	-11.3912
▁Kreuz	-11.3912
▁schwindende	-11.3912
▁leihen	-11.3913
▁bewahrt	-11.3913
▁begünstigen	-11.3914
▁erteilt	-11.3923
Institut	-11.4004
praktiken	-11.402
▁Abschwächung	-11.402
▁Ethik	-11.402
▁Liberia	-11.402
▁Organismen	-11.402
▁Präzedenzfall	-11.402
▁Stellvertreter	-11.402
▁Tschechische	-11.402
▁eingeräumt	-11.402
▁fließt	-11.402
▁genießt	-11.402
▁grausam	-11.402
▁identifizieren	-11.402
▁kombiniert	-11.402
▁lebenswichtige	-11.402
▁unerwünscht	-11.402
▁unterworfen	-11.402
▁Verurteilung	-11.402
▁befriedigen	-11.402
▁härter	-11.402
▁Gewebe	-11.402
▁faktisch	-11.402
▁Brüder	-11.402
▁übersteigt	-11.402
▁Davos	-11.402
▁plus	-11.402
▁Unterfangen	-11.402
▁Island	-11.4021
speicher	-11.4022
papiere	-11.4024
▁Richtig	-11.403
garantie	-11.4032
Staatsanleihen	-11.4086
fährt	-11.4086
prämie	-11.4091
experiment	-11.4129
flugzeug	-11.4129
undzwanzig	-11.4129
▁Bestechung	-11.4129
▁Reaktor	-11.4129
▁Unterscheidung	-11.4129
▁manipulieren	-11.4129
▁Tourismus	-11.4129
▁schürt	-11.4129
▁Siedler	-11.4129
erkrankungen	-11.4129
▁beklagen	-11.4129
▁heimische	-11.4147
spezifisch	-11.4148
ausgewogen	-11.415
▁Finanzunternehm	-11.4166
Arbeit	-11.4198
häuser	-11.4238
monopol	-11.4238
▁Bahrain	-11.4238
▁Desaster	-11.4238
▁Könnte	-11.4238
▁Skeptiker	-11.4238
▁Teheran	-11.4238
▁Unterernährung	-11.4238
▁Todesopfer	-11.4238
▁Gesichtspunkt	-11.4238
vorsitzende	-11.4239
▁Arzt	-11.4239
verpflichtung	-11.4239
▁stürzte	-11.424
Swap	-11.4245
▁Goldstandard	-11.4258
abhängige	-11.4275
▁Unruhe	-11.4295
Risikomanagement	-11.4301
Energieeffizienz	-11.4308
Terror	-11.431
wirtschaftskrise	-11.4334
spiegel	-11.4345
▁Johannes	-11.435
sungleichheit	-11.435
▁Artenvielfalt	-11.435
▁Aufruhr	-11.435
▁Benjamin	-11.435
▁Bestätigung	-11.435
▁Fukushima	-11.435
▁Juschtschenko	-11.435
▁Nominal	-11.435
▁Provokation	-11.435
▁Versöhnung	-11.435
▁abgelöst	-11.435
▁antizyklische	-11.435
▁bremsen	-11.435
▁interpretiert	-11.435
▁kritisieren	-11.435
▁verhelfen	-11.435
▁Pandemie	-11.435
▁Vorsorge	-11.435
▁Inhaftierung	-11.435
▁Einheitswährung	-11.435
▁Psycho	-11.435
entgegenzuwirken	-11.435
familie	-11.435
▁Hitze	-11.435
▁Impfungen	-11.435
▁Castro	-11.435
▁Arsenal	-11.435
minderung	-11.435
▁dokumentiert	-11.435
▁zitiert	-11.435
▁importieren	-11.4351
▁bedeutendste	-11.4352
antwortungsvolle	-11.4353
wirksam	-11.4423
Erweiterung	-11.4423
▁verließ	-11.4423
insbesondere	-11.4423
▁Alkohol	-11.4462
▁Hedgefonds	-11.4462
abgeordnete	-11.4462
kontinent	-11.4462
▁Amtsantritt	-11.4462
▁Treibstoff	-11.4462
▁abgeschafft	-11.4462
▁angestrebt	-11.4462
▁entscheidet	-11.4462
▁holländische	-11.4462
▁intervenieren	-11.4462
▁kooperativ	-11.4462
▁rücksichtslos	-11.4462
▁Überschwemmung	-11.4462
▁Bekannt	-11.4462
▁Lettland	-11.4462
▁Henry	-11.4462
▁Verdacht	-11.4462
▁fragile	-11.4462
▁kommunale	-11.4462
▁akute	-11.4462
▁georgische	-11.4463
Arbeitslosenrate	-11.4465
▁Bereits	-11.4475
entwickelt	-11.4512
bekannt	-11.4531
presse	-11.4546
▁deutsch	-11.4557
orientiert	-11.4566
prüfung	-11.4573
knappheit	-11.4576
▁Crash	-11.4576
▁Gedächtnis	-11.4576
▁Kaukasus	-11.4576
▁Vorwurf	-11.4576
▁Webseite	-11.4576
▁bedrohlich	-11.4576
▁herbeigeführt	-11.4576
▁irrelevant	-11.4576
▁2016	-11.4576
▁abzuwarten	-11.4576
▁erfunden	-11.4576
▁einzuleiten	-11.4576
▁energisch	-11.4576
▁dänische	-11.4576
▁Austerität	-11.4576
▁enttäuschend	-11.4576
▁beschließen	-11.4576
anreize	-11.4576
▁kennt	-11.4576
resistente	-11.4576
▁besiegt	-11.4577
froren	-11.4585
▁Eigeninteresse	-11.4594
▁Auseinander	-11.4615
symbol	-11.4689
reduzierung	-11.469
▁BERKELEY	-11.469
▁Jintao	-11.469
▁atemberaubend	-11.469
▁minimieren	-11.469
▁prüfen	-11.469
▁stattfindet	-11.469
▁unvorstellbar	-11.469
▁zögerlich	-11.469
▁Eisenbahn	-11.469
▁1982	-11.4691
▁stattfand	-11.4691
▁Darwin	-11.4691
▁Gewerbe	-11.4691
▁nunmehr	-11.4691
▁bedacht	-11.4691
▁blind	-11.4691
belastung	-11.4691
gemischt	-11.4694
Meinungsfreiheit	-11.4697
▁vorzeitig	-11.4698
fabrik	-11.4807
täuschen	-11.4807
prognose	-11.4807
▁Bankenaufsicht	-11.4807
▁Moslems	-11.4807
▁Objekt	-11.4807
▁Verwirrung	-11.4807
skandal	-11.4807
▁Freude	-11.4807
leidenschaftlich	-11.4822
Bevölkerungszahl	-11.4901
nährung	-11.4919
▁Rüstungs	-11.4924
▁vordringlich	-11.4924
▁Chruschtschow	-11.4924
▁Facebook	-11.4924
▁Geduld	-11.4924
▁Gegenwärtig	-11.4924
▁Horizont	-11.4924
▁Kambodscha	-11.4924
▁Saatgut	-11.4924
▁anerkennt	-11.4924
▁erschwinglich	-11.4924
▁verlängert	-11.4924
▁widmet	-11.4924
▁öffnet	-11.4924
▁Balance	-11.4924
▁Rentner	-11.4924
▁Havel	-11.4924
▁Entschuldigung	-11.4924
▁Trichet	-11.4924
Restrukturierung	-11.4925
biolog	-11.493
▁Trump	-11.495
▁Bedürfnis	-11.4979
▁hoffe	-11.4998
▁unglücklich	-11.5037
▁Bodenschätze	-11.5043
▁Fairness	-11.5043
▁Himmel	-11.5043
▁Kapitel	-11.5043
▁Kuwait	-11.5043
▁Pluralismus	-11.5043
▁Polarisierung	-11.5043
▁Uganda	-11.5043
▁angespannt	-11.5043
▁demonstrieren	-11.5043
▁formulieren	-11.5043
▁gigantische	-11.5043
▁herausragende	-11.5043
▁schmerzlich	-11.5043
▁verdammt	-11.5043
▁vermeidbar	-11.5043
▁Ärger	-11.5043
▁Wiederholung	-11.5043
▁konstant	-11.5043
▁1981	-11.5043
▁Beschwerden	-11.5043
▁schadet	-11.5043
freudig	-11.5044
verschwenderisch	-11.5044
▁mangelhafte	-11.5044
▁Obergrenze	-11.5044
▁Panzer	-11.5044
▁Heilige	-11.5045
reserv	-11.5085
▁Zurück	-11.5163
Strafgerichtshof	-11.5164
bewohner	-11.5164
direktor	-11.5164
schiedenheiten	-11.5164
▁Betreuung	-11.5164
▁Marshall	-11.5164
▁Rumsfeld	-11.5164
▁Volumen	-11.5164
▁heimgesucht	-11.5164
▁nervös	-11.5164
▁oberflächlich	-11.5164
▁parallel	-11.5164
▁praktikable	-11.5164
▁reibungslos	-11.5164
anwälte	-11.5164
▁Vernichtung	-11.5164
▁lindern	-11.5164
▁arbeitsintensiv	-11.5164
▁imperiale	-11.5164
▁Ausgangspunkt	-11.5164
▁beharrt	-11.5164
▁bequem	-11.5164
▁Sinai	-11.5164
▁kündigte	-11.5164
▁Geschenk	-11.5164
▁Nichtregierungs	-11.5164
▁Calder	-11.5164
▁beschert	-11.5164
▁Misere	-11.5164
▁baltische	-11.5164
▁belohnt	-11.5165
▁Studierende	-11.5167
▁Konsequenz	-11.5208
Verteidigungs	-11.5256
Modell	-11.5256
ereignis	-11.5264
infrastruktur	-11.5286
▁Antisemitismus	-11.5286
▁Bemerkung	-11.5286
▁Flügel	-11.5286
▁Mehrwertsteuer	-11.5286
▁TOKIO	-11.5286
▁Universum	-11.5286
▁korrigieren	-11.5286
▁kriminelle	-11.5286
▁mobilisiert	-11.5286
▁undurchsichtig	-11.5286
▁vorzubereiten	-11.5286
▁einzurichten	-11.5286
▁Visier	-11.5286
▁Inhaber	-11.5286
▁Lizenz	-11.5286
▁Moderne	-11.5286
▁rechtfertigt	-11.5286
▁Bashar	-11.5286
▁Belohnung	-11.5286
▁Tugend	-11.5286
figur	-11.5288
▁vergeblich	-11.5288
schweige	-11.5293
Claud	-11.5308
▁ehemal	-11.5337
stabilität	-11.5344
Kreislauf	-11.5406
▁Premier	-11.5409
▁Bulgarien	-11.5409
▁Corporation	-11.5409
▁Embryo	-11.5409
▁Hunderttausende	-11.5409
▁Kleinbauern	-11.5409
▁Kommunen	-11.5409
▁Palette	-11.5409
▁Südossetien	-11.5409
▁Tschernobyl	-11.5409
▁Vermittlung	-11.5409
▁gewünscht	-11.5409
▁inklusive	-11.5409
▁1929	-11.5409
▁Dmitri	-11.5409
▁Ermittlung	-11.5409
▁begeistert	-11.5409
▁stagniert	-11.5409
▁Anwesenheit	-11.5409
▁PLO	-11.5409
ifikation	-11.5409
▁unvollständig	-11.5409
▁aufschlussreich	-11.5409
▁geeinigt	-11.5409
▁Innenpolitik	-11.5409
▁operieren	-11.541
▁ostasiatische	-11.541
▁Appell	-11.541
fusion	-11.5411
Währungsreserven	-11.5479
Groß	-11.5504
▁Kurzfristig	-11.5534
▁Slowakei	-11.5534
▁bankrott	-11.5534
▁eingestuft	-11.5534
▁verdrängt	-11.5534
▁ähneln	-11.5534
▁Anreicherung	-11.5534
▁Missachtung	-11.5534
▁feiern	-11.5534
▁FSB	-11.5534
▁neunzehnte	-11.5534
Attacke	-11.5534
▁bestünde	-11.5534
▁Holz	-11.5535
▁Dreh	-11.5535
▁0,2	-11.5535
▁Kraftwerke	-11.5537
▁ehrgeizig	-11.5578
▁ethnisch	-11.5587
fliege	-11.56
strategische	-11.5637
▁basieren	-11.5656
Sozialdemokraten	-11.5661
protokoll	-11.5661
▁Abchasien	-11.5661
▁Anbieter	-11.5661
▁FARC	-11.5661
▁Fettleibigkeit	-11.5661
▁Freilassung	-11.5661
▁Gräueltaten	-11.5661
▁Hinzukommt	-11.5661
▁Metapher	-11.5661
▁Tribunal	-11.5661
▁Vakuum	-11.5661
▁Wettstreit	-11.5661
▁beizubehalten	-11.5661
▁ernähren	-11.5661
▁signalisieren	-11.5661
▁verzögern	-11.5661
▁überhöhte	-11.5661
▁Churchill	-11.5661
▁Kürze	-11.5661
▁erschöpft	-11.5661
▁feindselig	-11.5661
▁gekürzt	-11.5661
klammer	-11.5661
▁Entschuldung	-11.5661
▁Präventiv	-11.5661
▁Überwindung	-11.5661
▁Staatsstreich	-11.5661
▁Motto	-11.5661
▁Kanäle	-11.5661
▁grob	-11.5662
▁wild	-11.5664
umweltfreundlich	-11.5671
wendig	-11.5682
Kartell	-11.57
nschließend	-11.5724
Fundamentalismus	-11.5733
ständlicherweise	-11.5747
▁ländliche	-11.5753
islamisch	-11.5755
Klima	-11.5766
Bürger	-11.5767
▁bedenke	-11.5769
Kommissar	-11.5789
Qaeda	-11.5789
iaoping	-11.5789
▁Ayatollah	-11.5789
▁Bangladesch	-11.5789
▁Häftlinge	-11.5789
▁Literatur	-11.5789
▁ungeheure	-11.5789
▁verweigern	-11.5789
onjunkturimpulse	-11.5789
▁Franklin	-11.5789
▁Uribe	-11.5789
▁beantwortet	-11.5789
▁toxische	-11.5789
widrig	-11.5789
▁Tumor	-11.579
▁erfolglos	-11.579
▁Atomkraftwerk	-11.583
Hilf	-11.5831
▁Gefähr	-11.5839
▁Gestalt	-11.5897
Revolution	-11.5898
expansion	-11.5919
▁Beschleunigung	-11.5919
▁Drohnen	-11.5919
dimension	-11.5919
▁Ausrottung	-11.5919
▁Einladung	-11.5919
▁Joseph	-11.5919
▁Khamenei	-11.5919
▁Mäßigung	-11.5919
▁Offensichtlich	-11.5919
▁Verteidiger	-11.5919
▁diskreditiert	-11.5919
▁progressive	-11.5919
▁unvorhersehbar	-11.5919
▁überprüft	-11.5919
sorgniserregend	-11.5919
▁1968	-11.5919
▁Faschismus	-11.5919
▁Periode	-11.5919
▁bereitwillig	-11.5919
▁Jiang	-11.5919
▁beachtet	-11.5919
wiederherstellen	-11.592
werbsbevölkerung	-11.5936
missverständlich	-11.5937
züglich	-11.5988
Destabilisierung	-11.6015
technische	-11.6031
Sicherheit	-11.6033
notwendigerweise	-11.6038
Diplomat	-11.6047
konvention	-11.605
konjunktur	-11.6051
doktrin	-11.6051
gleichberechtigt	-11.6051
▁Behinderung	-11.6051
▁Hatoyama	-11.6051
▁Kissinger	-11.6051
▁Künstler	-11.6051
▁Liberalismus	-11.6051
▁MASS	-11.6051
▁Madrid	-11.6051
▁Orientierung	-11.6051
▁Science	-11.6051
▁empfindlich	-11.6051
▁notleidende	-11.6051
▁quasi	-11.6051
▁rührt	-11.6051
▁wünscht	-11.6051
▁heikle	-11.6051
▁Eskalation	-11.6051
▁Imperium	-11.6051
▁Schuldenabbau	-11.6051
▁fügt	-11.6051
▁Blatt	-11.6051
▁unglaublich	-11.6051
▁rechtzeitig	-11.6051
▁Gelehrte	-11.6051
▁erreichbar	-11.6051
▁berufliche	-11.6052
▁gegenteilige	-11.6054
▁französisch	-11.6145
Islam	-11.6167
Ziel	-11.6167
abhängigkeit	-11.6181
▁Repräsentanten	-11.6183
explosion	-11.6184
▁Ausbeutung	-11.6184
▁Blutvergießen	-11.6184
▁Diabetes	-11.6184
▁Foundation	-11.6184
▁Föderation	-11.6184
▁Gerüchte	-11.6184
▁Hierarchie	-11.6184
▁Kroatien	-11.6184
▁Mainstream	-11.6184
▁Olmert	-11.6184
▁Prävention	-11.6184
▁Reinhart	-11.6184
▁Schiefergas	-11.6184
▁begegnet	-11.6184
▁fortdauernde	-11.6184
▁geknüpft	-11.6184
▁untermauert	-11.6184
▁verfehlt	-11.6184
▁verwehrt	-11.6184
▁auszuschließen	-11.6184
▁geschürt	-11.6184
▁gestorben	-11.6184
▁1985	-11.6184
▁1987	-11.6184
▁Abneigung	-11.6184
▁Zuversicht	-11.6184
▁unterbewertet	-11.6184
wirtschaftsforum	-11.6184
▁gelobt	-11.6184
▁Kontrast	-11.6184
▁faule	-11.6185
Konferenz	-11.6304
plätze	-11.6318
▁Vitamin	-11.6319
DELHI	-11.6319
▁Diskrepanz	-11.6319
▁Einsparungen	-11.6319
▁Genehmigung	-11.6319
▁Jinping	-11.6319
▁KOPENHAGEN	-11.6319
▁Kommunal	-11.6319
▁Neuseeland	-11.6319
▁Pragmatismus	-11.6319
▁Resistenz	-11.6319
▁Valley	-11.6319
▁Verknüpfung	-11.6319
▁Verlängerung	-11.6319
▁aufgezeigt	-11.6319
▁einzuschränken	-11.6319
▁gekostet	-11.6319
▁irgendjemand	-11.6319
▁isolieren	-11.6319
▁koordinieren	-11.6319
▁lähmen	-11.6319
▁stößt	-11.6319
▁transnationale	-11.6319
▁westeuropäische	-11.6319
▁Schranken	-11.6319
▁EWU	-11.6319
▁Kolonie	-11.6319
▁0,7	-11.6319
▁Einwände	-11.6319
▁Insider	-11.6319
ementsprechend	-11.6319
Selbstbestimmung	-11.6319
▁schockierend	-11.632
Armutsbekämpfung	-11.6325
kollektiv	-11.6368
verhältnis	-11.6402
Hypotheken	-11.6443
Botschaft	-11.6443
argument	-11.6455
▁Restaurant	-11.6456
europäer	-11.6456
▁Ecuador	-11.6456
▁Meilenstein	-11.6456
▁Nächste	-11.6456
▁Obasanjo	-11.6456
▁Offiziell	-11.6456
▁Prestige	-11.6456
▁Uruguay	-11.6456
▁dürftig	-11.6456
▁eindämmen	-11.6456
▁gewöhnt	-11.6456
▁machbar	-11.6456
▁maximal	-11.6456
▁sensible	-11.6456
▁untermauern	-11.6456
▁dreht	-11.6456
▁vermindert	-11.6456
▁IMF	-11.6456
▁Wachstumspakt	-11.6456
▁Schlechte	-11.6456
konzept	-11.6456
▁Füße	-11.6456
▁älteste	-11.6456
Affäre	-11.646
▁Patient	-11.6534
General	-11.6584
beginn	-11.6589
Abenomics	-11.6595
Herangehensweise	-11.6595
widerstandsfähig	-11.6595
▁Entweder	-11.6595
▁Kriminalität	-11.6595
▁OPEC	-11.6595
▁OSZE	-11.6595
▁Pinochet	-11.6595
▁Täuschung	-11.6595
▁einstimmig	-11.6595
▁reflektiert	-11.6595
▁ultimative	-11.6595
▁unterschätzen	-11.6595
▁unverändert	-11.6595
▁zeitweilig	-11.6595
▁zögern	-11.6595
▁Entfremdung	-11.6595
▁verzerren	-11.6595
▁Rassismus	-11.6595
▁entfalten	-11.6595
▁gesünder	-11.6595
▁Delhi	-11.6595
▁Gehör	-11.6598
Mail	-11.66
▁unternahm	-11.6643
▁Gedanke	-11.6712
militärische	-11.6726
Initiative	-11.6726
▁Möglich	-11.6732
Diversifizierung	-11.6736
▁Florida	-11.6736
▁Kaschmir	-11.6736
▁Pattsituation	-11.6736
▁Unterbrechung	-11.6736
▁William	-11.6736
▁beängstigend	-11.6736
▁existenzielle	-11.6736
▁hingewiesen	-11.6736
▁kanadische	-11.6736
▁schrumpft	-11.6736
▁thailändische	-11.6736
▁verdreifacht	-11.6736
▁weitverbreitet	-11.6736
verfassungsmäßig	-11.6736
▁Selektion	-11.6736
▁CEO	-11.6736
Review	-11.6736
beauftragte	-11.6736
▁Exzesse	-11.6736
▁berühmt	-11.6857
▁College	-11.6879
▁2025	-11.6879
▁Chodorkowski	-11.6879
▁Individuum	-11.6879
▁MADRID	-11.6879
▁Minimum	-11.6879
▁Staatsbankrott	-11.6879
▁Strafverfolgung	-11.6879
▁Stämme	-11.6879
▁aufmerksam	-11.6879
▁bahnbrechende	-11.6879
▁dysfunktional	-11.6879
▁skandinavische	-11.6879
▁tschechische	-11.6879
▁unangemessen	-11.6879
▁verdeutlicht	-11.6879
▁alltäglich	-11.6879
gesperrt	-11.6879
▁Komitee	-11.6879
▁protestieren	-11.6879
▁versorgt	-11.6879
▁teilnahm	-11.6879
▁Vorurteile	-11.6879
beschäftigung	-11.6949
Autonomiebehörde	-11.697
Projekt	-11.7018
Führer	-11.7018
Volkswirtschaft	-11.7018
verknappung	-11.7024
▁Chicago	-11.7024
▁Gremien	-11.7024
▁Jiabao	-11.7024
▁administrative	-11.7024
▁bösartige	-11.7024
▁überschüssige	-11.7024
▁Bezirk	-11.7024
▁Kollektiv	-11.7024
▁Mineral	-11.7024
▁verbündet	-11.7024
▁1988	-11.7024
▁urbane	-11.7024
▁Hektar	-11.7024
▁nutzlos	-11.7024
ährungsabwertung	-11.7024
Kreditwürdigkeit	-11.7024
schäftsführende	-11.7024
Kolleg	-11.7024
▁Strecke	-11.7025
Tayy	-11.7031
III	-11.7061
fördernde	-11.7161
Zigarette	-11.7171
koalition	-11.7171
▁Akademiker	-11.7171
▁Autoritarismus	-11.7171
▁Economy	-11.7171
▁Istanbul	-11.7171
▁Katalysator	-11.7171
▁Präferenz	-11.7171
▁Umwandlung	-11.7171
▁beurteilt	-11.7171
▁ergänzt	-11.7171
▁fiskale	-11.7171
▁gestört	-11.7171
▁gültig	-11.7171
▁hoffnungslos	-11.7171
▁schlüssig	-11.7171
▁Ämter	-11.7171
▁1986	-11.7171
▁dezentralisiert	-11.7171
▁einverstanden	-11.7171
▁juristische	-11.7171
▁unbestreitbar	-11.7171
▁Finanzaufsicht	-11.7171
▁Zentren	-11.7171
▁beharren	-11.7171
Klausel	-11.7171
Energie	-11.7319
Konsens	-11.7319
Führung	-11.732
bedrohung	-11.732
gremium	-11.732
hinterziehung	-11.732
▁Bailout	-11.732
▁Bhutto	-11.732
▁Brutalität	-11.732
▁Fünfjahresplan	-11.732
▁Kontraktion	-11.732
▁Separatisten	-11.732
▁Silicon	-11.732
▁Stromerzeugung	-11.732
▁Timoschenko	-11.732
▁Unbehagen	-11.732
▁Yukos	-11.732
▁anlässlich	-11.732
▁einzuschätzen	-11.732
▁expandieren	-11.732
▁konsolidieren	-11.732
▁multipolare	-11.732
▁ordentlich	-11.732
▁plausibel	-11.732
▁potentiell	-11.732
▁psychiatrische	-11.732
▁sozioökonomisch	-11.732
▁totalitäre	-11.732
▁unzulänglich	-11.732
▁verwirklichen	-11.732
▁zielgerichtete	-11.732
▁Abenteuer	-11.732
▁online	-11.732
▁repräsentieren	-11.732
▁verdanken	-11.732
▁studieren	-11.732
▁ereignete	-11.732
▁prinzipiell	-11.732
offensive	-11.7339
▁Ersparnis	-11.7416
Maschine	-11.747
▁jäh	-11.7471
Effekt	-11.7471
opplung	-11.7471
reaktor	-11.7471
tschetschenische	-11.7471
zölle	-11.7471
▁Abwicklung	-11.7471
▁Breitband	-11.7471
▁Eurobonds	-11.7471
▁Flüsse	-11.7471
▁Guatemala	-11.7471
▁IStGH	-11.7471
▁Lebensunterhalt	-11.7471
▁Mitleidenschaft	-11.7471
▁Unstimmigkeiten	-11.7471
▁erzählen	-11.7471
▁gleichgültig	-11.7471
▁herrühren	-11.7471
▁kolumbianische	-11.7471
▁Anwalt	-11.7471
▁BERLIN	-11.7471
▁Betroffen	-11.7471
▁Machtübernahme	-11.7471
▁riskiert	-11.7471
▁unzufrieden	-11.7471
„	-11.9904
Ü	-12.386
(	-12.4327
#	-13.1882
ö	-13.1882
